{
  "vocab_size": 4000,
  "vocab": {
    "<PAD>": 0,
    "<UNK>": 1,
    "<LOG>": 2,
    "<SEP>": 3,
    "<END>": 4,
    "%": 5,
    "(": 6,
    ")": 7,
    ",": 8,
    "-": 9,
    ".": 10,
    "/": 11,
    "0": 12,
    "1": 13,
    "2": 14,
    "3": 15,
    "4": 16,
    "5": 17,
    "6": 18,
    "7": 19,
    "8": 20,
    "9": 21,
    ":": 22,
    "</w>": 23,
    "=": 24,
    "A": 25,
    "B": 26,
    "C": 27,
    "D": 28,
    "E": 29,
    "F": 30,
    "G": 31,
    "H": 32,
    "I": 33,
    "K": 34,
    "L": 35,
    "M": 36,
    "N": 37,
    "O": 38,
    "P": 39,
    "R": 40,
    "S": 41,
    "T": 42,
    "U": 43,
    "V": 44,
    "W": 45,
    "Y": 46,
    "Z": 47,
    "[": 48,
    "]": 49,
    "_": 50,
    "a": 51,
    "b": 52,
    "c": 53,
    "d": 54,
    "e": 55,
    "f": 56,
    "g": 57,
    "h": 58,
    "i": 59,
    "j": 60,
    "k": 61,
    "l": 62,
    "m": 63,
    "n": 64,
    "o": 65,
    "p": 66,
    "r": 67,
    "s": 68,
    "t": 69,
    "u": 70,
    "v": 71,
    "x": 72,
    "y": 73,
    "z": 74,
    "|": 75,
    "°": 76,
    "Ç": 77,
    "ç": 78,
    "ü": 79,
    "ğ": 80,
    "İ": 81,
    "ı": 82,
    "ş": 83,
    "⚠": 84,
    "⚡": 85,
    "✅": 86,
    "❌": 87,
    "️": 88,
    "📍": 89,
    "📡": 90,
    "🔥": 91,
    "|</w>": 92,
    ":1": 93,
    ".</w>": 94,
    "le": 95,
    "1</w>": 96,
    "AD": 97,
    "31</w>": 98,
    "in": 99,
    "se": 100,
    "ADD": 101,
    "AL": 102,
    "]</w>": 103,
    "ADDR": 104,
    "ADDR:": 105,
    "ADDR:0": 106,
    "ADDR:0x": 107,
    "TS": 108,
    "TS:1": 109,
    "TS:16": 110,
    "TS:16:1": 111,
    "TS:16:14": 112,
    "TS:16:14:": 113,
    "TS:16:14:31</w>": 114,
    ":</w>": 115,
    "ı</w>": 116,
    "e</w>": 117,
    "a</w>": 118,
    "i</w>": 119,
    "AT": 120,
    "SI": 121,
    "er": 122,
    "iy": 123,
    "AR": 124,
    "Sİ": 125,
    "m</w>": 126,
    "de": 127,
    "BAT": 128,
    "V</w>": 129,
    "ta": 130,
    "il": 131,
    "al": 132,
    "es": 133,
    "ti": 134,
    "Tİ": 135,
    "tı": 136,
    "BAT_": 137,
    "is": 138,
    "ot": 139,
    "oto": 140,
    "T=": 141,
    "la": 142,
    "te": 143,
    "sev": 144,
    "seviy": 145,
    "seviyes": 146,
    "seviyesin": 147,
    "tif": 148,
    "S_": 149,
    "ST": 150,
    "lem": 151,
    "EM": 152,
    "GP": 153,
    "11": 154,
    "A</w>": 155,
    "10": 156,
    "RS": 157,
    "RSSI": 158,
    "dB": 159,
    "SİN": 160,
    "ko": 161,
    "ba": 162,
    "no": 163,
    "m.</w>": 164,
    "sey": 165,
    "ir": 166,
    "re": 167,
    "BAT_V": 168,
    "BAT_VO": 169,
    "BAT_VOL": 170,
    "BAT_VOLT=": 171,
    "er</w>": 172,
    "u</w>": 173,
    "sı</w>": 174,
    "ri</w>": 175,
    "L]</w>": 176,
    "tifa</w>": 177,
    "ili": 178,
    "Sis": 179,
    "Siste": 180,
    ")</w>": 181,
    "seviyesine</w>": 182,
    "OR": 183,
    "alı": 184,
    "T_": 185,
    "ARI": 186,
    "SI:</w>": 187,
    "nd": 188,
    "GPS_": 189,
    "S</w>": 190,
    "di": 191,
    "di.</w>": 192,
    "MO": 193,
    "I:</w>": 194,
    "ak": 195,
    "ut": 196,
    "TEM": 197,
    "TEMP": 198,
    "TEMP_": 199,
    "°C": 200,
    "sı": 201,
    "rı</w>": 202,
    "ma</w>": 203,
    "2.": 204,
    "0</w>": 205,
    "-11": 206,
    "9.": 207,
    "ED": 208,
    "FA": 209,
    "12.": 210,
    "FA</w>": 211,
    "[C": 212,
    "[CO": 213,
    "[COM": 214,
    "[COMM": 215,
    "[COMM_": 216,
    "[COMM_FA": 217,
    "[COMM_FAI": 218,
    "[COMM_FAIL]</w>": 219,
    "RSSI=": 220,
    "dBm</w>": 221,
    "📡</w>": 222,
    "SİNY": 223,
    "SİNYAL": 224,
    "SİNYAL</w>": 225,
    "KE": 226,
    "KESİN": 227,
    "KESİNTİ": 228,
    "KESİNTİSİ": 229,
    "KESİNTİSİ:</w>": 230,
    "RSSI</w>": 231,
    "dBm.</w>": 232,
    "Yer</w>": 233,
    "ista": 234,
    "istas": 235,
    "istasy": 236,
    "istasyo": 237,
    "istasyon": 238,
    "istasyonu</w>": 239,
    "bağ": 240,
    "bağla": 241,
    "bağlan": 242,
    "bağlantı": 243,
    "bağlantısı</w>": 244,
    "kop": 245,
    "kopt": 246,
    "koptu": 247,
    "koptu,": 248,
    "koptu,</w>": 249,
    "otono": 250,
    "otonom</w>": 251,
    "seyir": 252,
    "seyir</w>": 253,
    "dev": 254,
    "devre": 255,
    "devrede": 256,
    "devrede.</w>": 257,
    "[BAT_": 258,
    "[BAT_C": 259,
    "[BAT_CR": 260,
    "[BAT_CRI": 261,
    "[BAT_CRIT": 262,
    "[BAT_CRIT]</w>": 263,
    "⚠️": 264,
    "⚠️</w>": 265,
    "BATAR": 266,
    "BATARY": 267,
    "BATARYA</w>": 268,
    "KR": 269,
    "KRİ": 270,
    "KRİTİ": 271,
    "KRİTİK": 272,
    "KRİTİK:</w>": 273,
    "Ger": 274,
    "Gerili": 275,
    "Gerilim</w>": 276,
    "dü": 277,
    "düş": 278,
    "düşt": 279,
    "düştü": 280,
    "düştü.</w>": 281,
    "Sistem</w>": 282,
    "ac": 283,
    "acil": 284,
    "acil</w>": 285,
    "ini": 286,
    "iniş": 287,
    "iniş</w>": 288,
    "pr": 289,
    "proto": 290,
    "protoko": 291,
    "protokol": 292,
    "protokolü": 293,
    "protokolün": 294,
    "protokolünü": 295,
    "protokolünü</w>": 296,
    "(R": 297,
    "(RT": 298,
    "(RTH": 299,
    "(RTH)</w>": 300,
    "baş": 301,
    "başla": 302,
    "başlat": 303,
    "başlattı": 304,
    "başlattı.</w>": 305,
    "[S": 306,
    "[SY": 307,
    "[SYS_": 308,
    "[SYS_O": 309,
    "[SYS_OK": 310,
    "[SYS_OK]</w>": 311,
    "✅</w>": 312,
    "SİST": 313,
    "SİSTEM": 314,
    "SİSTEM</w>": 315,
    "NOR": 316,
    "NORM": 317,
    "NORMAL": 318,
    "NORMAL:</w>": 319,
    "Ba": 320,
    "Bata": 321,
    "Batar": 322,
    "Batary": 323,
    "Batarya</w>": 324,
    "seviyesind": 325,
    "seviyesinde</w>": 326,
    "ve</w>": 327,
    "telem": 328,
    "teleme": 329,
    "telemet": 330,
    "telemetri</w>": 331,
    "değ": 332,
    "değer": 333,
    "değerle": 334,
    "değerleri</w>": 335,
    "nom": 336,
    "nomin": 337,
    "nominal": 338,
    "nominal</w>": 339,
    "ar": 340,
    "aralı": 341,
    "aralık": 342,
    "aralıkta": 343,
    "aralıkta.</w>": 344,
    "[AL": 345,
    "[ALT_": 346,
    "[ALT_W": 347,
    "[ALT_WAR": 348,
    "[ALT_WARN": 349,
    "[ALT_WARN]</w>": 350,
    "ALT=": 351,
    "M</w>": 352,
    "📍</w>": 353,
    "ALÇ": 354,
    "ALÇA": 355,
    "ALÇAK": 356,
    "ALÇAK</w>": 357,
    "İR": 358,
    "İRTİ": 359,
    "İRTİFA</w>": 360,
    "UY": 361,
    "UYARI": 362,
    "UYARISI:</w>": 363,
    "İr": 364,
    "İrtifa</w>": 365,
    "Ar": 366,
    "Ara": 367,
    "Araç": 368,
    "Araç</w>": 369,
    "kr": 370,
    "kri": 371,
    "kriti": 372,
    "kritik": 373,
    "kritik</w>": 374,
    "irtifa</w>": 375,
    "eş": 376,
    "eşi": 377,
    "eşiğ": 378,
    "eşiğin": 379,
    "eşiğinin": 380,
    "eşiğinin</w>": 381,
    "altı": 382,
    "altınd": 383,
    "altında</w>": 384,
    "seyre": 385,
    "seyred": 386,
    "seyrediy": 387,
    "seyrediyo": 388,
    "seyrediyor": 389,
    "seyrediyor.</w>": 390,
    "1.": 391,
    "EED": 392,
    "[GPS_": 393,
    "[GPS_L": 394,
    "[GPS_LO": 395,
    "[GPS_LOST": 396,
    "[GPS_LOST]</w>": 397,
    "GPS_S": 398,
    "GPS_SAT": 399,
    "GPS_SAT=": 400,
    "cn": 401,
    "cnt": 402,
    "cnt</w>": 403,
    "❌</w>": 404,
    "GPS</w>": 405,
    "KA": 406,
    "KAY": 407,
    "KAYB": 408,
    "KAYBI:</w>": 409,
    "Kili": 410,
    "Kilit": 411,
    "Kilitl": 412,
    "Kilitli</w>": 413,
    "uy": 414,
    "uyd": 415,
    "uydu</w>": 416,
    "sa": 417,
    "say": 418,
    "sayı": 419,
    "sayısı</w>": 420,
    "Ata": 421,
    "Atale": 422,
    "Atalet": 423,
    "Ataletse": 424,
    "Ataletsel": 425,
    "Ataletsel</w>": 426,
    "Se": 427,
    "Sey": 428,
    "Seyr": 429,
    "Seyrü": 430,
    "Seyrüse": 431,
    "Seyrüsef": 432,
    "Seyrüsefer</w>": 433,
    "Sistem": 434,
    "Sistemi</w>": 435,
    "(I": 436,
    "(IN": 437,
    "(INS": 438,
    "(INS)</w>": 439,
    "aktif": 440,
    "aktif</w>": 441,
    "ed": 442,
    "edil": 443,
    "edildi.</w>": 444,
    "[MO": 445,
    "[MOT_": 446,
    "[MOT_ST": 447,
    "[MOT_STAL": 448,
    "[MOT_STALL]</w>": 449,
    "SP": 450,
    "SPEED": 451,
    "SPEED=": 452,
    "M/": 453,
    "M/S</w>": 454,
    "⚡</w>": 455,
    "MOT": 456,
    "MOTOR": 457,
    "MOTOR</w>": 458,
    "ARIZ": 459,
    "ARIZA": 460,
    "ARIZASI:</w>": 461,
    "İle": 462,
    "İler": 463,
    "İlerlem": 464,
    "İlerleme</w>": 465,
    "hı": 466,
    "hız": 467,
    "hızı</w>": 468,
    "m/": 469,
    "m/s": 470,
    "m/s</w>": 471,
    "ger": 472,
    "geri": 473,
    "gerile": 474,
    "geriledi.</w>": 475,
    "Moto": 476,
    "Motor": 477,
    "Motor</w>": 478,
    "bl": 479,
    "blo": 480,
    "blok": 481,
    "bloka": 482,
    "blokaj": 483,
    "blokajı</w>": 484,
    "şü": 485,
    "şüp": 486,
    "şüph": 487,
    "şüphes": 488,
    "şüphesi</w>": 489,
    "me": 490,
    "mev": 491,
    "mevc": 492,
    "mevcut": 493,
    "mevcut.</w>": 494,
    "100</w>": 495,
    "[TEMP_": 496,
    "[TEMP_H": 497,
    "[TEMP_HI": 498,
    "[TEMP_HIG": 499,
    "[TEMP_HIGH": 500,
    "[TEMP_HIGH]</w>": 501,
    "TEMP_C": 502,
    "TEMP_CP": 503,
    "TEMP_CPU": 504,
    "TEMP_CPU=": 505,
    "°C</w>": 506,
    "🔥</w>": 507,
    "ISI": 508,
    "ISI</w>": 509,
    "ALAR": 510,
    "ALARM": 511,
    "ALARMI:</w>": 512,
    "İş": 513,
    "İşlem": 514,
    "İşlemc": 515,
    "İşlemci</w>": 516,
    "sıc": 517,
    "sıcak": 518,
    "sıcakl": 519,
    "sıcaklı": 520,
    "sıcaklığ": 521,
    "sıcaklığı</w>": 522,
    "°C.</w>": 523,
    "Aş": 524,
    "Aşı": 525,
    "Aşırı</w>": 526,
    "ısı": 527,
    "ısın": 528,
    "ısınma</w>": 529,
    "ne": 530,
    "nede": 531,
    "neden": 532,
    "nedeniy": 533,
    "nedeniyle": 534,
    "nedeniyle</w>": 535,
    "so": 536,
    "soğ": 537,
    "soğut": 538,
    "soğutma</w>": 539,
    "fa": 540,
    "fan": 541,
    "fanla": 542,
    "fanları</w>": 543,
    "%100</w>": 544,
    "gü": 545,
    "güc": 546,
    "güce</w>": 547,
    "alınd": 548,
    "alındı": 549,
    "alındı.</w>": 550,
    "0.": 551,
    "11.": 552,
    "-10": 553,
    "RSSI=-11": 554,
    "8.": 555,
    "BAT_VOLT=12.": 556,
    "BAT_VOLT=9.": 557,
    "TEMP_CPU=8": 558,
    "GPS_SAT=0": 559,
    "GPS_SAT=0cnt</w>": 560,
    "0.</w>": 561,
    "GPS_SAT=1": 562,
    "GPS_SAT=1cnt</w>": 563,
    "1.</w>": 564,
    "TEMP_CPU=9": 565,
    "BAT_VOLT=11.": 566,
    "5V</w>": 567,
    "6V</w>": 568,
    "8V</w>": 569,
    "ADDR:0x6": 570,
    "3V</w>": 571,
    "ADDR:0x7": 572,
    "ADDR:0x2": 573,
    "3</w>": 574,
    "ADDR:0xB": 575,
    "ADDR:0xD": 576,
    "9V</w>": 577,
    "ADDR:0x8": 578,
    "6</w>": 579,
    "7</w>": 580,
    "7V</w>": 581,
    "4V</w>": 582,
    "5</w>": 583,
    "ADDR:0x3": 584,
    "10.": 585,
    "2</w>": 586,
    "F</w>": 587,
    "9</w>": 588,
    "4</w>": 589,
    "ADDR:0x4": 590,
    "C</w>": 591,
    "B</w>": 592,
    "ADDR:0x5": 593,
    "ADDR:0x0": 594,
    "ADDR:0xC": 595,
    "ADDR:0x9": 596,
    "E</w>": 597,
    "8</w>": 598,
    "2V</w>": 599,
    "1V</w>": 600,
    "ADDR:0xF": 601,
    "SPEED=0.": 602,
    "ADDR:0xA": 603,
    "ADDR:0xE": 604,
    "SPEED=1.": 605,
    "ADDR:0x1": 606,
    "D</w>": 607,
    "RSSI=-10": 608,
    "BAT_VOLT=8.": 609,
    "6.": 610,
    "7.": 611,
    "4.": 612,
    "5.": 613,
    "BAT_VOLT=10.": 614,
    "3.": 615,
    "SPEED=2.": 616,
    "9dBm</w>": 617,
    "9dBm.</w>": 618,
    "5dBm</w>": 619,
    "5dBm.</w>": 620,
    "36": 621,
    "48": 622,
    "35": 623,
    "21": 624,
    "ALT=7": 625,
    "6dBm</w>": 626,
    "6dBm.</w>": 627,
    "8dBm</w>": 628,
    "8dBm.</w>": 629,
    "49": 630,
    "46": 631,
    "26": 632,
    "37": 633,
    "47": 634,
    "19": 635,
    "25": 636,
    "ALT=5": 637,
    "38": 638,
    "7dBm</w>": 639,
    "7dBm.</w>": 640,
    "28": 641,
    "ALT=6": 642,
    "45": 643,
    "18": 644,
    "29": 645,
    "27": 646,
    "39": 647,
    "15": 648,
    "17": 649,
    "16": 650,
    "44": 651,
    "32": 652,
    "3M/S</w>": 653,
    "3m/s</w>": 654,
    "30": 655,
    "34": 656,
    "24": 657,
    "4°C</w>": 658,
    "4°C.</w>": 659,
    "22": 660,
    "79": 661,
    "68": 662,
    "08": 663,
    "3M</w>": 664,
    "3m.</w>": 665,
    "59": 666,
    "14": 667,
    "69": 668,
    "8°C</w>": 669,
    "8°C.</w>": 670,
    "12": 671,
    "1°C</w>": 672,
    "1°C.</w>": 673,
    "2°C</w>": 674,
    "2°C.</w>": 675,
    "78": 676,
    "5°C</w>": 677,
    "5°C.</w>": 678,
    "7°C</w>": 679,
    "7°C.</w>": 680,
    "05": 681,
    "0°C</w>": 682,
    "0°C.</w>": 683,
    "9°C</w>": 684,
    "9°C.</w>": 685,
    "6°C</w>": 686,
    "6°C.</w>": 687,
    "3°C</w>": 688,
    "3°C.</w>": 689,
    "58": 690,
    "66": 691,
    "31": 692,
    "77": 693,
    "BAT_VOLT=12.0": 694,
    "12.0": 695,
    "20": 696,
    "BAT_VOLT=12.5": 697,
    "12.5": 698,
    "40": 699,
    "55": 700,
    "41": 701,
    "CD": 702,
    "B8": 703,
    "BAT_VOLT=11.7": 704,
    "11.7": 705,
    "57": 706,
    "BE": 707,
    "42": 708,
    "BAT_VOLT=11.6": 709,
    "11.6": 710,
    "09": 711,
    "BAT_VOLT=12.4": 712,
    "12.4": 713,
    "BAT_VOLT=12.3": 714,
    "12.3": 715,
    "C9": 716,
    "FF": 717,
    "56": 718,
    "BAT_VOLT=11.9": 719,
    "11.9": 720,
    "BA": 721,
    "B9": 722,
    "E9": 723,
    "07": 724,
    "BD": 725,
    "BAT_VOLT=11.5": 726,
    "11.5": 727,
    "B6": 728,
    "BAT_VOLT=11.8": 729,
    "11.8": 730,
    "C8": 731,
    "F9": 732,
    "F8": 733,
    "06": 734,
    "FD": 735,
    "3D": 736,
    "76": 737,
    "BAT_VOLT=12.2": 738,
    "12.2": 739,
    "3A": 740,
    "E8": 741,
    "3C": 742,
    "RSSI=-109dBm</w>": 743,
    "-109dBm.</w>": 744,
    "74": 745,
    "2D": 746,
    "54": 747,
    "BAT_VOLT=12.1": 748,
    "12.1": 749,
    "3E": 750,
    "CA": 751,
    "RSSI=-115dBm</w>": 752,
    "-115dBm.</w>": 753,
    "81": 754,
    "0D": 755,
    "RSSI=-111": 756,
    "RSSI=-111dBm</w>": 757,
    "-111": 758,
    "-111dBm.</w>": 759,
    "04": 760,
    "84": 761,
    "02": 762,
    "RSSI=-112": 763,
    "RSSI=-112dBm</w>": 764,
    "-112": 765,
    "-112dBm.</w>": 766,
    "67": 767,
    "EA": 768,
    "RSSI=-108dBm</w>": 769,
    "-108dBm.</w>": 770,
    "RSSI=-113": 771,
    "RSSI=-113dBm</w>": 772,
    "-113": 773,
    "-113dBm.</w>": 774,
    "RSSI=-114": 775,
    "RSSI=-114dBm</w>": 776,
    "-114": 777,
    "-114dBm.</w>": 778,
    "RSSI=-106dBm</w>": 779,
    "-106dBm.</w>": 780,
    "FC": 781,
    "RSSI=-105dBm</w>": 782,
    "-105dBm.</w>": 783,
    "F7": 784,
    "B7": 785,
    "RSSI=-119dBm</w>": 786,
    "-119dBm.</w>": 787,
    "RSSI=-116dBm</w>": 788,
    "-116dBm.</w>": 789,
    "RSSI=-117dBm</w>": 790,
    "-117dBm.</w>": 791,
    "E7": 792,
    "RSSI=-118dBm</w>": 793,
    "-118dBm.</w>": 794,
    "2A": 795,
    "61": 796,
    "RSSI=-107dBm</w>": 797,
    "-107dBm.</w>": 798,
    "0A": 799,
    "01": 800,
    "RSSI=-110": 801,
    "RSSI=-110dBm</w>": 802,
    "-110": 803,
    "-110dBm.</w>": 804,
    "5D": 805,
    "82": 806,
    "52": 807,
    "51": 808,
    "5A": 809,
    "3F": 810,
    "TEMP_CPU=96.": 811,
    "96.": 812,
    "C7": 813,
    "TEMP_CPU=89.": 814,
    "89.": 815,
    "E6": 816,
    "TEMP_CPU=86.": 817,
    "86.": 818,
    "TEMP_CPU=91.": 819,
    "91.": 820,
    "99": 821,
    "3B": 822,
    "TEMP_CPU=82.": 823,
    "82.": 824,
    "TEMP_CPU=87.": 825,
    "87.": 826,
    "C6": 827,
    "88": 828,
    "TEMP_CPU=90.": 829,
    "90.": 830,
    "0M</w>": 831,
    "0m.</w>": 832,
    "71": 833,
    "TEMP_CPU=84.": 834,
    "84.": 835,
    "TEMP_CPU=97.": 836,
    "97.": 837,
    "CC": 838,
    "F6": 839,
    "TEMP_CPU=94.": 840,
    "94.": 841,
    "TEMP_CPU=93.": 842,
    "93.": 843,
    "BB": 844,
    "TEMP_CPU=88.": 845,
    "88.": 846,
    "4D": 847,
    "98": 848,
    "TEMP_CPU=95.": 849,
    "95.": 850,
    "TEMP_CPU=92.": 851,
    "92.": 852,
    "TEMP_CPU=85.": 853,
    "85.": 854,
    "4A": 855,
    "TEMP_CPU=83.": 856,
    "83.": 857,
    "BAT_VOLT=10.0": 858,
    "10.0": 859,
    "BAT_VOLT=9.4": 860,
    "9.4": 861,
    "EF": 862,
    "1A": 863,
    "EC": 864,
    "TEMP_CPU=81.": 865,
    "81.": 866,
    "BAT_VOLT=10.2": 867,
    "10.2": 868,
    "BAT_VOLT=9.2": 869,
    "9.2": 870,
    "EB": 871,
    "BAT_VOLT=8.6": 872,
    "8.6": 873,
    "72": 874,
    "BAT_VOLT=9.0": 875,
    "9.0": 876,
    "75": 877,
    "E5": 878,
    "64": 879,
    "FB": 880,
    "89": 881,
    "BAT_VOLT=10.3": 882,
    "10.3": 883,
    "BAT_VOLT=9.8": 884,
    "9.8": 885,
    "65": 886,
    "1D": 887,
    "A9": 888,
    "CB": 889,
    "F0": 890,
    "BAT_VOLT=8.8": 891,
    "8.8": 892,
    "BAT_VOLT=9.5": 893,
    "9.5": 894,
    "BAT_VOLT=9.6": 895,
    "9.6": 896,
    "62": 897,
    "BAT_VOLT=8.7": 898,
    "8.7": 899,
    "BAT_VOLT=8.9": 900,
    "8.9": 901,
    "BAT_VOLT=9.9": 902,
    "9.9": 903,
    "BAT_VOLT=8.5": 904,
    "8.5": 905,
    "C5": 906,
    "BAT_VOLT=9.7": 907,
    "9.7": 908,
    "7A": 909,
    "4M</w>": 910,
    "1M</w>": 911,
    "7D": 912,
    "F5": 913,
    "E0": 914,
    "BAT_VOLT=9.3": 915,
    "9.3": 916,
    "8M</w>": 917,
    "85": 918,
    "8D": 919,
    "E4": 920,
    "E2": 921,
    "BAT_VOLT=10.1": 922,
    "10.1": 923,
    "86": 924,
    "96": 925,
    "CF": 926,
    "11V</w>": 927,
    "C0": 928,
    "AA": 929,
    "DD": 930,
    "9M</w>": 931,
    "E1": 932,
    "BF": 933,
    "B5": 934,
    "B0": 935,
    "87": 936,
    "97": 937,
    "C2": 938,
    "C1": 939,
    "95": 940,
    "C4": 941,
    "7M</w>": 942,
    "94": 943,
    "BAT_VOLT=9.1": 944,
    "9.1": 945,
    "B1": 946,
    "6M</w>": 947,
    "00": 948,
    "F2": 949,
    "2M</w>": 950,
    "5M</w>": 951,
    "9D": 952,
    "B4": 953,
    "F4": 954,
    "F1": 955,
    "91": 956,
    "A6": 957,
    "A8": 958,
    "92": 959,
    "B2": 960,
    "BC": 961,
    "E3": 962,
    "A7": 963,
    "6D": 964,
    "33": 965,
    "FE": 966,
    "CE": 967,
    "A5": 968,
    "ALT=8": 969,
    "A0": 970,
    "ADDR:0xED": 971,
    "ADDR:0xBD": 972,
    "EE": 973,
    "ADDR:0x11": 974,
    "AC": 975,
    "10</w>": 976,
    "AD</w>": 977,
    "ADDR:0x10": 978,
    "ADDR:0x5D": 979,
    "A2": 980,
    "ADDR:0x0D": 981,
    "ADDR:0x8D": 982,
    "ADDR:0x1D": 983,
    "0B": 984,
    "3B</w>": 985,
    "0F": 986,
    "5B": 987,
    "ADDR:0xCD": 988,
    "ED</w>": 989,
    "ADDR:0x3D": 990,
    "6A": 991,
    "33</w>": 992,
    "ADDR:0xAD": 993,
    "ADDR:0x2D": 994,
    "9A": 995,
    "ADDR:0x4D": 996,
    "36</w>": 997,
    "34</w>": 998,
    "4C": 999,
    "32</w>": 1000,
    "4B": 1001,
    "39</w>": 1002,
    "ADDR:0x7D": 1003,
    "ADDR:0xDD": 1004,
    "0C": 1005,
    "0E": 1006,
    "8C": 1007,
    "2B": 1008,
    "38</w>": 1009,
    "ADDR:0x6D": 1010,
    "30</w>": 1011,
    "2C": 1012,
    "3F</w>": 1013,
    "60": 1014,
    "4E": 1015,
    "50": 1016,
    "3C</w>": 1017,
    "8A": 1018,
    "AF": 1019,
    "35</w>": 1020,
    "7F": 1021,
    "37</w>": 1022,
    "1E": 1023,
    "1C": 1024,
    "3D</w>": 1025,
    "3E</w>": 1026,
    "AB": 1027,
    "ADDR:0xFD": 1028,
    "AE": 1029,
    "3A</w>": 1030,
    "A1": 1031,
    "5C": 1032,
    "2E": 1033,
    "ADDR:0xFA": 1034,
    "5F": 1035,
    "4F": 1036,
    "2F": 1037,
    "A4": 1038,
    "7C": 1039,
    "6C": 1040,
    "90": 1041,
    "1B": 1042,
    "9C": 1043,
    "5E": 1044,
    "ADDR:0x9D": 1045,
    "8B": 1046,
    "70": 1047,
    "1F": 1048,
    "6F": 1049,
    "80": 1050,
    "6E": 1051,
    "7E": 1052,
    "7B": 1053,
    "8F": 1054,
    "6B": 1055,
    "9F": 1056,
    "9E": 1057,
    "9B": 1058,
    "ALT=21": 1059,
    "ALT=21M</w>": 1060,
    "21m.</w>": 1061,
    "8E": 1062,
    "C6</w>": 1063,
    "ALT=68M</w>": 1064,
    "68m.</w>": 1065,
    "ALT=80M</w>": 1066,
    "80m.</w>": 1067,
    "E4</w>": 1068,
    "F5</w>": 1069,
    "FE</w>": 1070,
    "ALT=50M</w>": 1071,
    "50m.</w>": 1072,
    "ALT=74M</w>": 1073,
    "74m.</w>": 1074,
    "E8</w>": 1075,
    "ALT=18": 1076,
    "ALT=18M</w>": 1077,
    "18m.</w>": 1078,
    "ALT=51M</w>": 1079,
    "51m.</w>": 1080,
    "ALT=61M</w>": 1081,
    "61m.</w>": 1082,
    "ADDR:0x6A": 1083,
    "11M/S</w>": 1084,
    "11m/s</w>": 1085,
    "ADDR:0x19": 1086,
    "ALT=15": 1087,
    "ALT=15M</w>": 1088,
    "15m.</w>": 1089,
    "CA</w>": 1090,
    "ALT=76M</w>": 1091,
    "76m.</w>": 1092,
    "C4</w>": 1093,
    "ADDR:0xBA": 1094,
    "ALT=83M</w>": 1095,
    "83m.</w>": 1096,
    "ALT=54M</w>": 1097,
    "54m.</w>": 1098,
    "ADDR:0xC9": 1099,
    "ALT=64M</w>": 1100,
    "64m.</w>": 1101,
    "ALT=27": 1102,
    "ALT=27M</w>": 1103,
    "27m.</w>": 1104,
    "ADDR:0x18": 1105,
    "36M/S</w>": 1106,
    "36m/s</w>": 1107,
    "ALT=20": 1108,
    "ALT=20M</w>": 1109,
    "20m.</w>": 1110,
    "ALT=32": 1111,
    "ALT=32M</w>": 1112,
    "32m.</w>": 1113,
    "ALT=46": 1114,
    "ALT=46M</w>": 1115,
    "46m.</w>": 1116,
    "ALT=58M</w>": 1117,
    "58m.</w>": 1118,
    "ALT=47": 1119,
    "ALT=47M</w>": 1120,
    "47m.</w>": 1121,
    "C5</w>": 1122,
    "ADDR:0x79": 1123,
    "ADDR:0x78": 1124,
    "ALT=71M</w>": 1125,
    "71m.</w>": 1126,
    "ALT=45": 1127,
    "ALT=45M</w>": 1128,
    "45m.</w>": 1129,
    "ALT=38": 1130,
    "ALT=38M</w>": 1131,
    "38m.</w>": 1132,
    "EC</w>": 1133,
    "ALT=16": 1134,
    "ALT=16M</w>": 1135,
    "16m.</w>": 1136,
    "ALT=29": 1137,
    "ALT=29M</w>": 1138,
    "29m.</w>": 1139,
    "ALT=44": 1140,
    "ALT=44M</w>": 1141,
    "44m.</w>": 1142,
    "23M/S</w>": 1143,
    "23m/s</w>": 1144,
    "B7</w>": 1145,
    "ADDR:0x2A": 1146,
    "ALT=25": 1147,
    "ALT=25M</w>": 1148,
    "25m.</w>": 1149,
    "ALT=73M</w>": 1150,
    "73m.</w>": 1151,
    "ADDR:0x46": 1152,
    "ALT=10": 1153,
    "ALT=10M</w>": 1154,
    "10m.</w>": 1155,
    "ALT=34": 1156,
    "ALT=34M</w>": 1157,
    "34m.</w>": 1158,
    "ALT=14": 1159,
    "ALT=14M</w>": 1160,
    "14m.</w>": 1161,
    "21M/S</w>": 1162,
    "21m/s</w>": 1163,
    "ALT=40": 1164,
    "ALT=40M</w>": 1165,
    "40m.</w>": 1166,
    "E1</w>": 1167,
    "ADDR:0x69": 1168,
    "C9</w>": 1169,
    "BF</w>": 1170,
    "ALT=60M</w>": 1171,
    "60m.</w>": 1172,
    "B2</w>": 1173,
    "EB</w>": 1174,
    "ALT=81": 1175,
    "ALT=81M</w>": 1176,
    "81m.</w>": 1177,
    "EE</w>": 1178,
    "C0</w>": 1179,
    "ALT=67M</w>": 1180,
    "67m.</w>": 1181,
    "CD</w>": 1182,
    "BA</w>": 1183,
    "4M/S</w>": 1184,
    "4m/s</w>": 1185,
    "CC</w>": 1186,
    "C1</w>": 1187,
    "ALT=55M</w>": 1188,
    "55m.</w>": 1189,
    "ADDR:0xC8": 1190,
    "ALT=78M</w>": 1191,
    "78m.</w>": 1192,
    "19M/S</w>": 1193,
    "19m/s</w>": 1194,
    "ALT=26": 1195,
    "ALT=26M</w>": 1196,
    "26m.</w>": 1197,
    "49M/S</w>": 1198,
    "49m/s</w>": 1199,
    "02M/S</w>": 1200,
    "02m/s</w>": 1201,
    "CB</w>": 1202,
    "ALT=70M</w>": 1203,
    "70m.</w>": 1204,
    "C2</w>": 1205,
    "ADDR:0x7C": 1206,
    "ALT=24": 1207,
    "ALT=24M</w>": 1208,
    "24m.</w>": 1209,
    "ALT=12": 1210,
    "ALT=12M</w>": 1211,
    "12m.</w>": 1212,
    "F2</w>": 1213,
    "BC</w>": 1214,
    "EF</w>": 1215,
    "ALT=84": 1216,
    "ALT=84M</w>": 1217,
    "84m.</w>": 1218,
    "ALT=72M</w>": 1219,
    "72m.</w>": 1220,
    "ADDR:0x38": 1221,
    "ALT=69M</w>": 1222,
    "69m.</w>": 1223,
    "ALT=35": 1224,
    "ALT=35M</w>": 1225,
    "35m.</w>": 1226,
    "ALT=59M</w>": 1227,
    "59m.</w>": 1228,
    "ALT=41": 1229,
    "ALT=41M</w>": 1230,
    "41m.</w>": 1231,
    "ALT=79M</w>": 1232,
    "79m.</w>": 1233,
    "E3</w>": 1234,
    "ALT=53M</w>": 1235,
    "53m.</w>": 1236,
    "ALT=22": 1237,
    "ALT=22M</w>": 1238,
    "22m.</w>": 1239,
    "08M/S</w>": 1240,
    "08m/s</w>": 1241,
    "B1</w>": 1242,
    "ADDR:0x89": 1243,
    "ADDR:0x58": 1244,
    "32M/S</w>": 1245,
    "32m/s</w>": 1246,
    "ALT=19": 1247,
    "ALT=19M</w>": 1248,
    "19m.</w>": 1249,
    "FD</w>": 1250,
    "ADDR:0x96": 1251,
    "A9</w>": 1252,
    "ALT=3": 1253,
    "ALT=33M</w>": 1254,
    "33m.</w>": 1255,
    "B6</w>": 1256,
    "ALT=36": 1257,
    "ALT=36M</w>": 1258,
    "36m.</w>": 1259,
    "ALT=17": 1260,
    "ALT=17M</w>": 1261,
    "17m.</w>": 1262,
    "ALT=77M</w>": 1263,
    "77m.</w>": 1264,
    "ADDR:0x5A": 1265,
    "ADDR:0x09": 1266,
    "ALT=1": 1267,
    "ALT=13M</w>": 1268,
    "13m.</w>": 1269,
    "ALT=49": 1270,
    "ALT=49M</w>": 1271,
    "49m.</w>": 1272,
    "B9</w>": 1273,
    "E5</w>": 1274,
    "ADDR:0xD9": 1275,
    "47M/S</w>": 1276,
    "47m/s</w>": 1277,
    "33M/S</w>": 1278,
    "33m/s</w>": 1279,
    "18M/S</w>": 1280,
    "18m/s</w>": 1281,
    "35M/S</w>": 1282,
    "35m/s</w>": 1283,
    "ADDR:0x56": 1284,
    "26</w>": 1285,
    "0E</w>": 1286,
    "ADDR:0x49": 1287,
    "ADDR:0x99": 1288,
    "B3</w>": 1289,
    "BB</w>": 1290,
    "B5</w>": 1291,
    "ALT=82": 1292,
    "ALT=82M</w>": 1293,
    "82m.</w>": 1294,
    "BD</w>": 1295,
    "0B</w>": 1296,
    "E9</w>": 1297,
    "F4</w>": 1298,
    "34M/S</w>": 1299,
    "34m/s</w>": 1300,
    "AC</w>": 1301,
    "48M/S</w>": 1302,
    "48m/s</w>": 1303,
    "ADDR:0x07": 1304,
    "ADDR:0x7A": 1305,
    "A7</w>": 1306,
    "E0</w>": 1307,
    "BAT_VOLT=11.71V</w>": 1308,
    "11.71V</w>": 1309,
    "B8</w>": 1310,
    "ALT=39": 1311,
    "ALT=39M</w>": 1312,
    "39m.</w>": 1313,
    "ALT=48": 1314,
    "ALT=48M</w>": 1315,
    "48m.</w>": 1316,
    "ADDR:0x77": 1317,
    "37M/S</w>": 1318,
    "37m/s</w>": 1319,
    "ADDR:0xF8": 1320,
    "ADDR:0xFC": 1321,
    "24M/S</w>": 1322,
    "24m/s</w>": 1323,
    "ADDR:0x9A": 1324,
    "22</w>": 1325,
    "28M/S</w>": 1326,
    "28m/s</w>": 1327,
    "ADDR:0x16": 1328,
    "ADDR:0xCA": 1329,
    "43M/S</w>": 1330,
    "43m/s</w>": 1331,
    "C8</w>": 1332,
    "ADDR:0x39": 1333,
    "F9</w>": 1334,
    "31M/S</w>": 1335,
    "31m/s</w>": 1336,
    "ADDR:0x8A": 1337,
    "E6</w>": 1338,
    "F1</w>": 1339,
    "01</w>": 1340,
    "ADDR:0xE6": 1341,
    "ADDR:0x29": 1342,
    "26M/S</w>": 1343,
    "26m/s</w>": 1344,
    "0F</w>": 1345,
    "22M/S</w>": 1346,
    "22m/s</w>": 1347,
    "ADDR:0xEA": 1348,
    "ALT=4": 1349,
    "ALT=43M</w>": 1350,
    "43m.</w>": 1351,
    "ADDR:0xE9": 1352,
    "ADDR:0x1A": 1353,
    "A3</w>": 1354,
    "ADDR:0x76": 1355,
    "F0</w>": 1356,
    "ADDR:0x5E": 1357,
    "ADDR:0x3A": 1358,
    "F6</w>": 1359,
    "ADDR:0xB8": 1360,
    "ADDR:0x0F": 1361,
    "04M/S</w>": 1362,
    "04m/s</w>": 1363,
    "05M/S</w>": 1364,
    "05m/s</w>": 1365,
    "29M/S</w>": 1366,
    "29m/s</w>": 1367,
    "AE</w>": 1368,
    "E7</w>": 1369,
    "44M/S</w>": 1370,
    "44m/s</w>": 1371,
    "ALT=52M</w>": 1372,
    "52m.</w>": 1373,
    "ALT=30": 1374,
    "ALT=30M</w>": 1375,
    "30m.</w>": 1376,
    "0D</w>": 1377,
    "ADDR:0x68": 1378,
    "ALT=31": 1379,
    "ALT=31M</w>": 1380,
    "F8</w>": 1381,
    "31m.</w>": 1382,
    "ADDR:0xB5": 1383,
    "12M/S</w>": 1384,
    "12m/s</w>": 1385,
    "ADDR:0xB9": 1386,
    "ADDR:0x5F": 1387,
    "ADDR:0x17": 1388,
    "A8</w>": 1389,
    "ADDR:0x88": 1390,
    "C7</w>": 1391,
    "ALT=63M</w>": 1392,
    "63m.</w>": 1393,
    "ADDR:0xDA": 1394,
    "B0</w>": 1395,
    "A4</w>": 1396,
    "42M/S</w>": 1397,
    "42m/s</w>": 1398,
    "F7</w>": 1399,
    "ALT=11": 1400,
    "ALT=11M</w>": 1401,
    "11m.</w>": 1402,
    "ADDR:0x3C": 1403,
    "ADDR:0xB7": 1404,
    "29</w>": 1405,
    "17M/S</w>": 1406,
    "17m/s</w>": 1407,
    "ADDR:0x37": 1408,
    "ALT=42": 1409,
    "ALT=42M</w>": 1410,
    "42m.</w>": 1411,
    "09</w>": 1412,
    "45M/S</w>": 1413,
    "45m/s</w>": 1414,
    "FB</w>": 1415,
    "25M/S</w>": 1416,
    "25m/s</w>": 1417,
    "ALT=66M</w>": 1418,
    "66m.</w>": 1419,
    "ADDR:0x66": 1420,
    "ADDR:0x05": 1421,
    "EA</w>": 1422,
    "CE</w>": 1423,
    "ADDR:0x98": 1424,
    "1M/S</w>": 1425,
    "1m/s</w>": 1426,
    "16M/S</w>": 1427,
    "16m/s</w>": 1428,
    "ADDR:0xFE": 1429,
    "00</w>": 1430,
    "ADDR:0xEC": 1431,
    "D9": 1432,
    "ADDR:0x26": 1433,
    "ADDR:0xBC": 1434,
    "ALT=2": 1435,
    "ALT=23M</w>": 1436,
    "23m.</w>": 1437,
    "ADDR:0xF9": 1438,
    "06M/S</w>": 1439,
    "06m/s</w>": 1440,
    "ADDR:0x80": 1441,
    "ADDR:0x1B": 1442,
    "ADDR:0xDC": 1443,
    "FF</w>": 1444,
    "ALT=37": 1445,
    "ALT=37M</w>": 1446,
    "37m.</w>": 1447,
    "ALT=65M</w>": 1448,
    "65m.</w>": 1449,
    "ADDR:0xCE": 1450,
    "ADDR:0xBE": 1451,
    "5F</w>": 1452,
    "C3</w>": 1453,
    "D6": 1454,
    "BAT_VOLT=12.26V</w>": 1455,
    "12.26V</w>": 1456,
    "ALT=75M</w>": 1457,
    "75m.</w>": 1458,
    "ADDR:0x0A": 1459,
    "ALT=57M</w>": 1460,
    "57m.</w>": 1461,
    "41M/S</w>": 1462,
    "41m/s</w>": 1463,
    "ADDR:0xB6": 1464,
    "13M/S</w>": 1465,
    "13m/s</w>": 1466,
    "AB</w>": 1467,
    "ADDR:0xA8": 1468,
    "03</w>": 1469,
    "02</w>": 1470,
    "ADDR:0xF6": 1471,
    "06</w>": 1472,
    "ADDR:0x3E": 1473,
    "2F</w>": 1474,
    "25</w>": 1475,
    "D8": 1476,
    "ADDR:0xC6": 1477,
    "BAT_VOLT=11.8V</w>": 1478,
    "11.8V</w>": 1479,
    "01M/S</w>": 1480,
    "01m/s</w>": 1481,
    "39M/S</w>": 1482,
    "39m/s</w>": 1483,
    "BAT_VOLT=11.99V</w>": 1484,
    "11.99V</w>": 1485,
    "ADDR:0xE7": 1486,
    "ADDR:0x59": 1487,
    "2A</w>": 1488,
    "ALT=28": 1489,
    "ALT=28M</w>": 1490,
    "28m.</w>": 1491,
    "BAT_VOLT=12.3V</w>": 1492,
    "12.3V</w>": 1493,
    "BAT_VOLT=12.5V</w>": 1494,
    "12.5V</w>": 1495,
    "05</w>": 1496,
    "ADDR:0x4A": 1497,
    "0C</w>": 1498,
    "07M/S</w>": 1499,
    "ADDR:0x06": 1500,
    "07m/s</w>": 1501,
    "ALT=62M</w>": 1502,
    "62m.</w>": 1503,
    "12</w>": 1504,
    "ADDR:0x08": 1505,
    "ADDR:0xA9": 1506,
    "ADDR:0x47": 1507,
    "ADDR:0xA6": 1508,
    "ADDR:0xAA": 1509,
    "CF</w>": 1510,
    "BAT_VOLT=12.58V</w>": 1511,
    "12.58V</w>": 1512,
    "BAT_VOLT=12.18V</w>": 1513,
    "12.18V</w>": 1514,
    "BAT_VOLT=12.55V</w>": 1515,
    "12.55V</w>": 1516,
    "ADDR:0xD6": 1517,
    "BAT_VOLT=11.83V</w>": 1518,
    "11.83V</w>": 1519,
    "ADDR:0x97": 1520,
    "BAT_VOLT=12.53V</w>": 1521,
    "12.53V</w>": 1522,
    "2E</w>": 1523,
    "53</w>": 1524,
    "07</w>": 1525,
    "23</w>": 1526,
    "BAT_VOLT=12.1V</w>": 1527,
    "12.1V</w>": 1528,
    "A0</w>": 1529,
    "BAT_VOLT=11.81V</w>": 1530,
    "11.81V</w>": 1531,
    "57</w>": 1532,
    "B4</w>": 1533,
    "ADDR:0x4F": 1534,
    "BAT_VOLT=12.16V</w>": 1535,
    "12.16V</w>": 1536,
    "E2</w>": 1537,
    "BAT_VOLT=12.59V</w>": 1538,
    "12.59V</w>": 1539,
    "ADDR:0xB0": 1540,
    "BAT_VOLT=11.79V</w>": 1541,
    "11.79V</w>": 1542,
    "A1</w>": 1543,
    "ADDR:0xA5": 1544,
    "ADDR:0x15": 1545,
    "ADDR:0xD5": 1546,
    "D7": 1547,
    "24</w>": 1548,
    "43</w>": 1549,
    "BAT_VOLT=12.42V</w>": 1550,
    "12.42V</w>": 1551,
    "ADDR:0x36": 1552,
    "2D</w>": 1553,
    "09M/S</w>": 1554,
    "09m/s</w>": 1555,
    "ADDR:0x4C": 1556,
    "D5</w>": 1557,
    "BAT_VOLT=11.59V</w>": 1558,
    "11.59V</w>": 1559,
    "ADDR:0x57": 1560,
    "11</w>": 1561,
    "BAT_VOLT=11.75V</w>": 1562,
    "11.75V</w>": 1563,
    "ADDR:0x70": 1564,
    "FC</w>": 1565,
    "ADDR:0x55": 1566,
    "BAT_VOLT=12.41V</w>": 1567,
    "12.41V</w>": 1568,
    "ADDR:0x75": 1569,
    "BAT_VOLT=11.61V</w>": 1570,
    "11.61V</w>": 1571,
    "56</w>": 1572,
    "BAT_VOLT=12.33V</w>": 1573,
    "12.33V</w>": 1574,
    "ADDR:0xC5": 1575,
    "2M/S</w>": 1576,
    "2m/s</w>": 1577,
    "55</w>": 1578,
    "46M/S</w>": 1579,
    "46m/s</w>": 1580,
    "2B</w>": 1581,
    "ADDR:0x9B": 1582,
    "ADDR:0xCC": 1583,
    "BAT_VOLT=12.38V</w>": 1584,
    "12.38V</w>": 1585,
    "ADDR:0xC7": 1586,
    "13</w>": 1587,
    "D4": 1588,
    "ADDR:0xE0": 1589,
    "57M/S</w>": 1590,
    "57m/s</w>": 1591,
    "F3</w>": 1592,
    "ADDR:0x48": 1593,
    "ADDR:0x95": 1594,
    "DD</w>": 1595,
    "ADDR:0x9C": 1596,
    "AA</w>": 1597,
    "ADDR:0x35": 1598,
    "28</w>": 1599,
    "ADDR:0x7E": 1600,
    "BAT_VOLT=11.7V</w>": 1601,
    "11.7V</w>": 1602,
    "59</w>": 1603,
    "ADDR:0x8C": 1604,
    "ADDR:0xCF": 1605,
    "1B</w>": 1606,
    "5C</w>": 1607,
    "ADDR:0x86": 1608,
    "03M/S</w>": 1609,
    "03m/s</w>": 1610,
    "BAT_VOLT=11.97V</w>": 1611,
    "11.97V</w>": 1612,
    "BAT_VOLT=12.47V</w>": 1613,
    "12.47V</w>": 1614,
    "BAT_VOLT=12.51V</w>": 1615,
    "12.51V</w>": 1616,
    "BAT_VOLT=12.35V</w>": 1617,
    "12.35V</w>": 1618,
    "ALT=56M</w>": 1619,
    "56m.</w>": 1620,
    "A5</w>": 1621,
    "27M/S</w>": 1622,
    "27m/s</w>": 1623,
    "ADDR:0xEE": 1624,
    "BAT_VOLT=12.04V</w>": 1625,
    "12.04V</w>": 1626,
    "4F</w>": 1627,
    "ADDR:0x0B": 1628,
    "14M/S</w>": 1629,
    "14m/s</w>": 1630,
    "21</w>": 1631,
    "1E</w>": 1632,
    "BAT_VOLT=11.64V</w>": 1633,
    "11.64V</w>": 1634,
    "ADDR:0x90": 1635,
    "ADDR:0x8E": 1636,
    "ADDR:0xE8": 1637,
    "ADDR:0x5C": 1638,
    "52</w>": 1639,
    "SPEED=0.9": 1640,
    "0.9": 1641,
    "BAT_VOLT=12.37V</w>": 1642,
    "12.37V</w>": 1643,
    "BE</w>": 1644,
    "BAT_VOLT=11.62V</w>": 1645,
    "11.62V</w>": 1646,
    "83M/S</w>": 1647,
    "83m/s</w>": 1648,
    "ADDR:0x9E": 1649,
    "20</w>": 1650,
    "18</w>": 1651,
    "0A</w>": 1652,
    "BAT_VOLT=11.56V</w>": 1653,
    "11.56V</w>": 1654,
    "ADDR:0xDF": 1655,
    "ADDR:0xD0": 1656,
    "27</w>": 1657,
    "16</w>": 1658,
    "ADDR:0xF5": 1659,
    "ADDR:0x6B": 1660,
    "ADDR:0x20": 1661,
    "BAT_VOLT=12.14V</w>": 1662,
    "12.14V</w>": 1663,
    "ADDR:0xFF": 1664,
    "BAT_VOLT=11.65V</w>": 1665,
    "11.65V</w>": 1666,
    "BAT_VOLT=12.08V</w>": 1667,
    "12.08V</w>": 1668,
    "BAT_VOLT=12.57V</w>": 1669,
    "12.57V</w>": 1670,
    "ADDR:0xAB": 1671,
    "BAT_VOLT=12.0V</w>": 1672,
    "12.0V</w>": 1673,
    "ADDR:0x1C": 1674,
    "ADDR:0x6F": 1675,
    "AF</w>": 1676,
    "ADDR:0xEF": 1677,
    "44</w>": 1678,
    "BAT_VOLT=11.94V</w>": 1679,
    "11.94V</w>": 1680,
    "5E</w>": 1681,
    "BAT_VOLT=12.44V</w>": 1682,
    "12.44V</w>": 1683,
    "2C</w>": 1684,
    "ADDR:0xD8": 1685,
    "85M/S</w>": 1686,
    "85m/s</w>": 1687,
    "BAT_VOLT=12.45V</w>": 1688,
    "12.45V</w>": 1689,
    "BAT_VOLT=12.03V</w>": 1690,
    "12.03V</w>": 1691,
    "BAT_VOLT=11.57V</w>": 1692,
    "11.57V</w>": 1693,
    "A2</w>": 1694,
    "ADDR:0xD4": 1695,
    "ADDR:0x87": 1696,
    "ADDR:0x0C": 1697,
    "BAT_VOLT=11.68V</w>": 1698,
    "11.68V</w>": 1699,
    "ADDR:0x67": 1700,
    "ADDR:0x04": 1701,
    "ADDR:0x27": 1702,
    "ADDR:0x52": 1703,
    "ADDR:0xDE": 1704,
    "ADDR:0x2B": 1705,
    "50</w>": 1706,
    "BAT_VOLT=11.73V</w>": 1707,
    "11.73V</w>": 1708,
    "ADDR:0x7F": 1709,
    "ADDR:0x8F": 1710,
    "0M/S</w>": 1711,
    "0m/s</w>": 1712,
    "ADDR:0x28": 1713,
    "BAT_VOLT=12.27V</w>": 1714,
    "12.27V</w>": 1715,
    "BAT_VOLT=12.54V</w>": 1716,
    "ADDR:0x4E": 1717,
    "12.54V</w>": 1718,
    "5D</w>": 1719,
    "BAT_VOLT=12.06V</w>": 1720,
    "12.06V</w>": 1721,
    "ADDR:0x7B": 1722,
    "BAT_VOLT=11.91V</w>": 1723,
    "11.91V</w>": 1724,
    "15</w>": 1725,
    "BAT_VOLT=11.77V</w>": 1726,
    "11.77V</w>": 1727,
    "BAT_VOLT=12.05V</w>": 1728,
    "12.05V</w>": 1729,
    "38M/S</w>": 1730,
    "38m/s</w>": 1731,
    "ADDR:0x6E": 1732,
    "47</w>": 1733,
    "15M/S</w>": 1734,
    "15m/s</w>": 1735,
    "ADDR:0x2C": 1736,
    "1D</w>": 1737,
    "ADDR:0xF0": 1738,
    "BAT_VOLT=12.22V</w>": 1739,
    "12.22V</w>": 1740,
    "ADDR:0x25": 1741,
    "ADDR:0xA7": 1742,
    "ADDR:0x3B": 1743,
    "BAT_VOLT=11.82V</w>": 1744,
    "11.82V</w>": 1745,
    "66M/S</w>": 1746,
    "66m/s</w>": 1747,
    "ADDR:0x65": 1748,
    "BAT_VOLT=12.39V</w>": 1749,
    "12.39V</w>": 1750,
    "62</w>": 1751,
    "ADDR:0x60": 1752,
    "BAT_VOLT=11.6V</w>": 1753,
    "11.6V</w>": 1754,
    "ADDR:0xC4": 1755,
    "ADDR:0x22": 1756,
    "40</w>": 1757,
    "ADDR:0x2F": 1758,
    "ADDR:0xF7": 1759,
    "BAT_VOLT=12.48V</w>": 1760,
    "12.48V</w>": 1761,
    "ADDR:0x85": 1762,
    "19</w>": 1763,
    "BAT_VOLT=11.58V</w>": 1764,
    "11.58V</w>": 1765,
    "ADDR:0xF4": 1766,
    "ADDR:0xAC": 1767,
    "BAT_VOLT=12.31V</w>": 1768,
    "12.31V</w>": 1769,
    "5M/S</w>": 1770,
    "5m/s</w>": 1771,
    "17</w>": 1772,
    "59M/S</w>": 1773,
    "59m/s</w>": 1774,
    "BAT_VOLT=12.21V</w>": 1775,
    "12.21V</w>": 1776,
    "ADDR:0xDB": 1777,
    "68M/S</w>": 1778,
    "68m/s</w>": 1779,
    "A6</w>": 1780,
    "BAT_VOLT=11.63V</w>": 1781,
    "11.63V</w>": 1782,
    "4C</w>": 1783,
    "BAT_VOLT=12.46V</w>": 1784,
    "12.46V</w>": 1785,
    "BAT_VOLT=11.9V</w>": 1786,
    "11.9V</w>": 1787,
    "79M/S</w>": 1788,
    "79m/s</w>": 1789,
    "ADDR:0xAF": 1790,
    "BAT_VOLT=11.52V</w>": 1791,
    "11.52V</w>": 1792,
    "04</w>": 1793,
    "7F</w>": 1794,
    "BAT_VOLT=11.89V</w>": 1795,
    "11.89V</w>": 1796,
    "BAT_VOLT=12.13V</w>": 1797,
    "12.13V</w>": 1798,
    "ADDR:0xE4": 1799,
    "ADDR:0x6C": 1800,
    "BAT_VOLT=12.36V</w>": 1801,
    "12.36V</w>": 1802,
    "BAT_VOLT=11.72V</w>": 1803,
    "11.72V</w>": 1804,
    "BAT_VOLT=11.95V</w>": 1805,
    "11.95V</w>": 1806,
    "ADDR:0x4B": 1807,
    "9D</w>": 1808,
    "BAT_VOLT=12.28V</w>": 1809,
    "12.28V</w>": 1810,
    "5A</w>": 1811,
    "68</w>": 1812,
    "BAT_VOLT=11.67V</w>": 1813,
    "11.67V</w>": 1814,
    "BAT_VOLT=11.93V</w>": 1815,
    "11.93V</w>": 1816,
    "ADDR:0xA0": 1817,
    "82M/S</w>": 1818,
    "82m/s</w>": 1819,
    "BAT_VOLT=11.86V</w>": 1820,
    "11.86V</w>": 1821,
    "BAT_VOLT=11.51V</w>": 1822,
    "11.51V</w>": 1823,
    "BAT_VOLT=11.78V</w>": 1824,
    "11.78V</w>": 1825,
    "51</w>": 1826,
    "BAT_VOLT=12.17V</w>": 1827,
    "12.17V</w>": 1828,
    "ADDR:0x3F": 1829,
    "1A</w>": 1830,
    "6M/S</w>": 1831,
    "6m/s</w>": 1832,
    "ADDR:0x45": 1833,
    "ADDR:0xEB": 1834,
    "4D</w>": 1835,
    "66</w>": 1836,
    "BAT_VOLT=11.98V</w>": 1837,
    "11.98V</w>": 1838,
    "BAT_VOLT=12.56V</w>": 1839,
    "12.56V</w>": 1840,
    "BAT_VOLT=11.66V</w>": 1841,
    "11.66V</w>": 1842,
    "ADDR:0xBF": 1843,
    "ADDR:0x92": 1844,
    "ADDR:0x1F": 1845,
    "81M/S</w>": 1846,
    "81m/s</w>": 1847,
    "88M/S</w>": 1848,
    "88m/s</w>": 1849,
    "BAT_VOLT=12.32V</w>": 1850,
    "12.32V</w>": 1851,
    "BAT_VOLT=11.87V</w>": 1852,
    "11.87V</w>": 1853,
    "BAT_VOLT=11.53V</w>": 1854,
    "11.53V</w>": 1855,
    "ADDR:0x5B": 1856,
    "6C</w>": 1857,
    "84M/S</w>": 1858,
    "84m/s</w>": 1859,
    "ADDR:0xAE": 1860,
    "ADDR:0x30": 1861,
    "BAT_VOLT=11.69V</w>": 1862,
    "11.69V</w>": 1863,
    "ADDR:0x1E": 1864,
    "73M/S</w>": 1865,
    "73m/s</w>": 1866,
    "BAT_VOLT=12.02V</w>": 1867,
    "12.02V</w>": 1868,
    "TEMP_CPU=91.4°C</w>": 1869,
    "91.4°C.</w>": 1870,
    "ADDR:0xE1": 1871,
    "ADDR:0xC0": 1872,
    "BAT_VOLT=12.12V</w>": 1873,
    "12.12V</w>": 1874,
    "ADDR:0x8B": 1875,
    "ADDR:0x84": 1876,
    "71M/S</w>": 1877,
    "71m/s</w>": 1878,
    "ADDR:0x64": 1879,
    "BAT_VOLT=12.07V</w>": 1880,
    "12.07V</w>": 1881,
    "ADDR:0xCB": 1882,
    "41</w>": 1883,
    "BAT_VOLT=9.27V</w>": 1884,
    "9.27V</w>": 1885,
    "BAT_VOLT=12.2V</w>": 1886,
    "12.2V</w>": 1887,
    "ADDR:0x40": 1888,
    "54</w>": 1889,
    "54M/S</w>": 1890,
    "54m/s</w>": 1891,
    "D6</w>": 1892,
    "1C</w>": 1893,
    "48</w>": 1894,
    "ADDR:0x74": 1895,
    "14</w>": 1896,
    "72</w>": 1897,
    "4B</w>": 1898,
    "BAT_VOLT=11.74V</w>": 1899,
    "11.74V</w>": 1900,
    "7A</w>": 1901,
    "72M/S</w>": 1902,
    "72m/s</w>": 1903,
    "BAT_VOLT=12.11V</w>": 1904,
    "12.11V</w>": 1905,
    "98</w>": 1906,
    "46</w>": 1907,
    "ADDR:0xA4": 1908,
    "08</w>": 1909,
    "ADDR:0x00": 1910,
    "97M/S</w>": 1911,
    "97m/s</w>": 1912,
    "58M/S</w>": 1913,
    "58m/s</w>": 1914,
    "ADDR:0x0E": 1915,
    "ADDR:0x9F": 1916,
    "61M/S</w>": 1917,
    "61m/s</w>": 1918,
    "BAT_VOLT=11.96V</w>": 1919,
    "11.96V</w>": 1920,
    "69M/S</w>": 1921,
    "69m/s</w>": 1922,
    "92M/S</w>": 1923,
    "92m/s</w>": 1924,
    "ADDR:0x62": 1925,
    "94M/S</w>": 1926,
    "94m/s</w>": 1927,
    "D0</w>": 1928,
    "5B</w>": 1929,
    "4A</w>": 1930,
    "63</w>": 1931,
    "BAT_VOLT=11.84V</w>": 1932,
    "11.84V</w>": 1933,
    "4E</w>": 1934,
    "55M/S</w>": 1935,
    "55m/s</w>": 1936,
    "BAT_VOLT=12.49V</w>": 1937,
    "12.49V</w>": 1938,
    "ADDR:0xBB": 1939,
    "DC</w>": 1940,
    "1F</w>": 1941,
    "98M/S</w>": 1942,
    "98m/s</w>": 1943,
    "BAT_VOLT=12.52V</w>": 1944,
    "12.52V</w>": 1945,
    "BAT_VOLT=12.09V</w>": 1946,
    "12.09V</w>": 1947,
    "D3</w>": 1948,
    "D8</w>": 1949,
    "ADDR:0xE5": 1950,
    "DB</w>": 1951,
    "BAT_VOLT=12.19V</w>": 1952,
    "12.19V</w>": 1953,
    "64</w>": 1954,
    "58</w>": 1955,
    "BAT_VOLT=12.23V</w>": 1956,
    "12.23V</w>": 1957,
    "TEMP_CPU=84.5°C</w>": 1958,
    "84.5°C.</w>": 1959,
    "BAT_VOLT=11.54V</w>": 1960,
    "11.54V</w>": 1961,
    "78M/S</w>": 1962,
    "78m/s</w>": 1963,
    "ADDR:0x91": 1964,
    "ADDR:0xB2": 1965,
    "BAT_VOLT=12.15V</w>": 1966,
    "12.15V</w>": 1967,
    "ADDR:0x32": 1968,
    "ADDR:0x54": 1969,
    "49</w>": 1970,
    "79</w>": 1971,
    "87M/S</w>": 1972,
    "87m/s</w>": 1973,
    "8C</w>": 1974,
    "91M/S</w>": 1975,
    "91m/s</w>": 1976,
    "7D</w>": 1977,
    "ADDR:0xD2": 1978,
    "ADDR:0x42": 1979,
    "BAT_VOLT=9.44V</w>": 1980,
    "9.44V</w>": 1981,
    "ADDR:0x2E": 1982,
    "ADDR:0xFB": 1983,
    "BAT_VOLT=12.4V</w>": 1984,
    "12.4V</w>": 1985,
    "ADDR:0xC2": 1986,
    "TEMP_CPU=82.0°C</w>": 1987,
    "82.0°C.</w>": 1988,
    "74</w>": 1989,
    "62M/S</w>": 1990,
    "62m/s</w>": 1991,
    "DF</w>": 1992,
    "BAT_VOLT=11.76V</w>": 1993,
    "11.76V</w>": 1994,
    "TEMP_CPU=89.3°C</w>": 1995,
    "89.3°C.</w>": 1996,
    "52M/S</w>": 1997,
    "52m/s</w>": 1998,
    "DA</w>": 1999,
    "BAT_VOLT=8.79V</w>": 2000,
    "8.79V</w>": 2001,
    "76</w>": 2002,
    "BAT_VOLT=8.66V</w>": 2003,
    "8.66V</w>": 2004,
    "71</w>": 2005,
    "ADDR:0xA1": 2006,
    "TEMP_CPU=90.0°C</w>": 2007,
    "90.0°C.</w>": 2008,
    "BAT_VOLT=12.25V</w>": 2009,
    "12.25V</w>": 2010,
    "ADDR:0x61": 2011,
    "77</w>": 2012,
    "ADDR:0x14": 2013,
    "ADDR:0xC1": 2014,
    "76M/S</w>": 2015,
    "76m/s</w>": 2016,
    "BAT_VOLT=8.65V</w>": 2017,
    "8.65V</w>": 2018,
    "ADDR:0x50": 2019,
    "ADDR:0xB1": 2020,
    "75M/S</w>": 2021,
    "75m/s</w>": 2022,
    "TEMP_CPU=83.9°C</w>": 2023,
    "83.9°C.</w>": 2024,
    "53M/S</w>": 2025,
    "53m/s</w>": 2026,
    "BAT_VOLT=11.55V</w>": 2027,
    "11.55V</w>": 2028,
    "8M/S</w>": 2029,
    "8m/s</w>": 2030,
    "TEMP_CPU=91.6°C</w>": 2031,
    "91.6°C.</w>": 2032,
    "TEMP_CPU=89.8°C</w>": 2033,
    "89.8°C.</w>": 2034,
    "63M/S</w>": 2035,
    "63m/s</w>": 2036,
    "TEMP_CPU=82.2°C</w>": 2037,
    "82.2°C.</w>": 2038,
    "8E</w>": 2039,
    "96M/S</w>": 2040,
    "96m/s</w>": 2041,
    "D4</w>": 2042,
    "73</w>": 2043,
    "87</w>": 2044,
    "TEMP_CPU=96.0°C</w>": 2045,
    "96.0°C.</w>": 2046,
    "TEMP_CPU=87.6°C</w>": 2047,
    "87.6°C.</w>": 2048,
    "BAT_VOLT=10.23V</w>": 2049,
    "10.23V</w>": 2050,
    "45</w>": 2051,
    "BAT_VOLT=9.06V</w>": 2052,
    "9.06V</w>": 2053,
    "BAT_VOLT=8.99V</w>": 2054,
    "8.99V</w>": 2055,
    "ADDR:0x02": 2056,
    "BAT_VOLT=11.92V</w>": 2057,
    "11.92V</w>": 2058,
    "ADDR:0xD7": 2059,
    "6F</w>": 2060,
    "6A</w>": 2061,
    "BAT_VOLT=9.25V</w>": 2062,
    "9.25V</w>": 2063,
    "ADDR:0xB4": 2064,
    "TEMP_CPU=90.8°C</w>": 2065,
    "90.8°C.</w>": 2066,
    "BAT_VOLT=10.34V</w>": 2067,
    "10.34V</w>": 2068,
    "ADDR:0x72": 2069,
    "D1</w>": 2070,
    "D7</w>": 2071,
    "BAT_VOLT=11.88V</w>": 2072,
    "11.88V</w>": 2073,
    "86M/S</w>": 2074,
    "86m/s</w>": 2075,
    "64M/S</w>": 2076,
    "64m/s</w>": 2077,
    "D2</w>": 2078,
    "BAT_VOLT=11.85V</w>": 2079,
    "11.85V</w>": 2080,
    "DE</w>": 2081,
    "BAT_VOLT=12.24V</w>": 2082,
    "12.24V</w>": 2083,
    "TEMP_CPU=89.4°C</w>": 2084,
    "89.4°C.</w>": 2085,
    "TEMP_CPU=96.1°C</w>": 2086,
    "96.1°C.</w>": 2087,
    "ADDR:0x94": 2088,
    "ADDR:0x44": 2089,
    "TEMP_CPU=86.4°C</w>": 2090,
    "86.4°C.</w>": 2091,
    "TEMP_CPU=97.2°C</w>": 2092,
    "97.2°C.</w>": 2093,
    "TEMP_CPU=82.7°C</w>": 2094,
    "82.7°C.</w>": 2095,
    "69</w>": 2096,
    "94</w>": 2097,
    "88</w>": 2098,
    "TEMP_CPU=91.3°C</w>": 2099,
    "91.3°C.</w>": 2100,
    "7C</w>": 2101,
    "70</w>": 2102,
    "TEMP_CPU=94.4°C</w>": 2103,
    "94.4°C.</w>": 2104,
    "BAT_VOLT=9.41V</w>": 2105,
    "9.41V</w>": 2106,
    "ADDR:0x82": 2107,
    "TEMP_CPU=86.8°C</w>": 2108,
    "86.8°C.</w>": 2109,
    "ADDR:0x41": 2110,
    "ADDR:0x34": 2111,
    "99M/S</w>": 2112,
    "99m/s</w>": 2113,
    "89M/S</w>": 2114,
    "89m/s</w>": 2115,
    "TEMP_CPU=86.9°C</w>": 2116,
    "86.9°C.</w>": 2117,
    "ADDR:0xF2": 2118,
    "TEMP_CPU=88.1°C</w>": 2119,
    "88.1°C.</w>": 2120,
    "77M/S</w>": 2121,
    "77m/s</w>": 2122,
    "ADDR:0x24": 2123,
    "TEMP_CPU=89.9°C</w>": 2124,
    "89.9°C.</w>": 2125,
    "TEMP_CPU=96.9°C</w>": 2126,
    "96.9°C.</w>": 2127,
    "TEMP_CPU=91.8°C</w>": 2128,
    "91.8°C.</w>": 2129,
    "ADDR:0x01": 2130,
    "TEMP_CPU=91.2°C</w>": 2131,
    "91.2°C.</w>": 2132,
    "85</w>": 2133,
    "BAT_VOLT=10.25V</w>": 2134,
    "10.25V</w>": 2135,
    "BAT_VOLT=9.49V</w>": 2136,
    "9.49V</w>": 2137,
    "BAT_VOLT=9.48V</w>": 2138,
    "9.48V</w>": 2139,
    "93</w>": 2140,
    "ADDR:0xA2": 2141,
    "TEMP_CPU=84.6°C</w>": 2142,
    "84.6°C.</w>": 2143,
    "TEMP_CPU=85.1°C</w>": 2144,
    "85.1°C.</w>": 2145,
    "TEMP_CPU=96.7°C</w>": 2146,
    "96.7°C.</w>": 2147,
    "TEMP_CPU=95.1°C</w>": 2148,
    "95.1°C.</w>": 2149,
    "89</w>": 2150,
    "TEMP_CPU=94.2°C</w>": 2151,
    "94.2°C.</w>": 2152,
    "BAT_VOLT=9.53V</w>": 2153,
    "9.53V</w>": 2154,
    "TEMP_CPU=88.3°C</w>": 2155,
    "88.3°C.</w>": 2156,
    "65M/S</w>": 2157,
    "65m/s</w>": 2158,
    "74M/S</w>": 2159,
    "74m/s</w>": 2160,
    "BAT_VOLT=12.01V</w>": 2161,
    "12.01V</w>": 2162,
    "TEMP_CPU=86.0°C</w>": 2163,
    "86.0°C.</w>": 2164,
    "42</w>": 2165,
    "BAT_VOLT=9.64V</w>": 2166,
    "9.64V</w>": 2167,
    "ADDR:0x31": 2168,
    "56M/S</w>": 2169,
    "56m/s</w>": 2170,
    "6E</w>": 2171,
    "ADDR:0x33": 2172,
    "99</w>": 2173,
    "TEMP_CPU=81.4°C</w>": 2174,
    "81.4°C.</w>": 2175,
    "ADDR:0x12": 2176,
    "BAT_VOLT=8.89V</w>": 2177,
    "8.89V</w>": 2178,
    "TEMP_CPU=87.9°C</w>": 2179,
    "87.9°C.</w>": 2180,
    "TEMP_CPU=93.5°C</w>": 2181,
    "93.5°C.</w>": 2182,
    "95M/S</w>": 2183,
    "95m/s</w>": 2184,
    "BAT_VOLT=9.54V</w>": 2185,
    "9.54V</w>": 2186,
    "9A</w>": 2187,
    "90</w>": 2188,
    "TEMP_CPU=97.8°C</w>": 2189,
    "97.8°C.</w>": 2190,
    "BAT_VOLT=9.84V</w>": 2191,
    "9.84V</w>": 2192,
    "BAT_VOLT=8.94V</w>": 2193,
    "8.94V</w>": 2194,
    "TEMP_CPU=95.9°C</w>": 2195,
    "95.9°C.</w>": 2196,
    "BAT_VOLT=10.11V</w>": 2197,
    "10.11V</w>": 2198,
    "60</w>": 2199,
    "BAT_VOLT=10.28V</w>": 2200,
    "10.28V</w>": 2201,
    "ADDR:0xD1": 2202,
    "TEMP_CPU=88.7°C</w>": 2203,
    "88.7°C.</w>": 2204,
    "TEMP_CPU=92.4°C</w>": 2205,
    "92.4°C.</w>": 2206,
    "80</w>": 2207,
    "78</w>": 2208,
    "ADDR:0x71": 2209,
    "TEMP_CPU=90.2°C</w>": 2210,
    "90.2°C.</w>": 2211,
    "BAT_VOLT=12.29V</w>": 2212,
    "12.29V</w>": 2213,
    "BAT_VOLT=12.43V</w>": 2214,
    "12.43V</w>": 2215,
    "BAT_VOLT=9.89V</w>": 2216,
    "9.89V</w>": 2217,
    "51M/S</w>": 2218,
    "51m/s</w>": 2219,
    "65</w>": 2220,
    "BAT_VOLT=9.24V</w>": 2221,
    "9.24V</w>": 2222,
    "BAT_VOLT=9.61V</w>": 2223,
    "9.61V</w>": 2224,
    "BAT_VOLT=8.75V</w>": 2225,
    "8.75V</w>": 2226,
    "61</w>": 2227,
    "BAT_VOLT=10.33V</w>": 2228,
    "10.33V</w>": 2229,
    "97</w>": 2230,
    "SPEED=1.9": 2231,
    "1.9": 2232,
    "BAT_VOLT=12.34V</w>": 2233,
    "12.34V</w>": 2234,
    "BAT_VOLT=9.03V</w>": 2235,
    "9.03V</w>": 2236,
    "ADDR:0x73": 2237,
    "83</w>": 2238,
    "TEMP_CPU=96.4°C</w>": 2239,
    "96.4°C.</w>": 2240,
    "7B</w>": 2241,
    "BAT_VOLT=10.37V</w>": 2242,
    "10.37V</w>": 2243,
    "TEMP_CPU=93.2°C</w>": 2244,
    "93.2°C.</w>": 2245,
    "ADDR:0x63": 2246,
    "95</w>": 2247,
    "BAT_VOLT=9.22V</w>": 2248,
    "9.22V</w>": 2249,
    "TEMP_CPU=82.8°C</w>": 2250,
    "82.8°C.</w>": 2251,
    "BAT_VOLT=9.45V</w>": 2252,
    "9.45V</w>": 2253,
    "ADDR:0xB3": 2254,
    "TEMP_CPU=84.3°C</w>": 2255,
    "84.3°C.</w>": 2256,
    "TEMP_CPU=81.7°C</w>": 2257,
    "81.7°C.</w>": 2258,
    "TEMP_CPU=83.6°C</w>": 2259,
    "83.6°C.</w>": 2260,
    "ADDR:0x03": 2261,
    "67</w>": 2262,
    "TEMP_CPU=96.5°C</w>": 2263,
    "96.5°C.</w>": 2264,
    "TEMP_CPU=86.1°C</w>": 2265,
    "86.1°C.</w>": 2266,
    "TEMP_CPU=92.2°C</w>": 2267,
    "92.2°C.</w>": 2268,
    "TEMP_CPU=93.8°C</w>": 2269,
    "93.8°C.</w>": 2270,
    "TEMP_CPU=92.1°C</w>": 2271,
    "92.1°C.</w>": 2272,
    "TEMP_CPU=97.5°C</w>": 2273,
    "97.5°C.</w>": 2274,
    "TEMP_CPU=90.4°C</w>": 2275,
    "90.4°C.</w>": 2276,
    "8B</w>": 2277,
    "BAT_VOLT=8.98V</w>": 2278,
    "8.98V</w>": 2279,
    "6D</w>": 2280,
    "BAT_VOLT=10.08V</w>": 2281,
    "10.08V</w>": 2282,
    "TEMP_CPU=82.4°C</w>": 2283,
    "82.4°C.</w>": 2284,
    "TEMP_CPU=85.7°C</w>": 2285,
    "85.7°C.</w>": 2286,
    "BAT_VOLT=8.58V</w>": 2287,
    "8.58V</w>": 2288,
    "BAT_VOLT=10.13V</w>": 2289,
    "10.13V</w>": 2290,
    "BAT_VOLT=8.74V</w>": 2291,
    "8.74V</w>": 2292,
    "TEMP_CPU=95.5°C</w>": 2293,
    "95.5°C.</w>": 2294,
    "BAT_VOLT=9.76V</w>": 2295,
    "9.76V</w>": 2296,
    "TEMP_CPU=86.5°C</w>": 2297,
    "86.5°C.</w>": 2298,
    "TEMP_CPU=97.0°C</w>": 2299,
    "97.0°C.</w>": 2300,
    "67M/S</w>": 2301,
    "67m/s</w>": 2302,
    "BAT_VOLT=9.8V</w>": 2303,
    "9.8V</w>": 2304,
    "BAT_VOLT=9.92V</w>": 2305,
    "9.92V</w>": 2306,
    "ADDR:0x81": 2307,
    "81</w>": 2308,
    "BAT_VOLT=9.58V</w>": 2309,
    "9.58V</w>": 2310,
    "BAT_VOLT=10.12V</w>": 2311,
    "10.12V</w>": 2312,
    "TEMP_CPU=87.7°C</w>": 2313,
    "87.7°C.</w>": 2314,
    "TEMP_CPU=84.7°C</w>": 2315,
    "84.7°C.</w>": 2316,
    "TEMP_CPU=88.8°C</w>": 2317,
    "88.8°C.</w>": 2318,
    "TEMP_CPU=93.4°C</w>": 2319,
    "93.4°C.</w>": 2320,
    "TEMP_CPU=90.6°C</w>": 2321,
    "90.6°C.</w>": 2322,
    "TEMP_CPU=84.0°C</w>": 2323,
    "84.0°C.</w>": 2324,
    "TEMP_CPU=87.1°C</w>": 2325,
    "87.1°C.</w>": 2326,
    "TEMP_CPU=85.6°C</w>": 2327,
    "85.6°C.</w>": 2328,
    "ADDR:0xE3": 2329,
    "TEMP_CPU=81.5°C</w>": 2330,
    "81.5°C.</w>": 2331,
    "TEMP_CPU=90.7°C</w>": 2332,
    "90.7°C.</w>": 2333,
    "ADDR:0xE2": 2334,
    "TEMP_CPU=92.0°C</w>": 2335,
    "92.0°C.</w>": 2336,
    "9E</w>": 2337,
    "TEMP_CPU=90.1°C</w>": 2338,
    "90.1°C.</w>": 2339,
    "ADDR:0xF1": 2340,
    "9C</w>": 2341,
    "TEMP_CPU=85.3°C</w>": 2342,
    "85.3°C.</w>": 2343,
    "TEMP_CPU=87.2°C</w>": 2344,
    "87.2°C.</w>": 2345,
    "TEMP_CPU=95.2°C</w>": 2346,
    "95.2°C.</w>": 2347,
    "ADDR:0x51": 2348,
    "SPEED=1.57M/S</w>": 2349,
    "1.57m/s</w>": 2350,
    "TEMP_CPU=97.1°C</w>": 2351,
    "97.1°C.</w>": 2352,
    "TEMP_CPU=87.8°C</w>": 2353,
    "87.8°C.</w>": 2354,
    "TEMP_CPU=90.5°C</w>": 2355,
    "90.5°C.</w>": 2356,
    "TEMP_CPU=96.3°C</w>": 2357,
    "96.3°C.</w>": 2358,
    "BAT_VOLT=10.06V</w>": 2359,
    "10.06V</w>": 2360,
    "TEMP_CPU=94.6°C</w>": 2361,
    "94.6°C.</w>": 2362,
    "BAT_VOLT=9.96V</w>": 2363,
    "9.96V</w>": 2364,
    "BAT_VOLT=8.7V</w>": 2365,
    "8.7V</w>": 2366,
    "BAT_VOLT=9.7V</w>": 2367,
    "9.7V</w>": 2368,
    "TEMP_CPU=93.9°C</w>": 2369,
    "93.9°C.</w>": 2370,
    "75</w>": 2371,
    "TEMP_CPU=94.0°C</w>": 2372,
    "94.0°C.</w>": 2373,
    "BAT_VOLT=8.64V</w>": 2374,
    "8.64V</w>": 2375,
    "7M/S</w>": 2376,
    "7m/s</w>": 2377,
    "BAT_VOLT=9.1V</w>": 2378,
    "9.1V</w>": 2379,
    "TEMP_CPU=92.8°C</w>": 2380,
    "92.8°C.</w>": 2381,
    "BAT_VOLT=8.61V</w>": 2382,
    "8.61V</w>": 2383,
    "BAT_VOLT=9.86V</w>": 2384,
    "9.86V</w>": 2385,
    "BAT_VOLT=8.87V</w>": 2386,
    "8.87V</w>": 2387,
    "BAT_VOLT=9.3V</w>": 2388,
    "9.3V</w>": 2389,
    "BAT_VOLT=8.9V</w>": 2390,
    "8.9V</w>": 2391,
    "BAT_VOLT=9.47V</w>": 2392,
    "9.47V</w>": 2393,
    "BAT_VOLT=9.42V</w>": 2394,
    "9.42V</w>": 2395,
    "TEMP_CPU=88.4°C</w>": 2396,
    "88.4°C.</w>": 2397,
    "BAT_VOLT=9.6V</w>": 2398,
    "9.6V</w>": 2399,
    "96</w>": 2400,
    "BAT_VOLT=9.04V</w>": 2401,
    "9.04V</w>": 2402,
    "TEMP_CPU=85.4°C</w>": 2403,
    "85.4°C.</w>": 2404,
    "92</w>": 2405,
    "9B</w>": 2406,
    "SPEED=0.83M/S</w>": 2407,
    "0.83m/s</w>": 2408,
    "D9</w>": 2409,
    "BAT_VOLT=9.15V</w>": 2410,
    "9.15V</w>": 2411,
    "TEMP_CPU=89.5°C</w>": 2412,
    "89.5°C.</w>": 2413,
    "ADDR:0x93": 2414,
    "TEMP_CPU=82.5°C</w>": 2415,
    "82.5°C.</w>": 2416,
    "BAT_VOLT=9.5V</w>": 2417,
    "9.5V</w>": 2418,
    "TEMP_CPU=87.0°C</w>": 2419,
    "87.0°C.</w>": 2420,
    "TEMP_CPU=89.7°C</w>": 2421,
    "89.7°C.</w>": 2422,
    "SPEED=1.36M/S</w>": 2423,
    "1.36m/s</w>": 2424,
    "TEMP_CPU=95.7°C</w>": 2425,
    "95.7°C.</w>": 2426,
    "BAT_VOLT=9.9V</w>": 2427,
    "9.9V</w>": 2428,
    "TEMP_CPU=88.6°C</w>": 2429,
    "88.6°C.</w>": 2430,
    "BAT_VOLT=9.83V</w>": 2431,
    "9.83V</w>": 2432,
    "TEMP_CPU=85.8°C</w>": 2433,
    "85.8°C.</w>": 2434,
    "TEMP_CPU=84.1°C</w>": 2435,
    "84.1°C.</w>": 2436,
    "BAT_VOLT=9.56V</w>": 2437,
    "9.56V</w>": 2438,
    "7E</w>": 2439,
    "SPEED=2.48M/S</w>": 2440,
    "2.48m/s</w>": 2441,
    "TEMP_CPU=82.3°C</w>": 2442,
    "82.3°C.</w>": 2443,
    "BAT_VOLT=9.88V</w>": 2444,
    "9.88V</w>": 2445,
    "TEMP_CPU=83.7°C</w>": 2446,
    "83.7°C.</w>": 2447,
    "9F</w>": 2448,
    "6B</w>": 2449,
    "SPEED=2.11M/S</w>": 2450,
    "2.11m/s</w>": 2451,
    "BAT_VOLT=9.94V</w>": 2452,
    "9.94V</w>": 2453,
    "TEMP_CPU=87.3°C</w>": 2454,
    "87.3°C.</w>": 2455,
    "BAT_VOLT=10.03V</w>": 2456,
    "10.03V</w>": 2457,
    "BAT_VOLT=8.59V</w>": 2458,
    "8.59V</w>": 2459,
    "TEMP_CPU=91.0°C</w>": 2460,
    "91.0°C.</w>": 2461,
    "TEMP_CPU=97.4°C</w>": 2462,
    "97.4°C.</w>": 2463,
    "SPEED=0.85M/S</w>": 2464,
    "0.85m/s</w>": 2465,
    "BAT_VOLT=10.2V</w>": 2466,
    "10.2V</w>": 2467,
    "TEMP_CPU=94.3°C</w>": 2468,
    "94.3°C.</w>": 2469,
    "BAT_VOLT=10.39V</w>": 2470,
    "10.39V</w>": 2471,
    "BAT_VOLT=10.27V</w>": 2472,
    "10.27V</w>": 2473,
    "BAT_VOLT=9.87V</w>": 2474,
    "9.87V</w>": 2475,
    "TEMP_CPU=86.3°C</w>": 2476,
    "86.3°C.</w>": 2477,
    "BAT_VOLT=8.55V</w>": 2478,
    "8.55V</w>": 2479,
    "BAT_VOLT=10.01V</w>": 2480,
    "10.01V</w>": 2481,
    "BAT_VOLT=10.02V</w>": 2482,
    "10.02V</w>": 2483,
    "TEMP_CPU=92.7°C</w>": 2484,
    "92.7°C.</w>": 2485,
    "BAT_VOLT=10.16V</w>": 2486,
    "10.16V</w>": 2487,
    "86</w>": 2488,
    "TEMP_CPU=84.4°C</w>": 2489,
    "84.4°C.</w>": 2490,
    "TEMP_CPU=94.5°C</w>": 2491,
    "94.5°C.</w>": 2492,
    "SPEED=2.08M/S</w>": 2493,
    "2.08m/s</w>": 2494,
    "TEMP_CPU=89.6°C</w>": 2495,
    "89.6°C.</w>": 2496,
    "BAT_VOLT=10.0V</w>": 2497,
    "10.0V</w>": 2498,
    "TEMP_CPU=86.2°C</w>": 2499,
    "86.2°C.</w>": 2500,
    "BAT_VOLT=9.33V</w>": 2501,
    "9.33V</w>": 2502,
    "BAT_VOLT=8.56V</w>": 2503,
    "8.56V</w>": 2504,
    "TEMP_CPU=97.9°C</w>": 2505,
    "97.9°C.</w>": 2506,
    "BAT_VOLT=8.83V</w>": 2507,
    "8.83V</w>": 2508,
    "TEMP_CPU=89.1°C</w>": 2509,
    "89.1°C.</w>": 2510,
    "TEMP_CPU=86.7°C</w>": 2511,
    "86.7°C.</w>": 2512,
    "TEMP_CPU=81.8°C</w>": 2513,
    "81.8°C.</w>": 2514,
    "TEMP_CPU=81.1°C</w>": 2515,
    "81.1°C.</w>": 2516,
    "TEMP_CPU=93.6°C</w>": 2517,
    "93.6°C.</w>": 2518,
    "TEMP_CPU=89.2°C</w>": 2519,
    "89.2°C.</w>": 2520,
    "SPEED=0.43M/S</w>": 2521,
    "0.43m/s</w>": 2522,
    "8F</w>": 2523,
    "BAT_VOLT=8.62V</w>": 2524,
    "8.62V</w>": 2525,
    "BAT_VOLT=10.32V</w>": 2526,
    "10.32V</w>": 2527,
    "SPEED=2.23M/S</w>": 2528,
    "2.23m/s</w>": 2529,
    "TEMP_CPU=83.5°C</w>": 2530,
    "83.5°C.</w>": 2531,
    "TEMP_CPU=91.9°C</w>": 2532,
    "91.9°C.</w>": 2533,
    "BAT_VOLT=8.97V</w>": 2534,
    "8.97V</w>": 2535,
    "BAT_VOLT=9.95V</w>": 2536,
    "9.95V</w>": 2537,
    "BAT_VOLT=8.86V</w>": 2538,
    "8.86V</w>": 2539,
    "84</w>": 2540,
    "BAT_VOLT=9.63V</w>": 2541,
    "9.63V</w>": 2542,
    "TEMP_CPU=89.0°C</w>": 2543,
    "89.0°C.</w>": 2544,
    "8A</w>": 2545,
    "TEMP_CPU=97.7°C</w>": 2546,
    "97.7°C.</w>": 2547,
    "TEMP_CPU=96.2°C</w>": 2548,
    "96.2°C.</w>": 2549,
    "TEMP_CPU=87.4°C</w>": 2550,
    "87.4°C.</w>": 2551,
    "BAT_VOLT=10.17V</w>": 2552,
    "10.17V</w>": 2553,
    "BAT_VOLT=9.08V</w>": 2554,
    "9.08V</w>": 2555,
    "SPEED=1.79M/S</w>": 2556,
    "1.79m/s</w>": 2557,
    "BAT_VOLT=8.84V</w>": 2558,
    "8.84V</w>": 2559,
    "TEMP_CPU=93.1°C</w>": 2560,
    "93.1°C.</w>": 2561,
    "BAT_VOLT=10.29V</w>": 2562,
    "10.29V</w>": 2563,
    "BAT_VOLT=9.11V</w>": 2564,
    "9.11V</w>": 2565,
    "SPEED=0.33M/S</w>": 2566,
    "0.33m/s</w>": 2567,
    "TEMP_CPU=81.3°C</w>": 2568,
    "81.3°C.</w>": 2569,
    "BAT_VOLT=8.81V</w>": 2570,
    "8.81V</w>": 2571,
    "BAT_VOLT=9.65V</w>": 2572,
    "9.65V</w>": 2573,
    "TEMP_CPU=83.8°C</w>": 2574,
    "83.8°C.</w>": 2575,
    "BAT_VOLT=9.26V</w>": 2576,
    "9.26V</w>": 2577,
    "SPEED=0.21M/S</w>": 2578,
    "0.21m/s</w>": 2579,
    "BAT_VOLT=8.51V</w>": 2580,
    "8.51V</w>": 2581,
    "BAT_VOLT=9.4V</w>": 2582,
    "9.4V</w>": 2583,
    "TEMP_CPU=92.3°C</w>": 2584,
    "92.3°C.</w>": 2585,
    "TEMP_CPU=94.9°C</w>": 2586,
    "94.9°C.</w>": 2587,
    "BAT_VOLT=10.09V</w>": 2588,
    "10.09V</w>": 2589,
    "TEMP_CPU=93.7°C</w>": 2590,
    "93.7°C.</w>": 2591,
    "SPEED=0.9M/S</w>": 2592,
    "0.9m/s</w>": 2593,
    "BAT_VOLT=10.22V</w>": 2594,
    "10.22V</w>": 2595,
    "SPEED=1.49M/S</w>": 2596,
    "1.49m/s</w>": 2597,
    "TEMP_CPU=91.1°C</w>": 2598,
    "91.1°C.</w>": 2599,
    "SPEED=0.36M/S</w>": 2600,
    "0.36m/s</w>": 2601,
    "TEMP_CPU=84.2°C</w>": 2602,
    "84.2°C.</w>": 2603,
    "BAT_VOLT=9.18V</w>": 2604,
    "9.18V</w>": 2605,
    "ADDR:0x83": 2606,
    "SPEED=1.24M/S</w>": 2607,
    "1.24m/s</w>": 2608,
    "BAT_VOLT=9.32V</w>": 2609,
    "9.32V</w>": 2610,
    "BAT_VOLT=9.38V</w>": 2611,
    "9.38V</w>": 2612,
    "BAT_VOLT=8.69V</w>": 2613,
    "8.69V</w>": 2614,
    "BAT_VOLT=8.63V</w>": 2615,
    "8.63V</w>": 2616,
    "SPEED=0.84M/S</w>": 2617,
    "0.84m/s</w>": 2618,
    "TEMP_CPU=96.8°C</w>": 2619,
    "96.8°C.</w>": 2620,
    "ADDR:0x43": 2621,
    "TEMP_CPU=85.5°C</w>": 2622,
    "85.5°C.</w>": 2623,
    "TEMP_CPU=81.2°C</w>": 2624,
    "81.2°C.</w>": 2625,
    "TEMP_CPU=92.5°C</w>": 2626,
    "92.5°C.</w>": 2627,
    "BAT_VOLT=9.72V</w>": 2628,
    "9.72V</w>": 2629,
    "TEMP_CPU=82.1°C</w>": 2630,
    "82.1°C.</w>": 2631,
    "TEMP_CPU=95.6°C</w>": 2632,
    "95.6°C.</w>": 2633,
    "BAT_VOLT=10.24V</w>": 2634,
    "10.24V</w>": 2635,
    "BAT_VOLT=9.14V</w>": 2636,
    "9.14V</w>": 2637,
    "TEMP_CPU=91.5°C</w>": 2638,
    "91.5°C.</w>": 2639,
    "SPEED=2.18M/S</w>": 2640,
    "2.18m/s</w>": 2641,
    "TEMP_CPU=81.6°C</w>": 2642,
    "81.6°C.</w>": 2643,
    "TEMP_CPU=96.6°C</w>": 2644,
    "96.6°C.</w>": 2645,
    "BAT_VOLT=8.85V</w>": 2646,
    "8.85V</w>": 2647,
    "ADDR:0x13": 2648,
    "ADDR:0xC3": 2649,
    "BAT_VOLT=8.72V</w>": 2650,
    "8.72V</w>": 2651,
    "TEMP_CPU=85.9°C</w>": 2652,
    "85.9°C.</w>": 2653,
    "BAT_VOLT=10.1V</w>": 2654,
    "10.1V</w>": 2655,
    "ADDR:0xF3": 2656,
    "BAT_VOLT=9.91V</w>": 2657,
    "9.91V</w>": 2658,
    "BAT_VOLT=9.68V</w>": 2659,
    "9.68V</w>": 2660,
    "BAT_VOLT=9.2V</w>": 2661,
    "9.2V</w>": 2662,
    "SPEED=2.05M/S</w>": 2663,
    "2.05m/s</w>": 2664,
    "BAT_VOLT=9.75V</w>": 2665,
    "9.75V</w>": 2666,
    "BAT_VOLT=8.76V</w>": 2667,
    "8.76V</w>": 2668,
    "TEMP_CPU=87.5°C</w>": 2669,
    "87.5°C.</w>": 2670,
    "SPEED=1.28M/S</w>": 2671,
    "1.28m/s</w>": 2672,
    "SPEED=1.37M/S</w>": 2673,
    "1.37m/s</w>": 2674,
    "SPEED=2.4M/S</w>": 2675,
    "2.4m/s</w>": 2676,
    "TEMP_CPU=93.3°C</w>": 2677,
    "93.3°C.</w>": 2678,
    "SPEED=2.3M/S</w>": 2679,
    "2.3m/s</w>": 2680,
    "SPEED=0.66M/S</w>": 2681,
    "0.66m/s</w>": 2682,
    "BAT_VOLT=10.21V</w>": 2683,
    "10.21V</w>": 2684,
    "BAT_VOLT=9.81V</w>": 2685,
    "9.81V</w>": 2686,
    "TEMP_CPU=92.9°C</w>": 2687,
    "92.9°C.</w>": 2688,
    "TEMP_CPU=86.6°C</w>": 2689,
    "86.6°C.</w>": 2690,
    "BAT_VOLT=9.31V</w>": 2691,
    "9.31V</w>": 2692,
    "BAT_VOLT=8.67V</w>": 2693,
    "8.67V</w>": 2694,
    "BAT_VOLT=10.05V</w>": 2695,
    "10.05V</w>": 2696,
    "SPEED=0.69M/S</w>": 2697,
    "0.69m/s</w>": 2698,
    "ADDR:0x21": 2699,
    "BAT_VOLT=9.01V</w>": 2700,
    "9.01V</w>": 2701,
    "TEMP_CPU=95.0°C</w>": 2702,
    "95.0°C.</w>": 2703,
    "BAT_VOLT=8.91V</w>": 2704,
    "8.91V</w>": 2705,
    "TEMP_CPU=88.0°C</w>": 2706,
    "88.0°C.</w>": 2707,
    "BAT_VOLT=9.23V</w>": 2708,
    "9.23V</w>": 2709,
    "TEMP_CPU=83.4°C</w>": 2710,
    "83.4°C.</w>": 2711,
    "TEMP_CPU=97.6°C</w>": 2712,
    "97.6°C.</w>": 2713,
    "TEMP_CPU=85.2°C</w>": 2714,
    "85.2°C.</w>": 2715,
    "SPEED=0.58M/S</w>": 2716,
    "0.58m/s</w>": 2717,
    "BAT_VOLT=10.14V</w>": 2718,
    "10.14V</w>": 2719,
    "BAT_VOLT=9.66V</w>": 2720,
    "9.66V</w>": 2721,
    "SPEED=0.23M/S</w>": 2722,
    "0.23m/s</w>": 2723,
    "SPEED=1.92M/S</w>": 2724,
    "1.92m/s</w>": 2725,
    "BAT_VOLT=9.98V</w>": 2726,
    "9.98V</w>": 2727,
    "BAT_VOLT=9.74V</w>": 2728,
    "9.74V</w>": 2729,
    "BAT_VOLT=8.73V</w>": 2730,
    "8.73V</w>": 2731,
    "TEMP_CPU=88.9°C</w>": 2732,
    "88.9°C.</w>": 2733,
    "BAT_VOLT=10.26V</w>": 2734,
    "10.26V</w>": 2735,
    "BAT_VOLT=10.15V</w>": 2736,
    "10.15V</w>": 2737,
    "BAT_VOLT=8.54V</w>": 2738,
    "8.54V</w>": 2739,
    "BAT_VOLT=9.39V</w>": 2740,
    "9.39V</w>": 2741,
    "BAT_VOLT=9.67V</w>": 2742,
    "9.67V</w>": 2743,
    "BAT_VOLT=9.78V</w>": 2744,
    "9.78V</w>": 2745,
    "TEMP_CPU=94.8°C</w>": 2746,
    "94.8°C.</w>": 2747,
    "TEMP_CPU=94.1°C</w>": 2748,
    "94.1°C.</w>": 2749,
    "TEMP_CPU=94.7°C</w>": 2750,
    "94.7°C.</w>": 2751,
    "BAT_VOLT=9.77V</w>": 2752,
    "9.77V</w>": 2753,
    "TEMP_CPU=83.1°C</w>": 2754,
    "83.1°C.</w>": 2755,
    "TEMP_CPU=81.9°C</w>": 2756,
    "81.9°C.</w>": 2757,
    "BAT_VOLT=10.36V</w>": 2758,
    "10.36V</w>": 2759,
    "SPEED=0.68M/S</w>": 2760,
    "0.68m/s</w>": 2761,
    "TEMP_CPU=83.2°C</w>": 2762,
    "83.2°C.</w>": 2763,
    "TEMP_CPU=84.9°C</w>": 2764,
    "84.9°C.</w>": 2765,
    "91</w>": 2766,
    "TEMP_CPU=95.4°C</w>": 2767,
    "95.4°C.</w>": 2768,
    "BAT_VOLT=9.35V</w>": 2769,
    "9.35V</w>": 2770,
    "TEMP_CPU=95.3°C</w>": 2771,
    "95.3°C.</w>": 2772,
    "TEMP_CPU=95.8°C</w>": 2773,
    "95.8°C.</w>": 2774,
    "BAT_VOLT=9.57V</w>": 2775,
    "9.57V</w>": 2776,
    "BAT_VOLT=10.38V</w>": 2777,
    "10.38V</w>": 2778,
    "BAT_VOLT=8.6V</w>": 2779,
    "8.6V</w>": 2780,
    "BAT_VOLT=9.51V</w>": 2781,
    "9.51V</w>": 2782,
    "SPEED=2.02M/S</w>": 2783,
    "2.02m/s</w>": 2784,
    "8D</w>": 2785,
    "TEMP_CPU=83.0°C</w>": 2786,
    "83.0°C.</w>": 2787,
    "SPEED=0.62M/S</w>": 2788,
    "0.62m/s</w>": 2789,
    "SPEED=0.28M/S</w>": 2790,
    "0.28m/s</w>": 2791,
    "SPEED=1.19M/S</w>": 2792,
    "1.19m/s</w>": 2793,
    "SPEED=0.59M/S</w>": 2794,
    "0.59m/s</w>": 2795,
    "SPEED=2.25M/S</w>": 2796,
    "2.25m/s</w>": 2797,
    "SPEED=2.32M/S</w>": 2798,
    "2.32m/s</w>": 2799,
    "SPEED=2.47M/S</w>": 2800,
    "2.47m/s</w>": 2801,
    "BAT_VOLT=9.09V</w>": 2802,
    "9.09V</w>": 2803,
    "SPEED=2.21M/S</w>": 2804,
    "2.21m/s</w>": 2805,
    "ADDR:0x53": 2806,
    "BAT_VOLT=9.52V</w>": 2807,
    "9.52V</w>": 2808,
    "BAT_VOLT=9.29V</w>": 2809,
    "9.29V</w>": 2810,
    "SPEED=0.32M/S</w>": 2811,
    "0.32m/s</w>": 2812,
    "BAT_VOLT=9.28V</w>": 2813,
    "9.28V</w>": 2814,
    "SPEED=2.31M/S</w>": 2815,
    "2.31m/s</w>": 2816,
    "TEMP_CPU=82.9°C</w>": 2817,
    "82.9°C.</w>": 2818,
    "SPEED=0.02M/S</w>": 2819,
    "0.02m/s</w>": 2820,
    "BAT_VOLT=9.43V</w>": 2821,
    "9.43V</w>": 2822,
    "SPEED=1.11M/S</w>": 2823,
    "1.11m/s</w>": 2824,
    "SPEED=0.71M/S</w>": 2825,
    "0.71m/s</w>": 2826,
    "TEMP_CPU=97.3°C</w>": 2827,
    "97.3°C.</w>": 2828,
    "SPEED=1.6M/S</w>": 2829,
    "1.6m/s</w>": 2830,
    "BAT_VOLT=9.97V</w>": 2831,
    "9.97V</w>": 2832,
    "SPEED=0.93M/S</w>": 2833,
    "0.93m/s</w>": 2834,
    "BAT_VOLT=9.13V</w>": 2835,
    "9.13V</w>": 2836,
    "BAT_VOLT=9.73V</w>": 2837,
    "9.73V</w>": 2838,
    "BAT_VOLT=8.52V</w>": 2839,
    "8.52V</w>": 2840,
    "SPEED=2.34M/S</w>": 2841,
    "2.34m/s</w>": 2842,
    "SPEED=0.11M/S</w>": 2843,
    "0.11m/s</w>": 2844,
    "BAT_VOLT=10.35V</w>": 2845,
    "10.35V</w>": 2846,
    "BAT_VOLT=9.19V</w>": 2847,
    "9.19V</w>": 2848,
    "BAT_VOLT=8.95V</w>": 2849,
    "8.95V</w>": 2850,
    "BAT_VOLT=10.07V</w>": 2851,
    "10.07V</w>": 2852,
    "SPEED=0.29M/S</w>": 2853,
    "0.29m/s</w>": 2854,
    "BAT_VOLT=9.79V</w>": 2855,
    "9.79V</w>": 2856,
    "SPEED=1.82M/S</w>": 2857,
    "1.82m/s</w>": 2858,
    "SPEED=2.19M/S</w>": 2859,
    "2.19m/s</w>": 2860,
    "SPEED=0.81M/S</w>": 2861,
    "0.81m/s</w>": 2862,
    "SPEED=1.54M/S</w>": 2863,
    "1.54m/s</w>": 2864,
    "BAT_VOLT=9.62V</w>": 2865,
    "9.62V</w>": 2866,
    "SPEED=1.35M/S</w>": 2867,
    "1.35m/s</w>": 2868,
    "SPEED=1.61M/S</w>": 2869,
    "1.61m/s</w>": 2870,
    "BAT_VOLT=8.77V</w>": 2871,
    "8.77V</w>": 2872,
    "BAT_VOLT=9.37V</w>": 2873,
    "9.37V</w>": 2874,
    "SPEED=0.98M/S</w>": 2875,
    "0.98m/s</w>": 2876,
    "SPEED=0.72M/S</w>": 2877,
    "0.72m/s</w>": 2878,
    "SPEED=0.31M/S</w>": 2879,
    "0.31m/s</w>": 2880,
    "SPEED=1.88M/S</w>": 2881,
    "1.88m/s</w>": 2882,
    "SPEED=1.34M/S</w>": 2883,
    "1.34m/s</w>": 2884,
    "TEMP_CPU=82.6°C</w>": 2885,
    "82.6°C.</w>": 2886,
    "BAT_VOLT=9.36V</w>": 2887,
    "9.36V</w>": 2888,
    "BAT_VOLT=9.21V</w>": 2889,
    "9.21V</w>": 2890,
    "BAT_VOLT=9.0V</w>": 2891,
    "9.0V</w>": 2892,
    "SPEED=0.57M/S</w>": 2893,
    "0.57m/s</w>": 2894,
    "SPEED=0.25M/S</w>": 2895,
    "0.25m/s</w>": 2896,
    "SPEED=0.18M/S</w>": 2897,
    "0.18m/s</w>": 2898,
    "SPEED=1.16M/S</w>": 2899,
    "1.16m/s</w>": 2900,
    "BAT_VOLT=9.71V</w>": 2901,
    "9.71V</w>": 2902,
    "BAT_VOLT=10.3V</w>": 2903,
    "10.3V</w>": 2904,
    "SPEED=1.05M/S</w>": 2905,
    "1.05m/s</w>": 2906,
    "BAT_VOLT=9.16V</w>": 2907,
    "9.16V</w>": 2908,
    "BAT_VOLT=10.04V</w>": 2909,
    "10.04V</w>": 2910,
    "TEMP_CPU=83.3°C</w>": 2911,
    "83.3°C.</w>": 2912,
    "SPEED=0.78M/S</w>": 2913,
    "0.78m/s</w>": 2914,
    "SPEED=0.49M/S</w>": 2915,
    "0.49m/s</w>": 2916,
    "SPEED=1.59M/S</w>": 2917,
    "1.59m/s</w>": 2918,
    "SPEED=1.01M/S</w>": 2919,
    "1.01m/s</w>": 2920,
    "SPEED=2.14M/S</w>": 2921,
    "2.14m/s</w>": 2922,
    "BAT_VOLT=9.05V</w>": 2923,
    "9.05V</w>": 2924,
    "SPEED=1.4M/S</w>": 2925,
    "1.4m/s</w>": 2926,
    "BAT_VOLT=9.99V</w>": 2927,
    "9.99V</w>": 2928,
    "SPEED=0.86M/S</w>": 2929,
    "0.86m/s</w>": 2930,
    "SPEED=1.44M/S</w>": 2931,
    "1.44m/s</w>": 2932,
    "SPEED=2.12M/S</w>": 2933,
    "2.12m/s</w>": 2934,
    "SPEED=1.39M/S</w>": 2935,
    "1.39m/s</w>": 2936,
    "BAT_VOLT=8.8V</w>": 2937,
    "8.8V</w>": 2938,
    "BAT_VOLT=11.5V</w>": 2939,
    "11.5V</w>": 2940,
    "SPEED=0.35M/S</w>": 2941,
    "0.35m/s</w>": 2942,
    "BAT_VOLT=10.19V</w>": 2943,
    "10.19V</w>": 2944,
    "BAT_VOLT=9.02V</w>": 2945,
    "9.02V</w>": 2946,
    "SPEED=1.73M/S</w>": 2947,
    "1.73m/s</w>": 2948,
    "SPEED=0.22M/S</w>": 2949,
    "0.22m/s</w>": 2950,
    "SPEED=0.82M/S</w>": 2951,
    "0.82m/s</w>": 2952,
    "BAT_VOLT=8.82V</w>": 2953,
    "8.82V</w>": 2954,
    "SPEED=1.2M/S</w>": 2955,
    "1.2m/s</w>": 2956,
    "TEMP_CPU=88.5°C</w>": 2957,
    "88.5°C.</w>": 2958,
    "ADDR:0xA3": 2959,
    "SPEED=1.68M/S</w>": 2960,
    "1.68m/s</w>": 2961,
    "SPEED=2.42M/S</w>": 2962,
    "2.42m/s</w>": 2963,
    "SPEED=1.66M/S</w>": 2964,
    "1.66m/s</w>": 2965,
    "SPEED=2.45M/S</w>": 2966,
    "2.45m/s</w>": 2967,
    "SPEED=0.17M/S</w>": 2968,
    "0.17m/s</w>": 2969,
    "BAT_VOLT=8.53V</w>": 2970,
    "8.53V</w>": 2971,
    "SPEED=0.19M/S</w>": 2972,
    "0.19m/s</w>": 2973,
    "BAT_VOLT=9.59V</w>": 2974,
    "9.59V</w>": 2975,
    "TEMP_CPU=93.0°C</w>": 2976,
    "93.0°C.</w>": 2977,
    "SPEED=1.0M/S</w>": 2978,
    "1.0m/s</w>": 2979,
    "SPEED=0.1M/S</w>": 2980,
    "0.1m/s</w>": 2981,
    "SPEED=0.73M/S</w>": 2982,
    "0.73m/s</w>": 2983,
    "BAT_VOLT=8.96V</w>": 2984,
    "8.96V</w>": 2985,
    "SPEED=2.29M/S</w>": 2986,
    "2.29m/s</w>": 2987,
    "BAT_VOLT=9.93V</w>": 2988,
    "9.93V</w>": 2989,
    "SPEED=1.55M/S</w>": 2990,
    "1.55m/s</w>": 2991,
    "BAT_VOLT=9.82V</w>": 2992,
    "9.82V</w>": 2993,
    "SPEED=2.04M/S</w>": 2994,
    "2.04m/s</w>": 2995,
    "SPEED=1.26M/S</w>": 2996,
    "1.26m/s</w>": 2997,
    "SPEED=0.94M/S</w>": 2998,
    "0.94m/s</w>": 2999,
    "SPEED=0.04M/S</w>": 3000,
    "0.04m/s</w>": 3001,
    "SPEED=0.4M/S</w>": 3002,
    "0.4m/s</w>": 3003,
    "ADDR:0x23": 3004,
    "BAT_VOLT=10.18V</w>": 3005,
    "10.18V</w>": 3006,
    "ADDR:0xD3": 3007,
    "SPEED=2.06M/S</w>": 3008,
    "2.06m/s</w>": 3009,
    "SPEED=2.13M/S</w>": 3010,
    "2.13m/s</w>": 3011,
    "SPEED=0.88M/S</w>": 3012,
    "0.88m/s</w>": 3013,
    "BAT_VOLT=9.34V</w>": 3014,
    "9.34V</w>": 3015,
    "SPEED=0.47M/S</w>": 3016,
    "0.47m/s</w>": 3017,
    "SPEED=0.97M/S</w>": 3018,
    "0.97m/s</w>": 3019,
    "SPEED=1.93M/S</w>": 3020,
    "1.93m/s</w>": 3021,
    "BAT_VOLT=10.31V</w>": 3022,
    "10.31V</w>": 3023,
    "SPEED=0.07M/S</w>": 3024,
    "0.07m/s</w>": 3025,
    "SPEED=1.91M/S</w>": 3026,
    "1.91m/s</w>": 3027,
    "SPEED=1.85M/S</w>": 3028,
    "1.85m/s</w>": 3029,
    "BAT_VOLT=8.92V</w>": 3030,
    "8.92V</w>": 3031,
    "SPEED=1.17M/S</w>": 3032,
    "1.17m/s</w>": 3033,
    "BAT_VOLT=8.68V</w>": 3034,
    "8.68V</w>": 3035,
    "SPEED=1.97M/S</w>": 3036,
    "1.97m/s</w>": 3037,
    "SPEED=1.38M/S</w>": 3038,
    "1.38m/s</w>": 3039,
    "SPEED=1.81M/S</w>": 3040,
    "1.81m/s</w>": 3041,
    "SPEED=2.37M/S</w>": 3042,
    "2.37m/s</w>": 3043,
    "SPEED=2.26M/S</w>": 3044,
    "2.26m/s</w>": 3045,
    "SPEED=0.64M/S</w>": 3046,
    "0.64m/s</w>": 3047,
    "SPEED=0.6M/S</w>": 3048,
    "0.6m/s</w>": 3049,
    "SPEED=1.47M/S</w>": 3050,
    "1.47m/s</w>": 3051,
    "BAT_VOLT=8.88V</w>": 3052,
    "8.88V</w>": 3053,
    "BAT_VOLT=9.69V</w>": 3054,
    "9.69V</w>": 3055,
    "SPEED=0.96M/S</w>": 3056,
    "0.96m/s</w>": 3057,
    "SPEED=0.08M/S</w>": 3058,
    "0.08m/s</w>": 3059,
    "SPEED=1.83M/S</w>": 3060,
    "1.83m/s</w>": 3061,
    "SPEED=1.52M/S</w>": 3062,
    "1.52m/s</w>": 3063,
    "SPEED=1.02M/S</w>": 3064,
    "1.02m/s</w>": 3065,
    "SPEED=1.87M/S</w>": 3066,
    "1.87m/s</w>": 3067,
    "SPEED=0.45M/S</w>": 3068,
    "0.45m/s</w>": 3069,
    "SPEED=1.15M/S</w>": 3070,
    "1.15m/s</w>": 3071,
    "SPEED=1.22M/S</w>": 3072,
    "1.22m/s</w>": 3073,
    "SPEED=2.09M/S</w>": 3074,
    "2.09m/s</w>": 3075,
    "SPEED=0.12M/S</w>": 3076,
    "0.12m/s</w>": 3077,
    "SPEED=0.42M/S</w>": 3078,
    "0.42m/s</w>": 3079,
    "BAT_VOLT=9.12V</w>": 3080,
    "9.12V</w>": 3081,
    "SPEED=0.75M/S</w>": 3082,
    "0.75m/s</w>": 3083,
    "SPEED=2.35M/S</w>": 3084,
    "2.35m/s</w>": 3085,
    "SPEED=0.44M/S</w>": 3086,
    "0.44m/s</w>": 3087,
    "SPEED=2.46M/S</w>": 3088,
    "2.46m/s</w>": 3089,
    "SPEED=0.53M/S</w>": 3090,
    "0.53m/s</w>": 3091,
    "SPEED=0.8M/S</w>": 3092,
    "0.8m/s</w>": 3093,
    "SPEED=1.33M/S</w>": 3094,
    "1.33m/s</w>": 3095,
    "SPEED=0.09M/S</w>": 3096,
    "0.09m/s</w>": 3097,
    "SPEED=1.3M/S</w>": 3098,
    "1.3m/s</w>": 3099,
    "BAT_VOLT=8.93V</w>": 3100,
    "8.93V</w>": 3101,
    "SPEED=1.21M/S</w>": 3102,
    "1.21m/s</w>": 3103,
    "TEMP_CPU=90.3°C</w>": 3104,
    "90.3°C.</w>": 3105,
    "SPEED=2.03M/S</w>": 3106,
    "2.03m/s</w>": 3107,
    "BAT_VOLT=9.55V</w>": 3108,
    "9.55V</w>": 3109,
    "BAT_VOLT=9.85V</w>": 3110,
    "9.85V</w>": 3111,
    "TEMP_CPU=88.2°C</w>": 3112,
    "88.2°C.</w>": 3113,
    "SPEED=0.26M/S</w>": 3114,
    "0.26m/s</w>": 3115,
    "SPEED=2.22M/S</w>": 3116,
    "2.22m/s</w>": 3117,
    "SPEED=0.06M/S</w>": 3118,
    "0.06m/s</w>": 3119,
    "SPEED=1.46M/S</w>": 3120,
    "1.46m/s</w>": 3121,
    "SPEED=0.01M/S</w>": 3122,
    "0.01m/s</w>": 3123,
    "SPEED=1.89M/S</w>": 3124,
    "1.89m/s</w>": 3125,
    "SPEED=0.27M/S</w>": 3126,
    "0.27m/s</w>": 3127,
    "3F0</w>": 3128,
    "SPEED=1.95M/S</w>": 3129,
    "1.95m/s</w>": 3130,
    "SPEED=2.41M/S</w>": 3131,
    "2.41m/s</w>": 3132,
    "SPEED=2.1M/S</w>": 3133,
    "2.1m/s</w>": 3134,
    "SPEED=1.94M/S</w>": 3135,
    "1.94m/s</w>": 3136,
    "BAT_VOLT=8.78V</w>": 3137,
    "8.78V</w>": 3138,
    "SPEED=1.32M/S</w>": 3139,
    "1.32m/s</w>": 3140,
    "SPEED=0.41M/S</w>": 3141,
    "0.41m/s</w>": 3142,
    "SPEED=0.63M/S</w>": 3143,
    "0.63m/s</w>": 3144,
    "SPEED=1.71M/S</w>": 3145,
    "1.71m/s</w>": 3146,
    "TEMP_CPU=84.8°C</w>": 3147,
    "84.8°C.</w>": 3148,
    "SPEED=0.13M/S</w>": 3149,
    "0.13m/s</w>": 3150,
    "SPEED=0.54M/S</w>": 3151,
    "0.54m/s</w>": 3152,
    "SPEED=0.24M/S</w>": 3153,
    "0.24m/s</w>": 3154,
    "SPEED=1.5M/S</w>": 3155,
    "1.5m/s</w>": 3156,
    "SPEED=2.49M/S</w>": 3157,
    "2.49m/s</w>": 3158,
    "BAT_VOLT=8.71V</w>": 3159,
    "8.71V</w>": 3160,
    "TEMP_CPU=90.9°C</w>": 3161,
    "90.9°C.</w>": 3162,
    "SPEED=1.56M/S</w>": 3163,
    "1.56m/s</w>": 3164,
    "BAT_VOLT=9.17V</w>": 3165,
    "9.17V</w>": 3166,
    "82</w>": 3167,
    "SPEED=1.76M/S</w>": 3168,
    "1.76m/s</w>": 3169,
    "SPEED=0.77M/S</w>": 3170,
    "0.77m/s</w>": 3171,
    "SPEED=1.72M/S</w>": 3172,
    "1.72m/s</w>": 3173,
    "SPEED=0.16M/S</w>": 3174,
    "0.16m/s</w>": 3175,
    "SPEED=0.55M/S</w>": 3176,
    "0.55m/s</w>": 3177,
    "SPEED=1.41M/S</w>": 3178,
    "1.41m/s</w>": 3179,
    "TEMP_CPU=85.0°C</w>": 3180,
    "85.0°C.</w>": 3181,
    "SPEED=0.61M/S</w>": 3182,
    "0.61m/s</w>": 3183,
    "SPEED=0.76M/S</w>": 3184,
    "0.76m/s</w>": 3185,
    "SPEED=1.43M/S</w>": 3186,
    "1.43m/s</w>": 3187,
    "SPEED=1.04M/S</w>": 3188,
    "1.04m/s</w>": 3189,
    "SPEED=0.2M/S</w>": 3190,
    "0.2m/s</w>": 3191,
    "SPEED=0.79M/S</w>": 3192,
    "0.79m/s</w>": 3193,
    "SPEED=2.44M/S</w>": 3194,
    "2.44m/s</w>": 3195,
    "SPEED=2.07M/S</w>": 3196,
    "2.07m/s</w>": 3197,
    "SPEED=1.03M/S</w>": 3198,
    "1.03m/s</w>": 3199,
    "SPEED=1.23M/S</w>": 3200,
    "1.23m/s</w>": 3201,
    "SPEED=0.87M/S</w>": 3202,
    "0.87m/s</w>": 3203,
    "SPEED=0.91M/S</w>": 3204,
    "0.91m/s</w>": 3205,
    "SPEED=2.33M/S</w>": 3206,
    "2.33m/s</w>": 3207,
    "SPEED=1.12M/S</w>": 3208,
    "1.12m/s</w>": 3209,
    "SPEED=1.1M/S</w>": 3210,
    "1.1m/s</w>": 3211,
    "SPEED=0.34M/S</w>": 3212,
    "0.34m/s</w>": 3213,
    "SPEED=1.65M/S</w>": 3214,
    "1.65m/s</w>": 3215,
    "BAT_VOLT=9.07V</w>": 3216,
    "9.07V</w>": 3217,
    "SPEED=0.99M/S</w>": 3218,
    "0.99m/s</w>": 3219,
    "SPEED=2.39M/S</w>": 3220,
    "2.39m/s</w>": 3221,
    "SPEED=2.16M/S</w>": 3222,
    "2.16m/s</w>": 3223,
    "SPEED=1.08M/S</w>": 3224,
    "1.08m/s</w>": 3225,
    "SPEED=1.63M/S</w>": 3226,
    "1.63m/s</w>": 3227,
    "SPEED=1.48M/S</w>": 3228,
    "1.48m/s</w>": 3229,
    "SPEED=1.42M/S</w>": 3230,
    "1.42m/s</w>": 3231,
    "TEMP_CPU=92.6°C</w>": 3232,
    "92.6°C.</w>": 3233,
    "SPEED=0.5M/S</w>": 3234,
    "0.5m/s</w>": 3235,
    "SPEED=1.99M/S</w>": 3236,
    "1.99m/s</w>": 3237,
    "SPEED=0.51M/S</w>": 3238,
    "0.51m/s</w>": 3239,
    "ADDR:0xD19": 3240,
    "SPEED=0.52M/S</w>": 3241,
    "0.52m/s</w>": 3242,
    "SPEED=2.17M/S</w>": 3243,
    "2.17m/s</w>": 3244,
    "SPEED=2.36M/S</w>": 3245,
    "2.36m/s</w>": 3246,
    "ADDR:0x74A": 3247,
    "SPEED=1.13M/S</w>": 3248,
    "1.13m/s</w>": 3249,
    "SPEED=0.48M/S</w>": 3250,
    "0.48m/s</w>": 3251,
    "SPEED=1.74M/S</w>": 3252,
    "1.74m/s</w>": 3253,
    "SPEED=2.0M/S</w>": 3254,
    "2.0m/s</w>": 3255,
    "ADDR:0x205": 3256,
    "SPEED=2.24M/S</w>": 3257,
    "2.24m/s</w>": 3258,
    "SPEED=1.45M/S</w>": 3259,
    "1.45m/s</w>": 3260,
    "SPEED=1.53M/S</w>": 3261,
    "1.53m/s</w>": 3262,
    "ADDR:0x099": 3263,
    "BAT_VOLT=8.57V</w>": 3264,
    "8.57V</w>": 3265,
    "SPEED=0.37M/S</w>": 3266,
    "0.37m/s</w>": 3267,
    "SPEED=1.98M/S</w>": 3268,
    "1.98m/s</w>": 3269,
    "SPEED=0.74M/S</w>": 3270,
    "0.74m/s</w>": 3271,
    "SPEED=1.06M/S</w>": 3272,
    "1.06m/s</w>": 3273,
    "TEMP_CPU=91.7°C</w>": 3274,
    "91.7°C.</w>": 3275,
    "SPEED=1.78M/S</w>": 3276,
    "1.78m/s</w>": 3277,
    "SPEED=1.75M/S</w>": 3278,
    "1.75m/s</w>": 3279,
    "SPEED=1.84M/S</w>": 3280,
    "1.84m/s</w>": 3281,
    "SPEED=0.67M/S</w>": 3282,
    "0.67m/s</w>": 3283,
    "ADDR:0xB30": 3284,
    "SPEED=1.8M/S</w>": 3285,
    "1.8m/s</w>": 3286,
    "SPEED=1.14M/S</w>": 3287,
    "1.14m/s</w>": 3288,
    "SPEED=1.07M/S</w>": 3289,
    "1.07m/s</w>": 3290,
    "SPEED=1.58M/S</w>": 3291,
    "1.58m/s</w>": 3292,
    "3B1</w>": 3293,
    "SPEED=1.29M/S</w>": 3294,
    "1.29m/s</w>": 3295,
    "SPEED=1.77M/S</w>": 3296,
    "1.77m/s</w>": 3297,
    "BE3</w>": 3298,
    "SPEED=1.96M/S</w>": 3299,
    "1.96m/s</w>": 3300,
    "SPEED=0.15M/S</w>": 3301,
    "0.15m/s</w>": 3302,
    "3BB</w>": 3303,
    "SPEED=0.3M/S</w>": 3304,
    "0.3m/s</w>": 3305,
    "SPEED=1.27M/S</w>": 3306,
    "1.27m/s</w>": 3307,
    "BAT_VOLT=12.6V</w>": 3308,
    "12.6V</w>": 3309,
    "SPEED=1.18M/S</w>": 3310,
    "1.18m/s</w>": 3311,
    "SPEED=0.39M/S</w>": 3312,
    "0.39m/s</w>": 3313,
    "FD2</w>": 3314,
    "SPEED=0.65M/S</w>": 3315,
    "0.65m/s</w>": 3316,
    "SPEED=2.43M/S</w>": 3317,
    "2.43m/s</w>": 3318,
    "SPEED=0.92M/S</w>": 3319,
    "0.92m/s</w>": 3320,
    "FC0</w>": 3321,
    "B6D</w>": 3322,
    "SPEED=1.31M/S</w>": 3323,
    "1.31m/s</w>": 3324,
    "ADDR:0xF69": 3325,
    "BE9</w>": 3326,
    "10D</w>": 3327,
    "SPEED=0.7M/S</w>": 3328,
    "0.7m/s</w>": 3329,
    "SPEED=1.64M/S</w>": 3330,
    "1.64m/s</w>": 3331,
    "SPEED=1.51M/S</w>": 3332,
    "1.51m/s</w>": 3333,
    "ADDR:0x438": 3334,
    "BAT_VOLT=8.5V</w>": 3335,
    "8.5V</w>": 3336,
    "SPEED=1.69M/S</w>": 3337,
    "1.69m/s</w>": 3338,
    "SPEED=0.89M/S</w>": 3339,
    "0.89m/s</w>": 3340,
    "ADDR:0x868": 3341,
    "3A6</w>": 3342,
    "190</w>": 3343,
    "ADDR:0xF19": 3344,
    "ADDR:0x246": 3345,
    "272</w>": 3346,
    "ADDR:0xB48": 3347,
    "SPEED=2.38M/S</w>": 3348,
    "2.38m/s</w>": 3349,
    "SPEED=0.56M/S</w>": 3350,
    "0.56m/s</w>": 3351,
    "EF4</w>": 3352,
    "SPEED=2.27M/S</w>": 3353,
    "2.27m/s</w>": 3354,
    "19A</w>": 3355,
    "B69</w>": 3356,
    "ADDR:0x3C8": 3357,
    "ADDR:0xF88": 3358,
    "ADDR:0x436": 3359,
    "ADDR:0x010": 3360,
    "ADDR:0x721": 3361,
    "ADDR:0x717": 3362,
    "12D</w>": 3363,
    "CC3</w>": 3364,
    "FCF</w>": 3365,
    "ADDR:0xF68": 3366,
    "222</w>": 3367,
    "39B</w>": 3368,
    "3FC</w>": 3369,
    "SPEED=1.7M/S</w>": 3370,
    "1.7m/s</w>": 3371,
    "B83</w>": 3372,
    "08E</w>": 3373,
    "ADDR:0xF0D": 3374,
    "ADDR:0x70A": 3375,
    "SPEED=2.01M/S</w>": 3376,
    "2.01m/s</w>": 3377,
    "ADDR:0xC19": 3378,
    "ADDR:0xB59": 3379,
    "310": 3380,
    "SPEED=0.95M/S</w>": 3381,
    "0.95m/s</w>": 3382,
    "EC1</w>": 3383,
    "ADDR:0x326": 3384,
    "ADDR:0x9CA": 3385,
    "SPEED=1.67M/S</w>": 3386,
    "1.67m/s</w>": 3387,
    "E34</w>": 3388,
    "FD0</w>": 3389,
    "ADDR:0xE55": 3390,
    "B82</w>": 3391,
    "ADDR:0xC3D": 3392,
    "ADDR:0x85A": 3393,
    "CA2</w>": 3394,
    "ADDR:0x6AD": 3395,
    "ADDR:0x36D": 3396,
    "ADDR:0x5B8": 3397,
    "SPEED=1.86M/S</w>": 3398,
    "1.86m/s</w>": 3399,
    "463</w>": 3400,
    "ADDR:0x837": 3401,
    "ADDR:0x548": 3402,
    "ADDR:0x215": 3403,
    "11A</w>": 3404,
    "FF7</w>": 3405,
    "SPEED=1.62M/S</w>": 3406,
    "1.62m/s</w>": 3407,
    "35B</w>": 3408,
    "ADDR:0xEEA": 3409,
    "ADDR:0xD38": 3410,
    "ADDR:0x646": 3411,
    "ADDR:0x5ED": 3412,
    "BA6</w>": 3413,
    "ADDR:0xAB8": 3414,
    "ADDR:0xE56": 3415,
    "EB4</w>": 3416,
    "ADDR:0xD0A": 3417,
    "ADDR:0x6E9": 3418,
    "ADDR:0x510": 3419,
    "E53</w>": 3420,
    "ADDR:0xFBD": 3421,
    "C97</w>": 3422,
    "F8D</w>": 3423,
    "ADDR:0x72A": 3424,
    "28F</w>": 3425,
    "388</w>": 3426,
    "ADDR:0xDF8": 3427,
    "2DD</w>": 3428,
    "3A4</w>": 3429,
    "3F8</w>": 3430,
    "FBC</w>": 3431,
    "ADDR:0xAE9": 3432,
    "C82</w>": 3433,
    "ADDR:0xA89": 3434,
    "SPEED=1.09M/S</w>": 3435,
    "1.09m/s</w>": 3436,
    "36C</w>": 3437,
    "26C</w>": 3438,
    "ADDR:0x14A": 3439,
    "01C</w>": 3440,
    "ADDR:0x059": 3441,
    "BAA</w>": 3442,
    "ADDR:0x67D": 3443,
    "BEA</w>": 3444,
    "ADDR:0x2CD": 3445,
    "ADDR:0x347": 3446,
    "ADDR:0xF08": 3447,
    "3D7</w>": 3448,
    "ADDR:0x1BA": 3449,
    "ADDR:0x579": 3450,
    "ADDR:0x459": 3451,
    "B76</w>": 3452,
    "F74</w>": 3453,
    "E97</w>": 3454,
    "ADDR:0xACD": 3455,
    "ADDR:0xD69": 3456,
    "ADDR:0x521": 3457,
    "SPEED=0.05M/S</w>": 3458,
    "0.05m/s</w>": 3459,
    "306</w>": 3460,
    "378</w>": 3461,
    "BE8</w>": 3462,
    "ADDR:0xF27": 3463,
    "083</w>": 3464,
    "ADDR:0x2C8": 3465,
    "ADDR:0x017": 3466,
    "39F</w>": 3467,
    "ADDR:0x85D": 3468,
    "ADDR:0x489": 3469,
    "ADDR:0x388": 3470,
    "E71</w>": 3471,
    "SPEED=0.46M/S</w>": 3472,
    "0.46m/s</w>": 3473,
    "SPEED=0.03M/S</w>": 3474,
    "0.03m/s</w>": 3475,
    "ADDR:0xA79": 3476,
    "ADDR:0xA0A": 3477,
    "ADDR:0x917": 3478,
    "170</w>": 3479,
    "3A2</w>": 3480,
    "BEC</w>": 3481,
    "ADDR:0x8A9": 3482,
    "35C</w>": 3483,
    "ADDR:0x0B6": 3484,
    "ADDR:0xA4A": 3485,
    "ADDR:0xA47": 3486,
    "SPEED=2.2M/S</w>": 3487,
    "2.2m/s</w>": 3488,
    "ADDR:0xD37": 3489,
    "ADDR:0x4BD": 3490,
    "F7B</w>": 3491,
    "ADDR:0xF2D": 3492,
    "ADDR:0xBDD": 3493,
    "ADDR:0x056": 3494,
    "ADDR:0x91A": 3495,
    "C8F</w>": 3496,
    "ADDR:0x01A": 3497,
    "SPEED=2.28M/S</w>": 3498,
    "2.28m/s</w>": 3499,
    "ADDR:0xB55": 3500,
    "ADDR:0x668": 3501,
    "3CD</w>": 3502,
    "FC1</w>": 3503,
    "ADDR:0xC05": 3504,
    "ADDR:0x919": 3505,
    "470</w>": 3506,
    "BFF</w>": 3507,
    "ADDR:0xD08": 3508,
    "370</w>": 3509,
    "ADDR:0x130": 3510,
    "287</w>": 3511,
    "E21</w>": 3512,
    "SPEED=1.25M/S</w>": 3513,
    "1.25m/s</w>": 3514,
    "ADDR:0xFE8": 3515,
    "BB8</w>": 3516,
    "E7F</w>": 3517,
    "ADDR:0x449": 3518,
    "BAT_VOLT=9.46V</w>": 3519,
    "9.46V</w>": 3520,
    "ADDR:0xC3C": 3521,
    "ADDR:0xE25": 3522,
    "BA4</w>": 3523,
    "BE0</w>": 3524,
    "ADDR:0xC27": 3525,
    "225</w>": 3526,
    "BA2</w>": 3527,
    "ADDR:0xBE8": 3528,
    "BEB</w>": 3529,
    "281</w>": 3530,
    "35D</w>": 3531,
    "TEMP_CPU=98.": 3532,
    "TEMP_CPU=98.0°C</w>": 3533,
    "98.": 3534,
    "98.0°C.</w>": 3535,
    "ADDR:0x61A": 3536,
    "EAA</w>": 3537,
    "ADDR:0xA8D": 3538,
    "ADDR:0x21D": 3539,
    "ADDR:0x536": 3540,
    "AD9</w>": 3541,
    "ADDR:0x25D": 3542,
    "B88</w>": 3543,
    "ADDR:0xB46": 3544,
    "3E4</w>": 3545,
    "ADDR:0x225": 3546,
    "BE4</w>": 3547,
    "ADDR:0x935": 3548,
    "F64</w>": 3549,
    "263</w>": 3550,
    "ADDR:0x208": 3551,
    "ADDR:0xEF8": 3552,
    "78D</w>": 3553,
    "E16</w>": 3554,
    "ADDR:0x9BA": 3555,
    "ADDR:0xB35": 3556,
    "CD0</w>": 3557,
    "27B</w>": 3558,
    "78C</w>": 3559,
    "489</w>": 3560,
    "ADDR:0x678": 3561,
    "ADDR:0xD46": 3562,
    "ADDR:0xD45": 3563,
    "ADDR:0x2DD": 3564,
    "C8D</w>": 3565,
    "B2B</w>": 3566,
    "ADDR:0xD3E": 3567,
    "ADDR:0x498": 3568,
    "F77</w>": 3569,
    "521</w>": 3570,
    "SPEED=0.38M/S</w>": 3571,
    "0.38m/s</w>": 3572,
    "BD3</w>": 3573,
    "ADDR:0xE2A": 3574,
    "260</w>": 3575,
    "ADDR:0x719": 3576,
    "FA3</w>": 3577,
    "ADDR:0x0ED": 3578,
    "391</w>": 3579,
    "353</w>": 3580,
    "ADDR:0x499": 3581,
    "ADDR:0x799": 3582,
    "ADDR:0xF9D": 3583,
    "ADDR:0xDFD": 3584,
    "CA6</w>": 3585,
    "ADDR:0x355": 3586,
    "ADDR:0x946": 3587,
    "E7D</w>": 3588,
    "ADDR:0x211": 3589,
    "059</w>": 3590,
    "3DC</w>": 3591,
    "4DA</w>": 3592,
    "B81</w>": 3593,
    "3D4</w>": 3594,
    "E4A</w>": 3595,
    "ADDR:0x30D": 3596,
    "ADDR:0x747": 3597,
    "ADDR:0x3ED": 3598,
    "266</w>": 3599,
    "CDE</w>": 3600,
    "ADDR:0x237": 3601,
    "ADDR:0xFE9": 3602,
    "ADDR:0xDBE": 3603,
    "EFB</w>": 3604,
    "ADDR:0x15D": 3605,
    "ADDR:0x9ED": 3606,
    "ADDR:0x949": 3607,
    "ADDR:0xB69": 3608,
    "E1B</w>": 3609,
    "28D</w>": 3610,
    "3C7</w>": 3611,
    "10F</w>": 3612,
    "ADDR:0xE49": 3613,
    "ADDR:0xBB9": 3614,
    "BD4</w>": 3615,
    "ADDR:0xD30": 3616,
    "475</w>": 3617,
    "SPEED=0.14M/S</w>": 3618,
    "0.14m/s</w>": 3619,
    "ADDR:0xBC8": 3620,
    "ADDR:0x049": 3621,
    "ADDR:0x4BA": 3622,
    "C70</w>": 3623,
    "BDA</w>": 3624,
    "ADDR:0x72D": 3625,
    "CC6</w>": 3626,
    "EB8</w>": 3627,
    "ADDR:0x699": 3628,
    "ADDR:0xF21": 3629,
    "333</w>": 3630,
    "ADDR:0x630": 3631,
    "BAT_VOLT=10.4V</w>": 3632,
    "10.4V</w>": 3633,
    "ADDR:0x447": 3634,
    "SPEED=1.9M/S</w>": 3635,
    "1.9m/s</w>": 3636,
    "30F</w>": 3637,
    "ADDR:0x738": 3638,
    "ADDR:0xA17": 3639,
    "ADDR:0x339": 3640,
    "3F9": 3641,
    "F0F</w>": 3642,
    "321</w>": 3643,
    "FF3</w>": 3644,
    "ADDR:0x256": 3645,
    "ADDR:0x538": 3646,
    "ADDR:0xE39": 3647,
    "468</w>": 3648,
    "20D</w>": 3649,
    "78E</w>": 3650,
    "ADDR:0x9B8": 3651,
    "0D6</w>": 3652,
    "25E</w>": 3653,
    "252</w>": 3654,
    "ADDR:0x2AD": 3655,
    "ADDR:0x537": 3656,
    "B90</w>": 3657,
    "ADDR:0x6FA": 3658,
    "ADDR:0x4ED": 3659,
    "ADDR:0x5E9": 3660,
    "ADDR:0xEB9": 3661,
    "577</w>": 3662,
    "ADDR:0x530": 3663,
    "ADDR:0x8ED": 3664,
    "ADDR:0x5F9": 3665,
    "ADDR:0xC2A": 3666,
    "C2C</w>": 3667,
    "150</w>": 3668,
    "ADDR:0xB0D": 3669,
    "ADDR:0x84A": 3670,
    "ADDR:0x09D": 3671,
    "366</w>": 3672,
    "460</w>": 3673,
    "79B</w>": 3674,
    "ADDR:0xF59": 3675,
    "ADDR:0xC49": 3676,
    "ADDR:0x4F7": 3677,
    "ADDR:0x55A": 3678,
    "ADDR:0x815": 3679,
    "ADDR:0xBED": 3680,
    "286</w>": 3681,
    "B71</w>": 3682,
    "ADDR:0x635": 3683,
    "0D1</w>": 3684,
    "ADDR:0x216": 3685,
    "E75</w>": 3686,
    "3C9</w>": 3687,
    "C75</w>": 3688,
    "ADDR:0x2B8": 3689,
    "ADDR:0xDC9": 3690,
    "ADDR:0xA40": 3691,
    "ADDR:0xD39": 3692,
    "BDB</w>": 3693,
    "ADDR:0x437": 3694,
    "37F</w>": 3695,
    "ADDR:0x8CD": 3696,
    "ADDR:0xDC8": 3697,
    "ADDR:0x27A": 3698,
    "BA5</w>": 3699,
    "799</w>": 3700,
    "FF0</w>": 3701,
    "3AB</w>": 3702,
    "E07</w>": 3703,
    "ADDR:0x568": 3704,
    "ADDR:0xABE": 3705,
    "ADDR:0x838": 3706,
    "ADDR:0xBB8": 3707,
    "ADDR:0x126": 3708,
    "BB7</w>": 3709,
    "ADDR:0xB3A": 3710,
    "ADDR:0x429": 3711,
    "C9C</w>": 3712,
    "ADDR:0x708": 3713,
    "F23</w>": 3714,
    "B9B</w>": 3715,
    "49A</w>": 3716,
    "B92</w>": 3717,
    "ADDR:0x9F8": 3718,
    "3EA</w>": 3719,
    "ADDR:0x136": 3720,
    "FE7</w>": 3721,
    "ADDR:0xADD": 3722,
    "ADDR:0x27D": 3723,
    "490</w>": 3724,
    "350</w>": 3725,
    "BDF</w>": 3726,
    "F2C</w>": 3727,
    "ADDR:0x80D": 3728,
    "ADDR:0x218": 3729,
    "ADDR:0x210": 3730,
    "ADDR:0xA3E": 3731,
    "FDD</w>": 3732,
    "16A</w>": 3733,
    "ADDR:0x335": 3734,
    "ADDR:0x066": 3735,
    "ADDR:0xC79": 3736,
    "343</w>": 3737,
    "ADDR:0x098": 3738,
    "487</w>": 3739,
    "ADDR:0x248": 3740,
    "ADDR:0xB40": 3741,
    "ADDR:0x618": 3742,
    "ADDR:0x836": 3743,
    "ADDR:0x2E6": 3744,
    "025</w>": 3745,
    "ADDR:0x25A": 3746,
    "ADDR:0x41D": 3747,
    "ADDR:0xD18": 3748,
    "ADDR:0x627": 3749,
    "ADDR:0x739": 3750,
    "E9F</w>": 3751,
    "ADDR:0x1FF": 3752,
    "E55</w>": 3753,
    "ADDR:0x3B6": 3754,
    "ADDR:0x318": 3755,
    "ADDR:0x2E8": 3756,
    "B75</w>": 3757,
    "F6F</w>": 3758,
    "ADDR:0x726": 3759,
    "ADDR:0xFF8": 3760,
    "ADDR:0x23D": 3761,
    "BE6</w>": 3762,
    "ADDR:0x529": 3763,
    "ADDR:0x149": 3764,
    "54A</w>": 3765,
    "BB2</w>": 3766,
    "59D</w>": 3767,
    "ADDR:0x746": 3768,
    "ADDR:0xA35": 3769,
    "209</w>": 3770,
    "ADDR:0xABD": 3771,
    "ADDR:0x909": 3772,
    "B6A</w>": 3773,
    "C20</w>": 3774,
    "ADDR:0x2FA": 3775,
    "E64</w>": 3776,
    "ADDR:0x98D": 3777,
    "329</w>": 3778,
    "ADDR:0x64D": 3779,
    "ADDR:0x137": 3780,
    "48D</w>": 3781,
    "E63</w>": 3782,
    "262</w>": 3783,
    "ADDR:0xD55": 3784,
    "3B2</w>": 3785,
    "029</w>": 3786,
    "C84</w>": 3787,
    "ADDR:0xE5A": 3788,
    "AD5</w>": 3789,
    "F73</w>": 3790,
    "ADDR:0x2FD": 3791,
    "ADDR:0x621": 3792,
    "ADDR:0x558": 3793,
    "C7B</w>": 3794,
    "217</w>": 3795,
    "ADDR:0x546": 3796,
    "ADDR:0x90A": 3797,
    "ADDR:0xE0A": 3798,
    "ADDR:0xB0A": 3799,
    "ADDR:0x638": 3800,
    "38E</w>": 3801,
    "ADDR:0x496": 3802,
    "ADDR:0xA59": 3803,
    "05E</w>": 3804,
    "2AC</w>": 3805,
    "SPEED=2.15M/S</w>": 3806,
    "2.15m/s</w>": 3807,
    "EDF</w>": 3808,
    "ADDR:0x5E7": 3809,
    "ADDR:0xE09": 3810,
    "ADDR:0xD99": 3811,
    "ADDR:0x6B9": 3812,
    "ADDR:0x7BE": 3813,
    "479</w>": 3814,
    "BAE</w>": 3815,
    "ADDR:0xDEA": 3816,
    "ADDR:0x466": 3817,
    "ADDR:0x8EA": 3818,
    "E45</w>": 3819,
    "ADDR:0x2CB": 3820,
    "ADDR:0x408": 3821,
    "ADDR:0xFED": 3822,
    "C10</w>": 3823,
    "44D": 3824,
    "ADDR:0x417": 3825,
    "ADDR:0x077": 3826,
    "0DE</w>": 3827,
    "399</w>": 3828,
    "E41</w>": 3829,
    "ADDR:0x811": 3830,
    "ADDR:0xF4D": 3831,
    "ADDR:0x6B8": 3832,
    "ADDR:0xA9D": 3833,
    "B8E</w>": 3834,
    "ADDR:0x235": 3835,
    "31D</w>": 3836,
    "ADDR:0x82D": 3837,
    "175</w>": 3838,
    "20F</w>": 3839,
    "ADDR:0xE7D": 3840,
    "345": 3841,
    "312</w>": 3842,
    "27E</w>": 3843,
    "E67</w>": 3844,
    "121</w>": 3845,
    "27F</w>": 3846,
    "B8F</w>": 3847,
    "EA2</w>": 3848,
    "ADDR:0x026": 3849,
    "ADDR:0xA76": 3850,
    "E33</w>": 3851,
    "B84</w>": 3852,
    "27C</w>": 3853,
    "F02</w>": 3854,
    "47B</w>": 3855,
    "BE2</w>": 3856,
    "38D</w>": 3857,
    "48C</w>": 3858,
    "293</w>": 3859,
    "ADDR:0xCFC": 3860,
    "B62</w>": 3861,
    "F89</w>": 3862,
    "2D1</w>": 3863,
    "ADDR:0x867": 3864,
    "E14</w>": 3865,
    "ADDR:0x3A9": 3866,
    "ADDR:0xBA6": 3867,
    "ADDR:0xF1D": 3868,
    "466</w>": 3869,
    "C81</w>": 3870,
    "117</w>": 3871,
    "EBC</w>": 3872,
    "ADDR:0xDE7": 3873,
    "35A</w>": 3874,
    "ADDR:0xD05": 3875,
    "2D5</w>": 3876,
    "17E</w>": 3877,
    "ADDR:0xA19": 3878,
    "ADDR:0x53B": 3879,
    "EF1</w>": 3880,
    "ADDR:0x6FF": 3881,
    "ADDR:0xDAD": 3882,
    "ADDR:0x178": 3883,
    "ADDR:0xFE7": 3884,
    "F63</w>": 3885,
    "ADDR:0xB10": 3886,
    "BA9</w>": 3887,
    "ADDR:0x58D": 3888,
    "ADDR:0xF6D": 3889,
    "ED1</w>": 3890,
    "CDA</w>": 3891,
    "ADDR:0x435": 3892,
    "ADDR:0x9B2": 3893,
    "ADDR:0xCAD": 3894,
    "ADDR:0x3E9": 3895,
    "3C4</w>": 3896,
    "ADDR:0x6BE": 3897,
    "ADDR:0x0FF": 3898,
    "48E</w>": 3899,
    "C45</w>": 3900,
    "ADDR:0xD88": 3901,
    "E5D</w>": 3902,
    "E18</w>": 3903,
    "ADDR:0x2A9": 3904,
    "ADDR:0xF98": 3905,
    "BD5</w>": 3906,
    "C9F</w>": 3907,
    "ADDR:0xC35": 3908,
    "32A</w>": 3909,
    "ADDR:0x959": 3910,
    "043</w>": 3911,
    "ADDR:0x715": 3912,
    "E25</w>": 3913,
    "ADDR:0x759": 3914,
    "ADDR:0x93E": 3915,
    "ADDR:0x138": 3916,
    "B7C</w>": 3917,
    "ADDR:0x97D": 3918,
    "ADDR:0xEFF": 3919,
    "ADDR:0x809": 3920,
    "ADDR:0x1AD": 3921,
    "ADDR:0xA49": 3922,
    "F50</w>": 3923,
    "446</w>": 3924,
    "CBC</w>": 3925,
    "ADDR:0x94D": 3926,
    "E27</w>": 3927,
    "ADDR:0xFB9": 3928,
    "326</w>": 3929,
    "ADDR:0xE05": 3930,
    "ADDR:0x310": 3931,
    "ADDR:0xC89": 3932,
    "792</w>": 3933,
    "ADDR:0x519": 3934,
    "B4F</w>": 3935,
    "04E</w>": 3936,
    "ADDR:0x84D": 3937,
    "BE7</w>": 3938,
    "ADDR:0x6CD": 3939,
    "ADDR:0x57D": 3940,
    "ADDR:0xCED": 3941,
    "E82</w>": 3942,
    "106</w>": 3943,
    "ADDR:0x1C7": 3944,
    "527</w>": 3945,
    "21A</w>": 3946,
    "ADDR:0xF8D": 3947,
    "ADE</w>": 3948,
    "F0A</w>": 3949,
    "17F</w>": 3950,
    "EE9</w>": 3951,
    "ADDR:0x78D": 3952,
    "ADDR:0x0D8": 3953,
    "ADDR:0xD09": 3954,
    "ADDR:0x0E8": 3955,
    "ADDR:0x928": 3956,
    "ED4</w>": 3957,
    "FFE</w>": 3958,
    "ADDR:0xD5A": 3959,
    "ADDR:0x37A": 3960,
    "E89</w>": 3961,
    "11F</w>": 3962,
    "ADDR:0x23C": 3963,
    "ADDR:0x869": 3964,
    "ADDR:0x1C9": 3965,
    "334": 3966,
    "0D5</w>": 3967,
    "467</w>": 3968,
    "ADDR:0x079": 3969,
    "E47</w>": 3970,
    "B72</w>": 3971,
    "332</w>": 3972,
    "ADDR:0x0AD": 3973,
    "3E5</w>": 3974,
    "ADDR:0x047": 3975,
    "E6D</w>": 3976,
    "C6E</w>": 3977,
    "393</w>": 3978,
    "357</w>": 3979,
    "ADDR:0x1DD": 3980,
    "B78</w>": 3981,
    "ADDR:0x03C": 3982,
    "ADDR:0xE19": 3983,
    "ADDR:0x958": 3984,
    "21F</w>": 3985,
    "05A</w>": 3986,
    "ADDR:0xAF9": 3987,
    "053</w>": 3988,
    "25A</w>": 3989,
    "FCC</w>": 3990,
    "11B</w>": 3991,
    "3FB</w>": 3992,
    "ADDR:0xAAD": 3993,
    "ADDR:0x0B8": 3994,
    "ADDR:0x011": 3995,
    "ADDR:0xA38": 3996,
    "FCB</w>": 3997,
    "ADDR:0xB25": 3998,
    "74C</w>": 3999
  },
  "merges": [
    [
      "|",
      "</w>"
    ],
    [
      ":",
      "1"
    ],
    [
      ".",
      "</w>"
    ],
    [
      "l",
      "e"
    ],
    [
      "1",
      "</w>"
    ],
    [
      "A",
      "D"
    ],
    [
      "3",
      "1</w>"
    ],
    [
      "i",
      "n"
    ],
    [
      "s",
      "e"
    ],
    [
      "AD",
      "D"
    ],
    [
      "A",
      "L"
    ],
    [
      "]",
      "</w>"
    ],
    [
      "ADD",
      "R"
    ],
    [
      "ADDR",
      ":"
    ],
    [
      "ADDR:",
      "0"
    ],
    [
      "ADDR:0",
      "x"
    ],
    [
      "T",
      "S"
    ],
    [
      "TS",
      ":1"
    ],
    [
      "TS:1",
      "6"
    ],
    [
      "TS:16",
      ":1"
    ],
    [
      "TS:16:1",
      "4"
    ],
    [
      "TS:16:14",
      ":"
    ],
    [
      "TS:16:14:",
      "31</w>"
    ],
    [
      ":",
      "</w>"
    ],
    [
      "ı",
      "</w>"
    ],
    [
      "e",
      "</w>"
    ],
    [
      "a",
      "</w>"
    ],
    [
      "i",
      "</w>"
    ],
    [
      "A",
      "T"
    ],
    [
      "S",
      "I"
    ],
    [
      "e",
      "r"
    ],
    [
      "i",
      "y"
    ],
    [
      "A",
      "R"
    ],
    [
      "S",
      "İ"
    ],
    [
      "m",
      "</w>"
    ],
    [
      "d",
      "e"
    ],
    [
      "B",
      "AT"
    ],
    [
      "V",
      "</w>"
    ],
    [
      "t",
      "a"
    ],
    [
      "i",
      "l"
    ],
    [
      "a",
      "l"
    ],
    [
      "e",
      "s"
    ],
    [
      "t",
      "i"
    ],
    [
      "T",
      "İ"
    ],
    [
      "t",
      "ı"
    ],
    [
      "BAT",
      "_"
    ],
    [
      "i",
      "s"
    ],
    [
      "o",
      "t"
    ],
    [
      "ot",
      "o"
    ],
    [
      "T",
      "="
    ],
    [
      "l",
      "a"
    ],
    [
      "t",
      "e"
    ],
    [
      "se",
      "v"
    ],
    [
      "sev",
      "iy"
    ],
    [
      "seviy",
      "es"
    ],
    [
      "seviyes",
      "in"
    ],
    [
      "ti",
      "f"
    ],
    [
      "S",
      "_"
    ],
    [
      "S",
      "T"
    ],
    [
      "le",
      "m"
    ],
    [
      "E",
      "M"
    ],
    [
      "G",
      "P"
    ],
    [
      "1",
      "1"
    ],
    [
      "A",
      "</w>"
    ],
    [
      "1",
      "0"
    ],
    [
      "R",
      "S"
    ],
    [
      "RS",
      "SI"
    ],
    [
      "d",
      "B"
    ],
    [
      "Sİ",
      "N"
    ],
    [
      "k",
      "o"
    ],
    [
      "b",
      "a"
    ],
    [
      "n",
      "o"
    ],
    [
      "m",
      ".</w>"
    ],
    [
      "se",
      "y"
    ],
    [
      "i",
      "r"
    ],
    [
      "r",
      "e"
    ],
    [
      "BAT_",
      "V"
    ],
    [
      "BAT_V",
      "O"
    ],
    [
      "BAT_VO",
      "L"
    ],
    [
      "BAT_VOL",
      "T="
    ],
    [
      "er",
      "</w>"
    ],
    [
      "u",
      "</w>"
    ],
    [
      "s",
      "ı</w>"
    ],
    [
      "r",
      "i</w>"
    ],
    [
      "L",
      "]</w>"
    ],
    [
      "tif",
      "a</w>"
    ],
    [
      "il",
      "i"
    ],
    [
      "S",
      "is"
    ],
    [
      "Sis",
      "te"
    ],
    [
      ")",
      "</w>"
    ],
    [
      "seviyesin",
      "e</w>"
    ],
    [
      "O",
      "R"
    ],
    [
      "al",
      "ı"
    ],
    [
      "T",
      "_"
    ],
    [
      "AR",
      "I"
    ],
    [
      "SI",
      ":</w>"
    ],
    [
      "n",
      "d"
    ],
    [
      "GP",
      "S_"
    ],
    [
      "S",
      "</w>"
    ],
    [
      "d",
      "i"
    ],
    [
      "di",
      ".</w>"
    ],
    [
      "M",
      "O"
    ],
    [
      "I",
      ":</w>"
    ],
    [
      "a",
      "k"
    ],
    [
      "u",
      "t"
    ],
    [
      "T",
      "EM"
    ],
    [
      "TEM",
      "P"
    ],
    [
      "TEMP",
      "_"
    ],
    [
      "°",
      "C"
    ],
    [
      "s",
      "ı"
    ],
    [
      "r",
      "ı</w>"
    ],
    [
      "m",
      "a</w>"
    ],
    [
      "2",
      "."
    ],
    [
      "0",
      "</w>"
    ],
    [
      "-",
      "11"
    ],
    [
      "9",
      "."
    ],
    [
      "E",
      "D"
    ],
    [
      "F",
      "A"
    ],
    [
      "1",
      "2."
    ],
    [
      "F",
      "A</w>"
    ],
    [
      "[",
      "C"
    ],
    [
      "[C",
      "O"
    ],
    [
      "[CO",
      "M"
    ],
    [
      "[COM",
      "M"
    ],
    [
      "[COMM",
      "_"
    ],
    [
      "[COMM_",
      "FA"
    ],
    [
      "[COMM_FA",
      "I"
    ],
    [
      "[COMM_FAI",
      "L]</w>"
    ],
    [
      "RSSI",
      "="
    ],
    [
      "dB",
      "m</w>"
    ],
    [
      "📡",
      "</w>"
    ],
    [
      "SİN",
      "Y"
    ],
    [
      "SİNY",
      "AL"
    ],
    [
      "SİNYAL",
      "</w>"
    ],
    [
      "K",
      "E"
    ],
    [
      "KE",
      "SİN"
    ],
    [
      "KESİN",
      "Tİ"
    ],
    [
      "KESİNTİ",
      "Sİ"
    ],
    [
      "KESİNTİSİ",
      ":</w>"
    ],
    [
      "RSSI",
      "</w>"
    ],
    [
      "dB",
      "m.</w>"
    ],
    [
      "Y",
      "er</w>"
    ],
    [
      "is",
      "ta"
    ],
    [
      "ista",
      "s"
    ],
    [
      "istas",
      "y"
    ],
    [
      "istasy",
      "o"
    ],
    [
      "istasyo",
      "n"
    ],
    [
      "istasyon",
      "u</w>"
    ],
    [
      "ba",
      "ğ"
    ],
    [
      "bağ",
      "la"
    ],
    [
      "bağla",
      "n"
    ],
    [
      "bağlan",
      "tı"
    ],
    [
      "bağlantı",
      "sı</w>"
    ],
    [
      "ko",
      "p"
    ],
    [
      "kop",
      "t"
    ],
    [
      "kopt",
      "u"
    ],
    [
      "koptu",
      ","
    ],
    [
      "koptu,",
      "</w>"
    ],
    [
      "oto",
      "no"
    ],
    [
      "otono",
      "m</w>"
    ],
    [
      "sey",
      "ir"
    ],
    [
      "seyir",
      "</w>"
    ],
    [
      "de",
      "v"
    ],
    [
      "dev",
      "re"
    ],
    [
      "devre",
      "de"
    ],
    [
      "devrede",
      ".</w>"
    ],
    [
      "[",
      "BAT_"
    ],
    [
      "[BAT_",
      "C"
    ],
    [
      "[BAT_C",
      "R"
    ],
    [
      "[BAT_CR",
      "I"
    ],
    [
      "[BAT_CRI",
      "T"
    ],
    [
      "[BAT_CRIT",
      "]</w>"
    ],
    [
      "⚠",
      "️"
    ],
    [
      "⚠️",
      "</w>"
    ],
    [
      "BAT",
      "AR"
    ],
    [
      "BATAR",
      "Y"
    ],
    [
      "BATARY",
      "A</w>"
    ],
    [
      "K",
      "R"
    ],
    [
      "KR",
      "İ"
    ],
    [
      "KRİ",
      "Tİ"
    ],
    [
      "KRİTİ",
      "K"
    ],
    [
      "KRİTİK",
      ":</w>"
    ],
    [
      "G",
      "er"
    ],
    [
      "Ger",
      "ili"
    ],
    [
      "Gerili",
      "m</w>"
    ],
    [
      "d",
      "ü"
    ],
    [
      "dü",
      "ş"
    ],
    [
      "düş",
      "t"
    ],
    [
      "düşt",
      "ü"
    ],
    [
      "düştü",
      ".</w>"
    ],
    [
      "Siste",
      "m</w>"
    ],
    [
      "a",
      "c"
    ],
    [
      "ac",
      "il"
    ],
    [
      "acil",
      "</w>"
    ],
    [
      "in",
      "i"
    ],
    [
      "ini",
      "ş"
    ],
    [
      "iniş",
      "</w>"
    ],
    [
      "p",
      "r"
    ],
    [
      "pr",
      "oto"
    ],
    [
      "proto",
      "ko"
    ],
    [
      "protoko",
      "l"
    ],
    [
      "protokol",
      "ü"
    ],
    [
      "protokolü",
      "n"
    ],
    [
      "protokolün",
      "ü"
    ],
    [
      "protokolünü",
      "</w>"
    ],
    [
      "(",
      "R"
    ],
    [
      "(R",
      "T"
    ],
    [
      "(RT",
      "H"
    ],
    [
      "(RTH",
      ")</w>"
    ],
    [
      "ba",
      "ş"
    ],
    [
      "baş",
      "la"
    ],
    [
      "başla",
      "t"
    ],
    [
      "başlat",
      "tı"
    ],
    [
      "başlattı",
      ".</w>"
    ],
    [
      "[",
      "S"
    ],
    [
      "[S",
      "Y"
    ],
    [
      "[SY",
      "S_"
    ],
    [
      "[SYS_",
      "O"
    ],
    [
      "[SYS_O",
      "K"
    ],
    [
      "[SYS_OK",
      "]</w>"
    ],
    [
      "✅",
      "</w>"
    ],
    [
      "Sİ",
      "ST"
    ],
    [
      "SİST",
      "EM"
    ],
    [
      "SİSTEM",
      "</w>"
    ],
    [
      "N",
      "OR"
    ],
    [
      "NOR",
      "M"
    ],
    [
      "NORM",
      "AL"
    ],
    [
      "NORMAL",
      ":</w>"
    ],
    [
      "B",
      "a"
    ],
    [
      "Ba",
      "ta"
    ],
    [
      "Bata",
      "r"
    ],
    [
      "Batar",
      "y"
    ],
    [
      "Batary",
      "a</w>"
    ],
    [
      "seviyesin",
      "d"
    ],
    [
      "seviyesind",
      "e</w>"
    ],
    [
      "v",
      "e</w>"
    ],
    [
      "te",
      "lem"
    ],
    [
      "telem",
      "e"
    ],
    [
      "teleme",
      "t"
    ],
    [
      "telemet",
      "ri</w>"
    ],
    [
      "de",
      "ğ"
    ],
    [
      "değ",
      "er"
    ],
    [
      "değer",
      "le"
    ],
    [
      "değerle",
      "ri</w>"
    ],
    [
      "no",
      "m"
    ],
    [
      "nom",
      "in"
    ],
    [
      "nomin",
      "al"
    ],
    [
      "nominal",
      "</w>"
    ],
    [
      "a",
      "r"
    ],
    [
      "ar",
      "alı"
    ],
    [
      "aralı",
      "k"
    ],
    [
      "aralık",
      "ta"
    ],
    [
      "aralıkta",
      ".</w>"
    ],
    [
      "[",
      "AL"
    ],
    [
      "[AL",
      "T_"
    ],
    [
      "[ALT_",
      "W"
    ],
    [
      "[ALT_W",
      "AR"
    ],
    [
      "[ALT_WAR",
      "N"
    ],
    [
      "[ALT_WARN",
      "]</w>"
    ],
    [
      "AL",
      "T="
    ],
    [
      "M",
      "</w>"
    ],
    [
      "📍",
      "</w>"
    ],
    [
      "AL",
      "Ç"
    ],
    [
      "ALÇ",
      "A"
    ],
    [
      "ALÇA",
      "K"
    ],
    [
      "ALÇAK",
      "</w>"
    ],
    [
      "İ",
      "R"
    ],
    [
      "İR",
      "Tİ"
    ],
    [
      "İRTİ",
      "FA</w>"
    ],
    [
      "U",
      "Y"
    ],
    [
      "UY",
      "ARI"
    ],
    [
      "UYARI",
      "SI:</w>"
    ],
    [
      "İ",
      "r"
    ],
    [
      "İr",
      "tifa</w>"
    ],
    [
      "A",
      "r"
    ],
    [
      "Ar",
      "a"
    ],
    [
      "Ara",
      "ç"
    ],
    [
      "Araç",
      "</w>"
    ],
    [
      "k",
      "r"
    ],
    [
      "kr",
      "i"
    ],
    [
      "kri",
      "ti"
    ],
    [
      "kriti",
      "k"
    ],
    [
      "kritik",
      "</w>"
    ],
    [
      "ir",
      "tifa</w>"
    ],
    [
      "e",
      "ş"
    ],
    [
      "eş",
      "i"
    ],
    [
      "eşi",
      "ğ"
    ],
    [
      "eşiğ",
      "in"
    ],
    [
      "eşiğin",
      "in"
    ],
    [
      "eşiğinin",
      "</w>"
    ],
    [
      "al",
      "tı"
    ],
    [
      "altı",
      "nd"
    ],
    [
      "altınd",
      "a</w>"
    ],
    [
      "sey",
      "re"
    ],
    [
      "seyre",
      "d"
    ],
    [
      "seyred",
      "iy"
    ],
    [
      "seyrediy",
      "o"
    ],
    [
      "seyrediyo",
      "r"
    ],
    [
      "seyrediyor",
      ".</w>"
    ],
    [
      "1",
      "."
    ],
    [
      "E",
      "ED"
    ],
    [
      "[",
      "GPS_"
    ],
    [
      "[GPS_",
      "L"
    ],
    [
      "[GPS_L",
      "O"
    ],
    [
      "[GPS_LO",
      "ST"
    ],
    [
      "[GPS_LOST",
      "]</w>"
    ],
    [
      "GPS_",
      "S"
    ],
    [
      "GPS_S",
      "AT"
    ],
    [
      "GPS_SAT",
      "="
    ],
    [
      "c",
      "n"
    ],
    [
      "cn",
      "t"
    ],
    [
      "cnt",
      "</w>"
    ],
    [
      "❌",
      "</w>"
    ],
    [
      "GP",
      "S</w>"
    ],
    [
      "K",
      "A"
    ],
    [
      "KA",
      "Y"
    ],
    [
      "KAY",
      "B"
    ],
    [
      "KAYB",
      "I:</w>"
    ],
    [
      "K",
      "ili"
    ],
    [
      "Kili",
      "t"
    ],
    [
      "Kilit",
      "l"
    ],
    [
      "Kilitl",
      "i</w>"
    ],
    [
      "u",
      "y"
    ],
    [
      "uy",
      "d"
    ],
    [
      "uyd",
      "u</w>"
    ],
    [
      "s",
      "a"
    ],
    [
      "sa",
      "y"
    ],
    [
      "say",
      "ı"
    ],
    [
      "sayı",
      "sı</w>"
    ],
    [
      "A",
      "ta"
    ],
    [
      "Ata",
      "le"
    ],
    [
      "Atale",
      "t"
    ],
    [
      "Atalet",
      "se"
    ],
    [
      "Ataletse",
      "l"
    ],
    [
      "Ataletsel",
      "</w>"
    ],
    [
      "S",
      "e"
    ],
    [
      "Se",
      "y"
    ],
    [
      "Sey",
      "r"
    ],
    [
      "Seyr",
      "ü"
    ],
    [
      "Seyrü",
      "se"
    ],
    [
      "Seyrüse",
      "f"
    ],
    [
      "Seyrüsef",
      "er</w>"
    ],
    [
      "Siste",
      "m"
    ],
    [
      "Sistem",
      "i</w>"
    ],
    [
      "(",
      "I"
    ],
    [
      "(I",
      "N"
    ],
    [
      "(IN",
      "S"
    ],
    [
      "(INS",
      ")</w>"
    ],
    [
      "ak",
      "tif"
    ],
    [
      "aktif",
      "</w>"
    ],
    [
      "e",
      "d"
    ],
    [
      "ed",
      "il"
    ],
    [
      "edil",
      "di.</w>"
    ],
    [
      "[",
      "MO"
    ],
    [
      "[MO",
      "T_"
    ],
    [
      "[MOT_",
      "ST"
    ],
    [
      "[MOT_ST",
      "AL"
    ],
    [
      "[MOT_STAL",
      "L]</w>"
    ],
    [
      "S",
      "P"
    ],
    [
      "SP",
      "EED"
    ],
    [
      "SPEED",
      "="
    ],
    [
      "M",
      "/"
    ],
    [
      "M/",
      "S</w>"
    ],
    [
      "⚡",
      "</w>"
    ],
    [
      "MO",
      "T"
    ],
    [
      "MOT",
      "OR"
    ],
    [
      "MOTOR",
      "</w>"
    ],
    [
      "ARI",
      "Z"
    ],
    [
      "ARIZ",
      "A"
    ],
    [
      "ARIZA",
      "SI:</w>"
    ],
    [
      "İ",
      "le"
    ],
    [
      "İle",
      "r"
    ],
    [
      "İler",
      "lem"
    ],
    [
      "İlerlem",
      "e</w>"
    ],
    [
      "h",
      "ı"
    ],
    [
      "hı",
      "z"
    ],
    [
      "hız",
      "ı</w>"
    ],
    [
      "m",
      "/"
    ],
    [
      "m/",
      "s"
    ],
    [
      "m/s",
      "</w>"
    ],
    [
      "g",
      "er"
    ],
    [
      "ger",
      "i"
    ],
    [
      "geri",
      "le"
    ],
    [
      "gerile",
      "di.</w>"
    ],
    [
      "M",
      "oto"
    ],
    [
      "Moto",
      "r"
    ],
    [
      "Motor",
      "</w>"
    ],
    [
      "b",
      "l"
    ],
    [
      "bl",
      "o"
    ],
    [
      "blo",
      "k"
    ],
    [
      "blok",
      "a"
    ],
    [
      "bloka",
      "j"
    ],
    [
      "blokaj",
      "ı</w>"
    ],
    [
      "ş",
      "ü"
    ],
    [
      "şü",
      "p"
    ],
    [
      "şüp",
      "h"
    ],
    [
      "şüph",
      "es"
    ],
    [
      "şüphes",
      "i</w>"
    ],
    [
      "m",
      "e"
    ],
    [
      "me",
      "v"
    ],
    [
      "mev",
      "c"
    ],
    [
      "mevc",
      "ut"
    ],
    [
      "mevcut",
      ".</w>"
    ],
    [
      "10",
      "0</w>"
    ],
    [
      "[",
      "TEMP_"
    ],
    [
      "[TEMP_",
      "H"
    ],
    [
      "[TEMP_H",
      "I"
    ],
    [
      "[TEMP_HI",
      "G"
    ],
    [
      "[TEMP_HIG",
      "H"
    ],
    [
      "[TEMP_HIGH",
      "]</w>"
    ],
    [
      "TEMP_",
      "C"
    ],
    [
      "TEMP_C",
      "P"
    ],
    [
      "TEMP_CP",
      "U"
    ],
    [
      "TEMP_CPU",
      "="
    ],
    [
      "°C",
      "</w>"
    ],
    [
      "🔥",
      "</w>"
    ],
    [
      "I",
      "SI"
    ],
    [
      "ISI",
      "</w>"
    ],
    [
      "AL",
      "AR"
    ],
    [
      "ALAR",
      "M"
    ],
    [
      "ALARM",
      "I:</w>"
    ],
    [
      "İ",
      "ş"
    ],
    [
      "İş",
      "lem"
    ],
    [
      "İşlem",
      "c"
    ],
    [
      "İşlemc",
      "i</w>"
    ],
    [
      "sı",
      "c"
    ],
    [
      "sıc",
      "ak"
    ],
    [
      "sıcak",
      "l"
    ],
    [
      "sıcakl",
      "ı"
    ],
    [
      "sıcaklı",
      "ğ"
    ],
    [
      "sıcaklığ",
      "ı</w>"
    ],
    [
      "°C",
      ".</w>"
    ],
    [
      "A",
      "ş"
    ],
    [
      "Aş",
      "ı"
    ],
    [
      "Aşı",
      "rı</w>"
    ],
    [
      "ı",
      "sı"
    ],
    [
      "ısı",
      "n"
    ],
    [
      "ısın",
      "ma</w>"
    ],
    [
      "n",
      "e"
    ],
    [
      "ne",
      "de"
    ],
    [
      "nede",
      "n"
    ],
    [
      "neden",
      "iy"
    ],
    [
      "nedeniy",
      "le"
    ],
    [
      "nedeniyle",
      "</w>"
    ],
    [
      "s",
      "o"
    ],
    [
      "so",
      "ğ"
    ],
    [
      "soğ",
      "ut"
    ],
    [
      "soğut",
      "ma</w>"
    ],
    [
      "f",
      "a"
    ],
    [
      "fa",
      "n"
    ],
    [
      "fan",
      "la"
    ],
    [
      "fanla",
      "rı</w>"
    ],
    [
      "%",
      "100</w>"
    ],
    [
      "g",
      "ü"
    ],
    [
      "gü",
      "c"
    ],
    [
      "güc",
      "e</w>"
    ],
    [
      "alı",
      "nd"
    ],
    [
      "alınd",
      "ı"
    ],
    [
      "alındı",
      ".</w>"
    ],
    [
      "0",
      "."
    ],
    [
      "11",
      "."
    ],
    [
      "-",
      "10"
    ],
    [
      "RSSI=",
      "-11"
    ],
    [
      "8",
      "."
    ],
    [
      "BAT_VOLT=",
      "12."
    ],
    [
      "BAT_VOLT=",
      "9."
    ],
    [
      "TEMP_CPU=",
      "8"
    ],
    [
      "GPS_SAT=",
      "0"
    ],
    [
      "GPS_SAT=0",
      "cnt</w>"
    ],
    [
      "0",
      ".</w>"
    ],
    [
      "GPS_SAT=",
      "1"
    ],
    [
      "GPS_SAT=1",
      "cnt</w>"
    ],
    [
      "1",
      ".</w>"
    ],
    [
      "TEMP_CPU=",
      "9"
    ],
    [
      "BAT_VOLT=",
      "11."
    ],
    [
      "5",
      "V</w>"
    ],
    [
      "6",
      "V</w>"
    ],
    [
      "8",
      "V</w>"
    ],
    [
      "ADDR:0x",
      "6"
    ],
    [
      "3",
      "V</w>"
    ],
    [
      "ADDR:0x",
      "7"
    ],
    [
      "ADDR:0x",
      "2"
    ],
    [
      "3",
      "</w>"
    ],
    [
      "ADDR:0x",
      "B"
    ],
    [
      "ADDR:0x",
      "D"
    ],
    [
      "9",
      "V</w>"
    ],
    [
      "ADDR:0x",
      "8"
    ],
    [
      "6",
      "</w>"
    ],
    [
      "7",
      "</w>"
    ],
    [
      "7",
      "V</w>"
    ],
    [
      "4",
      "V</w>"
    ],
    [
      "5",
      "</w>"
    ],
    [
      "ADDR:0x",
      "3"
    ],
    [
      "10",
      "."
    ],
    [
      "2",
      "</w>"
    ],
    [
      "F",
      "</w>"
    ],
    [
      "9",
      "</w>"
    ],
    [
      "4",
      "</w>"
    ],
    [
      "ADDR:0x",
      "4"
    ],
    [
      "C",
      "</w>"
    ],
    [
      "B",
      "</w>"
    ],
    [
      "ADDR:0x",
      "5"
    ],
    [
      "ADDR:0x",
      "0"
    ],
    [
      "ADDR:0x",
      "C"
    ],
    [
      "ADDR:0x",
      "9"
    ],
    [
      "E",
      "</w>"
    ],
    [
      "8",
      "</w>"
    ],
    [
      "2",
      "V</w>"
    ],
    [
      "1",
      "V</w>"
    ],
    [
      "ADDR:0x",
      "F"
    ],
    [
      "SPEED=",
      "0."
    ],
    [
      "ADDR:0x",
      "A"
    ],
    [
      "ADDR:0x",
      "E"
    ],
    [
      "SPEED=",
      "1."
    ],
    [
      "ADDR:0x",
      "1"
    ],
    [
      "D",
      "</w>"
    ],
    [
      "RSSI=",
      "-10"
    ],
    [
      "BAT_VOLT=",
      "8."
    ],
    [
      "6",
      "."
    ],
    [
      "7",
      "."
    ],
    [
      "4",
      "."
    ],
    [
      "5",
      "."
    ],
    [
      "BAT_VOLT=",
      "10."
    ],
    [
      "3",
      "."
    ],
    [
      "SPEED=",
      "2."
    ],
    [
      "9",
      "dBm</w>"
    ],
    [
      "9",
      "dBm.</w>"
    ],
    [
      "5",
      "dBm</w>"
    ],
    [
      "5",
      "dBm.</w>"
    ],
    [
      "3",
      "6"
    ],
    [
      "4",
      "8"
    ],
    [
      "3",
      "5"
    ],
    [
      "2",
      "1"
    ],
    [
      "ALT=",
      "7"
    ],
    [
      "6",
      "dBm</w>"
    ],
    [
      "6",
      "dBm.</w>"
    ],
    [
      "8",
      "dBm</w>"
    ],
    [
      "8",
      "dBm.</w>"
    ],
    [
      "4",
      "9"
    ],
    [
      "4",
      "6"
    ],
    [
      "2",
      "6"
    ],
    [
      "3",
      "7"
    ],
    [
      "4",
      "7"
    ],
    [
      "1",
      "9"
    ],
    [
      "2",
      "5"
    ],
    [
      "ALT=",
      "5"
    ],
    [
      "3",
      "8"
    ],
    [
      "7",
      "dBm</w>"
    ],
    [
      "7",
      "dBm.</w>"
    ],
    [
      "2",
      "8"
    ],
    [
      "ALT=",
      "6"
    ],
    [
      "4",
      "5"
    ],
    [
      "1",
      "8"
    ],
    [
      "2",
      "9"
    ],
    [
      "2",
      "7"
    ],
    [
      "3",
      "9"
    ],
    [
      "1",
      "5"
    ],
    [
      "1",
      "7"
    ],
    [
      "1",
      "6"
    ],
    [
      "4",
      "4"
    ],
    [
      "3",
      "2"
    ],
    [
      "3",
      "M/S</w>"
    ],
    [
      "3",
      "m/s</w>"
    ],
    [
      "3",
      "0"
    ],
    [
      "3",
      "4"
    ],
    [
      "2",
      "4"
    ],
    [
      "4",
      "°C</w>"
    ],
    [
      "4",
      "°C.</w>"
    ],
    [
      "2",
      "2"
    ],
    [
      "7",
      "9"
    ],
    [
      "6",
      "8"
    ],
    [
      "0",
      "8"
    ],
    [
      "3",
      "M</w>"
    ],
    [
      "3",
      "m.</w>"
    ],
    [
      "5",
      "9"
    ],
    [
      "1",
      "4"
    ],
    [
      "6",
      "9"
    ],
    [
      "8",
      "°C</w>"
    ],
    [
      "8",
      "°C.</w>"
    ],
    [
      "1",
      "2"
    ],
    [
      "1",
      "°C</w>"
    ],
    [
      "1",
      "°C.</w>"
    ],
    [
      "2",
      "°C</w>"
    ],
    [
      "2",
      "°C.</w>"
    ],
    [
      "7",
      "8"
    ],
    [
      "5",
      "°C</w>"
    ],
    [
      "5",
      "°C.</w>"
    ],
    [
      "7",
      "°C</w>"
    ],
    [
      "7",
      "°C.</w>"
    ],
    [
      "0",
      "5"
    ],
    [
      "0",
      "°C</w>"
    ],
    [
      "0",
      "°C.</w>"
    ],
    [
      "9",
      "°C</w>"
    ],
    [
      "9",
      "°C.</w>"
    ],
    [
      "6",
      "°C</w>"
    ],
    [
      "6",
      "°C.</w>"
    ],
    [
      "3",
      "°C</w>"
    ],
    [
      "3",
      "°C.</w>"
    ],
    [
      "5",
      "8"
    ],
    [
      "6",
      "6"
    ],
    [
      "3",
      "1"
    ],
    [
      "7",
      "7"
    ],
    [
      "BAT_VOLT=12.",
      "0"
    ],
    [
      "12.",
      "0"
    ],
    [
      "2",
      "0"
    ],
    [
      "BAT_VOLT=12.",
      "5"
    ],
    [
      "12.",
      "5"
    ],
    [
      "4",
      "0"
    ],
    [
      "5",
      "5"
    ],
    [
      "4",
      "1"
    ],
    [
      "C",
      "D"
    ],
    [
      "B",
      "8"
    ],
    [
      "BAT_VOLT=11.",
      "7"
    ],
    [
      "11.",
      "7"
    ],
    [
      "5",
      "7"
    ],
    [
      "B",
      "E"
    ],
    [
      "4",
      "2"
    ],
    [
      "BAT_VOLT=11.",
      "6"
    ],
    [
      "11.",
      "6"
    ],
    [
      "0",
      "9"
    ],
    [
      "BAT_VOLT=12.",
      "4"
    ],
    [
      "12.",
      "4"
    ],
    [
      "BAT_VOLT=12.",
      "3"
    ],
    [
      "12.",
      "3"
    ],
    [
      "C",
      "9"
    ],
    [
      "F",
      "F"
    ],
    [
      "5",
      "6"
    ],
    [
      "BAT_VOLT=11.",
      "9"
    ],
    [
      "11.",
      "9"
    ],
    [
      "B",
      "A"
    ],
    [
      "B",
      "9"
    ],
    [
      "E",
      "9"
    ],
    [
      "0",
      "7"
    ],
    [
      "B",
      "D"
    ],
    [
      "BAT_VOLT=11.",
      "5"
    ],
    [
      "11.",
      "5"
    ],
    [
      "B",
      "6"
    ],
    [
      "BAT_VOLT=11.",
      "8"
    ],
    [
      "11.",
      "8"
    ],
    [
      "C",
      "8"
    ],
    [
      "F",
      "9"
    ],
    [
      "F",
      "8"
    ],
    [
      "0",
      "6"
    ],
    [
      "F",
      "D"
    ],
    [
      "3",
      "D"
    ],
    [
      "7",
      "6"
    ],
    [
      "BAT_VOLT=12.",
      "2"
    ],
    [
      "12.",
      "2"
    ],
    [
      "3",
      "A"
    ],
    [
      "E",
      "8"
    ],
    [
      "3",
      "C"
    ],
    [
      "RSSI=-10",
      "9dBm</w>"
    ],
    [
      "-10",
      "9dBm.</w>"
    ],
    [
      "7",
      "4"
    ],
    [
      "2",
      "D"
    ],
    [
      "5",
      "4"
    ],
    [
      "BAT_VOLT=12.",
      "1"
    ],
    [
      "12.",
      "1"
    ],
    [
      "3",
      "E"
    ],
    [
      "C",
      "A"
    ],
    [
      "RSSI=-11",
      "5dBm</w>"
    ],
    [
      "-11",
      "5dBm.</w>"
    ],
    [
      "8",
      "1"
    ],
    [
      "0",
      "D"
    ],
    [
      "RSSI=-11",
      "1"
    ],
    [
      "RSSI=-111",
      "dBm</w>"
    ],
    [
      "-11",
      "1"
    ],
    [
      "-111",
      "dBm.</w>"
    ],
    [
      "0",
      "4"
    ],
    [
      "8",
      "4"
    ],
    [
      "0",
      "2"
    ],
    [
      "RSSI=-11",
      "2"
    ],
    [
      "RSSI=-112",
      "dBm</w>"
    ],
    [
      "-11",
      "2"
    ],
    [
      "-112",
      "dBm.</w>"
    ],
    [
      "6",
      "7"
    ],
    [
      "E",
      "A"
    ],
    [
      "RSSI=-10",
      "8dBm</w>"
    ],
    [
      "-10",
      "8dBm.</w>"
    ],
    [
      "RSSI=-11",
      "3"
    ],
    [
      "RSSI=-113",
      "dBm</w>"
    ],
    [
      "-11",
      "3"
    ],
    [
      "-113",
      "dBm.</w>"
    ],
    [
      "RSSI=-11",
      "4"
    ],
    [
      "RSSI=-114",
      "dBm</w>"
    ],
    [
      "-11",
      "4"
    ],
    [
      "-114",
      "dBm.</w>"
    ],
    [
      "RSSI=-10",
      "6dBm</w>"
    ],
    [
      "-10",
      "6dBm.</w>"
    ],
    [
      "F",
      "C"
    ],
    [
      "RSSI=-10",
      "5dBm</w>"
    ],
    [
      "-10",
      "5dBm.</w>"
    ],
    [
      "F",
      "7"
    ],
    [
      "B",
      "7"
    ],
    [
      "RSSI=-11",
      "9dBm</w>"
    ],
    [
      "-11",
      "9dBm.</w>"
    ],
    [
      "RSSI=-11",
      "6dBm</w>"
    ],
    [
      "-11",
      "6dBm.</w>"
    ],
    [
      "RSSI=-11",
      "7dBm</w>"
    ],
    [
      "-11",
      "7dBm.</w>"
    ],
    [
      "E",
      "7"
    ],
    [
      "RSSI=-11",
      "8dBm</w>"
    ],
    [
      "-11",
      "8dBm.</w>"
    ],
    [
      "2",
      "A"
    ],
    [
      "6",
      "1"
    ],
    [
      "RSSI=-10",
      "7dBm</w>"
    ],
    [
      "-10",
      "7dBm.</w>"
    ],
    [
      "0",
      "A"
    ],
    [
      "0",
      "1"
    ],
    [
      "RSSI=-11",
      "0"
    ],
    [
      "RSSI=-110",
      "dBm</w>"
    ],
    [
      "-11",
      "0"
    ],
    [
      "-110",
      "dBm.</w>"
    ],
    [
      "5",
      "D"
    ],
    [
      "8",
      "2"
    ],
    [
      "5",
      "2"
    ],
    [
      "5",
      "1"
    ],
    [
      "5",
      "A"
    ],
    [
      "3",
      "F"
    ],
    [
      "TEMP_CPU=9",
      "6."
    ],
    [
      "9",
      "6."
    ],
    [
      "C",
      "7"
    ],
    [
      "TEMP_CPU=8",
      "9."
    ],
    [
      "8",
      "9."
    ],
    [
      "E",
      "6"
    ],
    [
      "TEMP_CPU=8",
      "6."
    ],
    [
      "8",
      "6."
    ],
    [
      "TEMP_CPU=9",
      "1."
    ],
    [
      "9",
      "1."
    ],
    [
      "9",
      "9"
    ],
    [
      "3",
      "B"
    ],
    [
      "TEMP_CPU=8",
      "2."
    ],
    [
      "8",
      "2."
    ],
    [
      "TEMP_CPU=8",
      "7."
    ],
    [
      "8",
      "7."
    ],
    [
      "C",
      "6"
    ],
    [
      "8",
      "8"
    ],
    [
      "TEMP_CPU=9",
      "0."
    ],
    [
      "9",
      "0."
    ],
    [
      "0",
      "M</w>"
    ],
    [
      "0",
      "m.</w>"
    ],
    [
      "7",
      "1"
    ],
    [
      "TEMP_CPU=8",
      "4."
    ],
    [
      "8",
      "4."
    ],
    [
      "TEMP_CPU=9",
      "7."
    ],
    [
      "9",
      "7."
    ],
    [
      "C",
      "C"
    ],
    [
      "F",
      "6"
    ],
    [
      "TEMP_CPU=9",
      "4."
    ],
    [
      "9",
      "4."
    ],
    [
      "TEMP_CPU=9",
      "3."
    ],
    [
      "9",
      "3."
    ],
    [
      "B",
      "B"
    ],
    [
      "TEMP_CPU=8",
      "8."
    ],
    [
      "8",
      "8."
    ],
    [
      "4",
      "D"
    ],
    [
      "9",
      "8"
    ],
    [
      "TEMP_CPU=9",
      "5."
    ],
    [
      "9",
      "5."
    ],
    [
      "TEMP_CPU=9",
      "2."
    ],
    [
      "9",
      "2."
    ],
    [
      "TEMP_CPU=8",
      "5."
    ],
    [
      "8",
      "5."
    ],
    [
      "4",
      "A"
    ],
    [
      "TEMP_CPU=8",
      "3."
    ],
    [
      "8",
      "3."
    ],
    [
      "BAT_VOLT=10.",
      "0"
    ],
    [
      "10.",
      "0"
    ],
    [
      "BAT_VOLT=9.",
      "4"
    ],
    [
      "9.",
      "4"
    ],
    [
      "E",
      "F"
    ],
    [
      "1",
      "A"
    ],
    [
      "E",
      "C"
    ],
    [
      "TEMP_CPU=8",
      "1."
    ],
    [
      "8",
      "1."
    ],
    [
      "BAT_VOLT=10.",
      "2"
    ],
    [
      "10.",
      "2"
    ],
    [
      "BAT_VOLT=9.",
      "2"
    ],
    [
      "9.",
      "2"
    ],
    [
      "E",
      "B"
    ],
    [
      "BAT_VOLT=8.",
      "6"
    ],
    [
      "8.",
      "6"
    ],
    [
      "7",
      "2"
    ],
    [
      "BAT_VOLT=9.",
      "0"
    ],
    [
      "9.",
      "0"
    ],
    [
      "7",
      "5"
    ],
    [
      "E",
      "5"
    ],
    [
      "6",
      "4"
    ],
    [
      "F",
      "B"
    ],
    [
      "8",
      "9"
    ],
    [
      "BAT_VOLT=10.",
      "3"
    ],
    [
      "10.",
      "3"
    ],
    [
      "BAT_VOLT=9.",
      "8"
    ],
    [
      "9.",
      "8"
    ],
    [
      "6",
      "5"
    ],
    [
      "1",
      "D"
    ],
    [
      "A",
      "9"
    ],
    [
      "C",
      "B"
    ],
    [
      "F",
      "0"
    ],
    [
      "BAT_VOLT=8.",
      "8"
    ],
    [
      "8.",
      "8"
    ],
    [
      "BAT_VOLT=9.",
      "5"
    ],
    [
      "9.",
      "5"
    ],
    [
      "BAT_VOLT=9.",
      "6"
    ],
    [
      "9.",
      "6"
    ],
    [
      "6",
      "2"
    ],
    [
      "BAT_VOLT=8.",
      "7"
    ],
    [
      "8.",
      "7"
    ],
    [
      "BAT_VOLT=8.",
      "9"
    ],
    [
      "8.",
      "9"
    ],
    [
      "BAT_VOLT=9.",
      "9"
    ],
    [
      "9.",
      "9"
    ],
    [
      "BAT_VOLT=8.",
      "5"
    ],
    [
      "8.",
      "5"
    ],
    [
      "C",
      "5"
    ],
    [
      "BAT_VOLT=9.",
      "7"
    ],
    [
      "9.",
      "7"
    ],
    [
      "7",
      "A"
    ],
    [
      "4",
      "M</w>"
    ],
    [
      "1",
      "M</w>"
    ],
    [
      "7",
      "D"
    ],
    [
      "F",
      "5"
    ],
    [
      "E",
      "0"
    ],
    [
      "BAT_VOLT=9.",
      "3"
    ],
    [
      "9.",
      "3"
    ],
    [
      "8",
      "M</w>"
    ],
    [
      "8",
      "5"
    ],
    [
      "8",
      "D"
    ],
    [
      "E",
      "4"
    ],
    [
      "E",
      "2"
    ],
    [
      "BAT_VOLT=10.",
      "1"
    ],
    [
      "10.",
      "1"
    ],
    [
      "8",
      "6"
    ],
    [
      "9",
      "6"
    ],
    [
      "C",
      "F"
    ],
    [
      "11",
      "V</w>"
    ],
    [
      "C",
      "0"
    ],
    [
      "A",
      "A"
    ],
    [
      "D",
      "D"
    ],
    [
      "9",
      "M</w>"
    ],
    [
      "E",
      "1"
    ],
    [
      "B",
      "F"
    ],
    [
      "B",
      "5"
    ],
    [
      "B",
      "0"
    ],
    [
      "8",
      "7"
    ],
    [
      "9",
      "7"
    ],
    [
      "C",
      "2"
    ],
    [
      "C",
      "1"
    ],
    [
      "9",
      "5"
    ],
    [
      "C",
      "4"
    ],
    [
      "7",
      "M</w>"
    ],
    [
      "9",
      "4"
    ],
    [
      "BAT_VOLT=9.",
      "1"
    ],
    [
      "9.",
      "1"
    ],
    [
      "B",
      "1"
    ],
    [
      "6",
      "M</w>"
    ],
    [
      "0",
      "0"
    ],
    [
      "F",
      "2"
    ],
    [
      "2",
      "M</w>"
    ],
    [
      "5",
      "M</w>"
    ],
    [
      "9",
      "D"
    ],
    [
      "B",
      "4"
    ],
    [
      "F",
      "4"
    ],
    [
      "F",
      "1"
    ],
    [
      "9",
      "1"
    ],
    [
      "A",
      "6"
    ],
    [
      "A",
      "8"
    ],
    [
      "9",
      "2"
    ],
    [
      "B",
      "2"
    ],
    [
      "B",
      "C"
    ],
    [
      "E",
      "3"
    ],
    [
      "A",
      "7"
    ],
    [
      "6",
      "D"
    ],
    [
      "3",
      "3"
    ],
    [
      "F",
      "E"
    ],
    [
      "C",
      "E"
    ],
    [
      "A",
      "5"
    ],
    [
      "ALT=",
      "8"
    ],
    [
      "A",
      "0"
    ],
    [
      "ADDR:0x",
      "ED"
    ],
    [
      "ADDR:0xB",
      "D"
    ],
    [
      "E",
      "E"
    ],
    [
      "ADDR:0x",
      "11"
    ],
    [
      "A",
      "C"
    ],
    [
      "10",
      "</w>"
    ],
    [
      "AD",
      "</w>"
    ],
    [
      "ADDR:0x",
      "10"
    ],
    [
      "ADDR:0x5",
      "D"
    ],
    [
      "A",
      "2"
    ],
    [
      "ADDR:0x0",
      "D"
    ],
    [
      "ADDR:0x8",
      "D"
    ],
    [
      "ADDR:0x1",
      "D"
    ],
    [
      "0",
      "B"
    ],
    [
      "3",
      "B</w>"
    ],
    [
      "0",
      "F"
    ],
    [
      "5",
      "B"
    ],
    [
      "ADDR:0xC",
      "D"
    ],
    [
      "ED",
      "</w>"
    ],
    [
      "ADDR:0x3",
      "D"
    ],
    [
      "6",
      "A"
    ],
    [
      "3",
      "3</w>"
    ],
    [
      "ADDR:0x",
      "AD"
    ],
    [
      "ADDR:0x2",
      "D"
    ],
    [
      "9",
      "A"
    ],
    [
      "ADDR:0x4",
      "D"
    ],
    [
      "3",
      "6</w>"
    ],
    [
      "3",
      "4</w>"
    ],
    [
      "4",
      "C"
    ],
    [
      "3",
      "2</w>"
    ],
    [
      "4",
      "B"
    ],
    [
      "3",
      "9</w>"
    ],
    [
      "ADDR:0x7",
      "D"
    ],
    [
      "ADDR:0xD",
      "D"
    ],
    [
      "0",
      "C"
    ],
    [
      "0",
      "E"
    ],
    [
      "8",
      "C"
    ],
    [
      "2",
      "B"
    ],
    [
      "3",
      "8</w>"
    ],
    [
      "ADDR:0x6",
      "D"
    ],
    [
      "3",
      "0</w>"
    ],
    [
      "2",
      "C"
    ],
    [
      "3",
      "F</w>"
    ],
    [
      "6",
      "0"
    ],
    [
      "4",
      "E"
    ],
    [
      "5",
      "0"
    ],
    [
      "3",
      "C</w>"
    ],
    [
      "8",
      "A"
    ],
    [
      "A",
      "F"
    ],
    [
      "3",
      "5</w>"
    ],
    [
      "7",
      "F"
    ],
    [
      "3",
      "7</w>"
    ],
    [
      "1",
      "E"
    ],
    [
      "1",
      "C"
    ],
    [
      "3",
      "D</w>"
    ],
    [
      "3",
      "E</w>"
    ],
    [
      "A",
      "B"
    ],
    [
      "ADDR:0xF",
      "D"
    ],
    [
      "A",
      "E"
    ],
    [
      "3",
      "A</w>"
    ],
    [
      "A",
      "1"
    ],
    [
      "5",
      "C"
    ],
    [
      "2",
      "E"
    ],
    [
      "ADDR:0x",
      "FA"
    ],
    [
      "5",
      "F"
    ],
    [
      "4",
      "F"
    ],
    [
      "2",
      "F"
    ],
    [
      "A",
      "4"
    ],
    [
      "7",
      "C"
    ],
    [
      "6",
      "C"
    ],
    [
      "9",
      "0"
    ],
    [
      "1",
      "B"
    ],
    [
      "9",
      "C"
    ],
    [
      "5",
      "E"
    ],
    [
      "ADDR:0x9",
      "D"
    ],
    [
      "8",
      "B"
    ],
    [
      "7",
      "0"
    ],
    [
      "1",
      "F"
    ],
    [
      "6",
      "F"
    ],
    [
      "8",
      "0"
    ],
    [
      "6",
      "E"
    ],
    [
      "7",
      "E"
    ],
    [
      "7",
      "B"
    ],
    [
      "8",
      "F"
    ],
    [
      "6",
      "B"
    ],
    [
      "9",
      "F"
    ],
    [
      "9",
      "E"
    ],
    [
      "9",
      "B"
    ],
    [
      "ALT=",
      "21"
    ],
    [
      "ALT=21",
      "M</w>"
    ],
    [
      "21",
      "m.</w>"
    ],
    [
      "8",
      "E"
    ],
    [
      "C",
      "6</w>"
    ],
    [
      "ALT=6",
      "8M</w>"
    ],
    [
      "68",
      "m.</w>"
    ],
    [
      "ALT=8",
      "0M</w>"
    ],
    [
      "8",
      "0m.</w>"
    ],
    [
      "E",
      "4</w>"
    ],
    [
      "F",
      "5</w>"
    ],
    [
      "F",
      "E</w>"
    ],
    [
      "ALT=5",
      "0M</w>"
    ],
    [
      "5",
      "0m.</w>"
    ],
    [
      "ALT=7",
      "4M</w>"
    ],
    [
      "74",
      "m.</w>"
    ],
    [
      "E",
      "8</w>"
    ],
    [
      "ALT=",
      "18"
    ],
    [
      "ALT=18",
      "M</w>"
    ],
    [
      "18",
      "m.</w>"
    ],
    [
      "ALT=5",
      "1M</w>"
    ],
    [
      "51",
      "m.</w>"
    ],
    [
      "ALT=6",
      "1M</w>"
    ],
    [
      "61",
      "m.</w>"
    ],
    [
      "ADDR:0x6",
      "A"
    ],
    [
      "11",
      "M/S</w>"
    ],
    [
      "11",
      "m/s</w>"
    ],
    [
      "ADDR:0x1",
      "9"
    ],
    [
      "ALT=",
      "15"
    ],
    [
      "ALT=15",
      "M</w>"
    ],
    [
      "15",
      "m.</w>"
    ],
    [
      "C",
      "A</w>"
    ],
    [
      "ALT=7",
      "6M</w>"
    ],
    [
      "76",
      "m.</w>"
    ],
    [
      "C",
      "4</w>"
    ],
    [
      "ADDR:0xB",
      "A"
    ],
    [
      "ALT=8",
      "3M</w>"
    ],
    [
      "8",
      "3m.</w>"
    ],
    [
      "ALT=5",
      "4M</w>"
    ],
    [
      "54",
      "m.</w>"
    ],
    [
      "ADDR:0xC",
      "9"
    ],
    [
      "ALT=6",
      "4M</w>"
    ],
    [
      "64",
      "m.</w>"
    ],
    [
      "ALT=",
      "27"
    ],
    [
      "ALT=27",
      "M</w>"
    ],
    [
      "27",
      "m.</w>"
    ],
    [
      "ADDR:0x1",
      "8"
    ],
    [
      "36",
      "M/S</w>"
    ],
    [
      "36",
      "m/s</w>"
    ],
    [
      "ALT=",
      "20"
    ],
    [
      "ALT=20",
      "M</w>"
    ],
    [
      "20",
      "m.</w>"
    ],
    [
      "ALT=",
      "32"
    ],
    [
      "ALT=32",
      "M</w>"
    ],
    [
      "32",
      "m.</w>"
    ],
    [
      "ALT=",
      "46"
    ],
    [
      "ALT=46",
      "M</w>"
    ],
    [
      "46",
      "m.</w>"
    ],
    [
      "ALT=5",
      "8M</w>"
    ],
    [
      "58",
      "m.</w>"
    ],
    [
      "ALT=",
      "47"
    ],
    [
      "ALT=47",
      "M</w>"
    ],
    [
      "47",
      "m.</w>"
    ],
    [
      "C",
      "5</w>"
    ],
    [
      "ADDR:0x7",
      "9"
    ],
    [
      "ADDR:0x7",
      "8"
    ],
    [
      "ALT=7",
      "1M</w>"
    ],
    [
      "71",
      "m.</w>"
    ],
    [
      "ALT=",
      "45"
    ],
    [
      "ALT=45",
      "M</w>"
    ],
    [
      "45",
      "m.</w>"
    ],
    [
      "ALT=",
      "38"
    ],
    [
      "ALT=38",
      "M</w>"
    ],
    [
      "38",
      "m.</w>"
    ],
    [
      "E",
      "C</w>"
    ],
    [
      "ALT=",
      "16"
    ],
    [
      "ALT=16",
      "M</w>"
    ],
    [
      "16",
      "m.</w>"
    ],
    [
      "ALT=",
      "29"
    ],
    [
      "ALT=29",
      "M</w>"
    ],
    [
      "29",
      "m.</w>"
    ],
    [
      "ALT=",
      "44"
    ],
    [
      "ALT=44",
      "M</w>"
    ],
    [
      "44",
      "m.</w>"
    ],
    [
      "2",
      "3M/S</w>"
    ],
    [
      "2",
      "3m/s</w>"
    ],
    [
      "B",
      "7</w>"
    ],
    [
      "ADDR:0x2",
      "A"
    ],
    [
      "ALT=",
      "25"
    ],
    [
      "ALT=25",
      "M</w>"
    ],
    [
      "25",
      "m.</w>"
    ],
    [
      "ALT=7",
      "3M</w>"
    ],
    [
      "7",
      "3m.</w>"
    ],
    [
      "ADDR:0x4",
      "6"
    ],
    [
      "ALT=",
      "10"
    ],
    [
      "ALT=10",
      "M</w>"
    ],
    [
      "10",
      "m.</w>"
    ],
    [
      "ALT=",
      "34"
    ],
    [
      "ALT=34",
      "M</w>"
    ],
    [
      "34",
      "m.</w>"
    ],
    [
      "ALT=",
      "14"
    ],
    [
      "ALT=14",
      "M</w>"
    ],
    [
      "14",
      "m.</w>"
    ],
    [
      "21",
      "M/S</w>"
    ],
    [
      "21",
      "m/s</w>"
    ],
    [
      "ALT=",
      "40"
    ],
    [
      "ALT=40",
      "M</w>"
    ],
    [
      "40",
      "m.</w>"
    ],
    [
      "E",
      "1</w>"
    ],
    [
      "ADDR:0x6",
      "9"
    ],
    [
      "C",
      "9</w>"
    ],
    [
      "B",
      "F</w>"
    ],
    [
      "ALT=6",
      "0M</w>"
    ],
    [
      "6",
      "0m.</w>"
    ],
    [
      "B",
      "2</w>"
    ],
    [
      "E",
      "B</w>"
    ],
    [
      "ALT=",
      "81"
    ],
    [
      "ALT=81",
      "M</w>"
    ],
    [
      "81",
      "m.</w>"
    ],
    [
      "E",
      "E</w>"
    ],
    [
      "C",
      "0</w>"
    ],
    [
      "ALT=6",
      "7M</w>"
    ],
    [
      "67",
      "m.</w>"
    ],
    [
      "C",
      "D</w>"
    ],
    [
      "B",
      "A</w>"
    ],
    [
      "4",
      "M/S</w>"
    ],
    [
      "4",
      "m/s</w>"
    ],
    [
      "C",
      "C</w>"
    ],
    [
      "C",
      "1</w>"
    ],
    [
      "ALT=5",
      "5M</w>"
    ],
    [
      "55",
      "m.</w>"
    ],
    [
      "ADDR:0xC",
      "8"
    ],
    [
      "ALT=7",
      "8M</w>"
    ],
    [
      "78",
      "m.</w>"
    ],
    [
      "19",
      "M/S</w>"
    ],
    [
      "19",
      "m/s</w>"
    ],
    [
      "ALT=",
      "26"
    ],
    [
      "ALT=26",
      "M</w>"
    ],
    [
      "26",
      "m.</w>"
    ],
    [
      "49",
      "M/S</w>"
    ],
    [
      "49",
      "m/s</w>"
    ],
    [
      "02",
      "M/S</w>"
    ],
    [
      "02",
      "m/s</w>"
    ],
    [
      "C",
      "B</w>"
    ],
    [
      "ALT=7",
      "0M</w>"
    ],
    [
      "7",
      "0m.</w>"
    ],
    [
      "C",
      "2</w>"
    ],
    [
      "ADDR:0x7",
      "C"
    ],
    [
      "ALT=",
      "24"
    ],
    [
      "ALT=24",
      "M</w>"
    ],
    [
      "24",
      "m.</w>"
    ],
    [
      "ALT=",
      "12"
    ],
    [
      "ALT=12",
      "M</w>"
    ],
    [
      "12",
      "m.</w>"
    ],
    [
      "F",
      "2</w>"
    ],
    [
      "B",
      "C</w>"
    ],
    [
      "E",
      "F</w>"
    ],
    [
      "ALT=",
      "84"
    ],
    [
      "ALT=84",
      "M</w>"
    ],
    [
      "84",
      "m.</w>"
    ],
    [
      "ALT=7",
      "2M</w>"
    ],
    [
      "72",
      "m.</w>"
    ],
    [
      "ADDR:0x3",
      "8"
    ],
    [
      "ALT=6",
      "9M</w>"
    ],
    [
      "69",
      "m.</w>"
    ],
    [
      "ALT=",
      "35"
    ],
    [
      "ALT=35",
      "M</w>"
    ],
    [
      "35",
      "m.</w>"
    ],
    [
      "ALT=5",
      "9M</w>"
    ],
    [
      "59",
      "m.</w>"
    ],
    [
      "ALT=",
      "41"
    ],
    [
      "ALT=41",
      "M</w>"
    ],
    [
      "41",
      "m.</w>"
    ],
    [
      "ALT=7",
      "9M</w>"
    ],
    [
      "79",
      "m.</w>"
    ],
    [
      "E",
      "3</w>"
    ],
    [
      "ALT=5",
      "3M</w>"
    ],
    [
      "5",
      "3m.</w>"
    ],
    [
      "ALT=",
      "22"
    ],
    [
      "ALT=22",
      "M</w>"
    ],
    [
      "22",
      "m.</w>"
    ],
    [
      "08",
      "M/S</w>"
    ],
    [
      "08",
      "m/s</w>"
    ],
    [
      "B",
      "1</w>"
    ],
    [
      "ADDR:0x8",
      "9"
    ],
    [
      "ADDR:0x5",
      "8"
    ],
    [
      "32",
      "M/S</w>"
    ],
    [
      "32",
      "m/s</w>"
    ],
    [
      "ALT=",
      "19"
    ],
    [
      "ALT=19",
      "M</w>"
    ],
    [
      "19",
      "m.</w>"
    ],
    [
      "F",
      "D</w>"
    ],
    [
      "ADDR:0x9",
      "6"
    ],
    [
      "A",
      "9</w>"
    ],
    [
      "ALT=",
      "3"
    ],
    [
      "ALT=3",
      "3M</w>"
    ],
    [
      "3",
      "3m.</w>"
    ],
    [
      "B",
      "6</w>"
    ],
    [
      "ALT=",
      "36"
    ],
    [
      "ALT=36",
      "M</w>"
    ],
    [
      "36",
      "m.</w>"
    ],
    [
      "ALT=",
      "17"
    ],
    [
      "ALT=17",
      "M</w>"
    ],
    [
      "17",
      "m.</w>"
    ],
    [
      "ALT=7",
      "7M</w>"
    ],
    [
      "77",
      "m.</w>"
    ],
    [
      "ADDR:0x5",
      "A"
    ],
    [
      "ADDR:0x0",
      "9"
    ],
    [
      "ALT=",
      "1"
    ],
    [
      "ALT=1",
      "3M</w>"
    ],
    [
      "1",
      "3m.</w>"
    ],
    [
      "ALT=",
      "49"
    ],
    [
      "ALT=49",
      "M</w>"
    ],
    [
      "49",
      "m.</w>"
    ],
    [
      "B",
      "9</w>"
    ],
    [
      "E",
      "5</w>"
    ],
    [
      "ADDR:0xD",
      "9"
    ],
    [
      "47",
      "M/S</w>"
    ],
    [
      "47",
      "m/s</w>"
    ],
    [
      "3",
      "3M/S</w>"
    ],
    [
      "3",
      "3m/s</w>"
    ],
    [
      "18",
      "M/S</w>"
    ],
    [
      "18",
      "m/s</w>"
    ],
    [
      "35",
      "M/S</w>"
    ],
    [
      "35",
      "m/s</w>"
    ],
    [
      "ADDR:0x5",
      "6"
    ],
    [
      "2",
      "6</w>"
    ],
    [
      "0",
      "E</w>"
    ],
    [
      "ADDR:0x4",
      "9"
    ],
    [
      "ADDR:0x9",
      "9"
    ],
    [
      "B",
      "3</w>"
    ],
    [
      "B",
      "B</w>"
    ],
    [
      "B",
      "5</w>"
    ],
    [
      "ALT=",
      "82"
    ],
    [
      "ALT=82",
      "M</w>"
    ],
    [
      "82",
      "m.</w>"
    ],
    [
      "B",
      "D</w>"
    ],
    [
      "0",
      "B</w>"
    ],
    [
      "E",
      "9</w>"
    ],
    [
      "F",
      "4</w>"
    ],
    [
      "34",
      "M/S</w>"
    ],
    [
      "34",
      "m/s</w>"
    ],
    [
      "A",
      "C</w>"
    ],
    [
      "48",
      "M/S</w>"
    ],
    [
      "48",
      "m/s</w>"
    ],
    [
      "ADDR:0x0",
      "7"
    ],
    [
      "ADDR:0x7",
      "A"
    ],
    [
      "A",
      "7</w>"
    ],
    [
      "E",
      "0</w>"
    ],
    [
      "BAT_VOLT=11.7",
      "1V</w>"
    ],
    [
      "11.7",
      "1V</w>"
    ],
    [
      "B",
      "8</w>"
    ],
    [
      "ALT=",
      "39"
    ],
    [
      "ALT=39",
      "M</w>"
    ],
    [
      "39",
      "m.</w>"
    ],
    [
      "ALT=",
      "48"
    ],
    [
      "ALT=48",
      "M</w>"
    ],
    [
      "48",
      "m.</w>"
    ],
    [
      "ADDR:0x7",
      "7"
    ],
    [
      "37",
      "M/S</w>"
    ],
    [
      "37",
      "m/s</w>"
    ],
    [
      "ADDR:0xF",
      "8"
    ],
    [
      "ADDR:0xF",
      "C"
    ],
    [
      "24",
      "M/S</w>"
    ],
    [
      "24",
      "m/s</w>"
    ],
    [
      "ADDR:0x9",
      "A"
    ],
    [
      "2",
      "2</w>"
    ],
    [
      "28",
      "M/S</w>"
    ],
    [
      "28",
      "m/s</w>"
    ],
    [
      "ADDR:0x1",
      "6"
    ],
    [
      "ADDR:0xC",
      "A"
    ],
    [
      "4",
      "3M/S</w>"
    ],
    [
      "4",
      "3m/s</w>"
    ],
    [
      "C",
      "8</w>"
    ],
    [
      "ADDR:0x3",
      "9"
    ],
    [
      "F",
      "9</w>"
    ],
    [
      "31",
      "M/S</w>"
    ],
    [
      "31",
      "m/s</w>"
    ],
    [
      "ADDR:0x8",
      "A"
    ],
    [
      "E",
      "6</w>"
    ],
    [
      "F",
      "1</w>"
    ],
    [
      "0",
      "1</w>"
    ],
    [
      "ADDR:0xE",
      "6"
    ],
    [
      "ADDR:0x2",
      "9"
    ],
    [
      "26",
      "M/S</w>"
    ],
    [
      "26",
      "m/s</w>"
    ],
    [
      "0",
      "F</w>"
    ],
    [
      "22",
      "M/S</w>"
    ],
    [
      "22",
      "m/s</w>"
    ],
    [
      "ADDR:0xE",
      "A"
    ],
    [
      "ALT=",
      "4"
    ],
    [
      "ALT=4",
      "3M</w>"
    ],
    [
      "4",
      "3m.</w>"
    ],
    [
      "ADDR:0xE",
      "9"
    ],
    [
      "ADDR:0x1",
      "A"
    ],
    [
      "A",
      "3</w>"
    ],
    [
      "ADDR:0x7",
      "6"
    ],
    [
      "F",
      "0</w>"
    ],
    [
      "ADDR:0x5",
      "E"
    ],
    [
      "ADDR:0x3",
      "A"
    ],
    [
      "F",
      "6</w>"
    ],
    [
      "ADDR:0xB",
      "8"
    ],
    [
      "ADDR:0x0",
      "F"
    ],
    [
      "04",
      "M/S</w>"
    ],
    [
      "04",
      "m/s</w>"
    ],
    [
      "05",
      "M/S</w>"
    ],
    [
      "05",
      "m/s</w>"
    ],
    [
      "29",
      "M/S</w>"
    ],
    [
      "29",
      "m/s</w>"
    ],
    [
      "A",
      "E</w>"
    ],
    [
      "E",
      "7</w>"
    ],
    [
      "44",
      "M/S</w>"
    ],
    [
      "44",
      "m/s</w>"
    ],
    [
      "ALT=5",
      "2M</w>"
    ],
    [
      "52",
      "m.</w>"
    ],
    [
      "ALT=",
      "30"
    ],
    [
      "ALT=30",
      "M</w>"
    ],
    [
      "30",
      "m.</w>"
    ],
    [
      "0",
      "D</w>"
    ],
    [
      "ADDR:0x6",
      "8"
    ],
    [
      "ALT=",
      "31"
    ],
    [
      "ALT=31",
      "M</w>"
    ],
    [
      "F",
      "8</w>"
    ],
    [
      "31",
      "m.</w>"
    ],
    [
      "ADDR:0xB",
      "5"
    ],
    [
      "12",
      "M/S</w>"
    ],
    [
      "12",
      "m/s</w>"
    ],
    [
      "ADDR:0xB",
      "9"
    ],
    [
      "ADDR:0x5",
      "F"
    ],
    [
      "ADDR:0x1",
      "7"
    ],
    [
      "A",
      "8</w>"
    ],
    [
      "ADDR:0x8",
      "8"
    ],
    [
      "C",
      "7</w>"
    ],
    [
      "ALT=6",
      "3M</w>"
    ],
    [
      "6",
      "3m.</w>"
    ],
    [
      "ADDR:0xD",
      "A"
    ],
    [
      "B",
      "0</w>"
    ],
    [
      "A",
      "4</w>"
    ],
    [
      "42",
      "M/S</w>"
    ],
    [
      "42",
      "m/s</w>"
    ],
    [
      "F",
      "7</w>"
    ],
    [
      "ALT=",
      "11"
    ],
    [
      "ALT=11",
      "M</w>"
    ],
    [
      "11",
      "m.</w>"
    ],
    [
      "ADDR:0x3",
      "C"
    ],
    [
      "ADDR:0xB",
      "7"
    ],
    [
      "2",
      "9</w>"
    ],
    [
      "17",
      "M/S</w>"
    ],
    [
      "17",
      "m/s</w>"
    ],
    [
      "ADDR:0x3",
      "7"
    ],
    [
      "ALT=",
      "42"
    ],
    [
      "ALT=42",
      "M</w>"
    ],
    [
      "42",
      "m.</w>"
    ],
    [
      "0",
      "9</w>"
    ],
    [
      "45",
      "M/S</w>"
    ],
    [
      "45",
      "m/s</w>"
    ],
    [
      "F",
      "B</w>"
    ],
    [
      "25",
      "M/S</w>"
    ],
    [
      "25",
      "m/s</w>"
    ],
    [
      "ALT=6",
      "6M</w>"
    ],
    [
      "66",
      "m.</w>"
    ],
    [
      "ADDR:0x6",
      "6"
    ],
    [
      "ADDR:0x0",
      "5"
    ],
    [
      "E",
      "A</w>"
    ],
    [
      "C",
      "E</w>"
    ],
    [
      "ADDR:0x9",
      "8"
    ],
    [
      "1",
      "M/S</w>"
    ],
    [
      "1",
      "m/s</w>"
    ],
    [
      "16",
      "M/S</w>"
    ],
    [
      "16",
      "m/s</w>"
    ],
    [
      "ADDR:0xF",
      "E"
    ],
    [
      "0",
      "0</w>"
    ],
    [
      "ADDR:0xE",
      "C"
    ],
    [
      "D",
      "9"
    ],
    [
      "ADDR:0x2",
      "6"
    ],
    [
      "ADDR:0xB",
      "C"
    ],
    [
      "ALT=",
      "2"
    ],
    [
      "ALT=2",
      "3M</w>"
    ],
    [
      "2",
      "3m.</w>"
    ],
    [
      "ADDR:0xF",
      "9"
    ],
    [
      "06",
      "M/S</w>"
    ],
    [
      "06",
      "m/s</w>"
    ],
    [
      "ADDR:0x8",
      "0"
    ],
    [
      "ADDR:0x1",
      "B"
    ],
    [
      "ADDR:0xD",
      "C"
    ],
    [
      "F",
      "F</w>"
    ],
    [
      "ALT=",
      "37"
    ],
    [
      "ALT=37",
      "M</w>"
    ],
    [
      "37",
      "m.</w>"
    ],
    [
      "ALT=6",
      "5M</w>"
    ],
    [
      "65",
      "m.</w>"
    ],
    [
      "ADDR:0xC",
      "E"
    ],
    [
      "ADDR:0xB",
      "E"
    ],
    [
      "5",
      "F</w>"
    ],
    [
      "C",
      "3</w>"
    ],
    [
      "D",
      "6"
    ],
    [
      "BAT_VOLT=12.2",
      "6V</w>"
    ],
    [
      "12.2",
      "6V</w>"
    ],
    [
      "ALT=7",
      "5M</w>"
    ],
    [
      "75",
      "m.</w>"
    ],
    [
      "ADDR:0x0",
      "A"
    ],
    [
      "ALT=5",
      "7M</w>"
    ],
    [
      "57",
      "m.</w>"
    ],
    [
      "41",
      "M/S</w>"
    ],
    [
      "41",
      "m/s</w>"
    ],
    [
      "ADDR:0xB",
      "6"
    ],
    [
      "1",
      "3M/S</w>"
    ],
    [
      "1",
      "3m/s</w>"
    ],
    [
      "A",
      "B</w>"
    ],
    [
      "ADDR:0xA",
      "8"
    ],
    [
      "0",
      "3</w>"
    ],
    [
      "0",
      "2</w>"
    ],
    [
      "ADDR:0xF",
      "6"
    ],
    [
      "0",
      "6</w>"
    ],
    [
      "ADDR:0x3",
      "E"
    ],
    [
      "2",
      "F</w>"
    ],
    [
      "2",
      "5</w>"
    ],
    [
      "D",
      "8"
    ],
    [
      "ADDR:0xC",
      "6"
    ],
    [
      "BAT_VOLT=11.",
      "8V</w>"
    ],
    [
      "11.",
      "8V</w>"
    ],
    [
      "01",
      "M/S</w>"
    ],
    [
      "01",
      "m/s</w>"
    ],
    [
      "39",
      "M/S</w>"
    ],
    [
      "39",
      "m/s</w>"
    ],
    [
      "BAT_VOLT=11.9",
      "9V</w>"
    ],
    [
      "11.9",
      "9V</w>"
    ],
    [
      "ADDR:0xE",
      "7"
    ],
    [
      "ADDR:0x5",
      "9"
    ],
    [
      "2",
      "A</w>"
    ],
    [
      "ALT=",
      "28"
    ],
    [
      "ALT=28",
      "M</w>"
    ],
    [
      "28",
      "m.</w>"
    ],
    [
      "BAT_VOLT=12.",
      "3V</w>"
    ],
    [
      "12.",
      "3V</w>"
    ],
    [
      "BAT_VOLT=12.",
      "5V</w>"
    ],
    [
      "12.",
      "5V</w>"
    ],
    [
      "0",
      "5</w>"
    ],
    [
      "ADDR:0x4",
      "A"
    ],
    [
      "0",
      "C</w>"
    ],
    [
      "07",
      "M/S</w>"
    ],
    [
      "ADDR:0x0",
      "6"
    ],
    [
      "07",
      "m/s</w>"
    ],
    [
      "ALT=6",
      "2M</w>"
    ],
    [
      "62",
      "m.</w>"
    ],
    [
      "1",
      "2</w>"
    ],
    [
      "ADDR:0x0",
      "8"
    ],
    [
      "ADDR:0xA",
      "9"
    ],
    [
      "ADDR:0x4",
      "7"
    ],
    [
      "ADDR:0xA",
      "6"
    ],
    [
      "ADDR:0xA",
      "A"
    ],
    [
      "C",
      "F</w>"
    ],
    [
      "BAT_VOLT=12.5",
      "8V</w>"
    ],
    [
      "12.5",
      "8V</w>"
    ],
    [
      "BAT_VOLT=12.1",
      "8V</w>"
    ],
    [
      "12.1",
      "8V</w>"
    ],
    [
      "BAT_VOLT=12.5",
      "5V</w>"
    ],
    [
      "12.5",
      "5V</w>"
    ],
    [
      "ADDR:0xD",
      "6"
    ],
    [
      "BAT_VOLT=11.8",
      "3V</w>"
    ],
    [
      "11.8",
      "3V</w>"
    ],
    [
      "ADDR:0x9",
      "7"
    ],
    [
      "BAT_VOLT=12.5",
      "3V</w>"
    ],
    [
      "12.5",
      "3V</w>"
    ],
    [
      "2",
      "E</w>"
    ],
    [
      "5",
      "3</w>"
    ],
    [
      "0",
      "7</w>"
    ],
    [
      "2",
      "3</w>"
    ],
    [
      "BAT_VOLT=12.",
      "1V</w>"
    ],
    [
      "12.",
      "1V</w>"
    ],
    [
      "A",
      "0</w>"
    ],
    [
      "BAT_VOLT=11.8",
      "1V</w>"
    ],
    [
      "11.8",
      "1V</w>"
    ],
    [
      "5",
      "7</w>"
    ],
    [
      "B",
      "4</w>"
    ],
    [
      "ADDR:0x4",
      "F"
    ],
    [
      "BAT_VOLT=12.1",
      "6V</w>"
    ],
    [
      "12.1",
      "6V</w>"
    ],
    [
      "E",
      "2</w>"
    ],
    [
      "BAT_VOLT=12.5",
      "9V</w>"
    ],
    [
      "12.5",
      "9V</w>"
    ],
    [
      "ADDR:0xB",
      "0"
    ],
    [
      "BAT_VOLT=11.7",
      "9V</w>"
    ],
    [
      "11.7",
      "9V</w>"
    ],
    [
      "A",
      "1</w>"
    ],
    [
      "ADDR:0xA",
      "5"
    ],
    [
      "ADDR:0x1",
      "5"
    ],
    [
      "ADDR:0xD",
      "5"
    ],
    [
      "D",
      "7"
    ],
    [
      "2",
      "4</w>"
    ],
    [
      "4",
      "3</w>"
    ],
    [
      "BAT_VOLT=12.4",
      "2V</w>"
    ],
    [
      "12.4",
      "2V</w>"
    ],
    [
      "ADDR:0x3",
      "6"
    ],
    [
      "2",
      "D</w>"
    ],
    [
      "09",
      "M/S</w>"
    ],
    [
      "09",
      "m/s</w>"
    ],
    [
      "ADDR:0x4",
      "C"
    ],
    [
      "D",
      "5</w>"
    ],
    [
      "BAT_VOLT=11.5",
      "9V</w>"
    ],
    [
      "11.5",
      "9V</w>"
    ],
    [
      "ADDR:0x5",
      "7"
    ],
    [
      "1",
      "1</w>"
    ],
    [
      "BAT_VOLT=11.7",
      "5V</w>"
    ],
    [
      "11.7",
      "5V</w>"
    ],
    [
      "ADDR:0x7",
      "0"
    ],
    [
      "F",
      "C</w>"
    ],
    [
      "ADDR:0x5",
      "5"
    ],
    [
      "BAT_VOLT=12.4",
      "1V</w>"
    ],
    [
      "12.4",
      "1V</w>"
    ],
    [
      "ADDR:0x7",
      "5"
    ],
    [
      "BAT_VOLT=11.6",
      "1V</w>"
    ],
    [
      "11.6",
      "1V</w>"
    ],
    [
      "5",
      "6</w>"
    ],
    [
      "BAT_VOLT=12.3",
      "3V</w>"
    ],
    [
      "12.3",
      "3V</w>"
    ],
    [
      "ADDR:0xC",
      "5"
    ],
    [
      "2",
      "M/S</w>"
    ],
    [
      "2",
      "m/s</w>"
    ],
    [
      "5",
      "5</w>"
    ],
    [
      "46",
      "M/S</w>"
    ],
    [
      "46",
      "m/s</w>"
    ],
    [
      "2",
      "B</w>"
    ],
    [
      "ADDR:0x9",
      "B"
    ],
    [
      "ADDR:0xC",
      "C"
    ],
    [
      "BAT_VOLT=12.3",
      "8V</w>"
    ],
    [
      "12.3",
      "8V</w>"
    ],
    [
      "ADDR:0xC",
      "7"
    ],
    [
      "1",
      "3</w>"
    ],
    [
      "D",
      "4"
    ],
    [
      "ADDR:0xE",
      "0"
    ],
    [
      "57",
      "M/S</w>"
    ],
    [
      "57",
      "m/s</w>"
    ],
    [
      "F",
      "3</w>"
    ],
    [
      "ADDR:0x4",
      "8"
    ],
    [
      "ADDR:0x9",
      "5"
    ],
    [
      "D",
      "D</w>"
    ],
    [
      "ADDR:0x9",
      "C"
    ],
    [
      "A",
      "A</w>"
    ],
    [
      "ADDR:0x3",
      "5"
    ],
    [
      "2",
      "8</w>"
    ],
    [
      "ADDR:0x7",
      "E"
    ],
    [
      "BAT_VOLT=11.",
      "7V</w>"
    ],
    [
      "11.",
      "7V</w>"
    ],
    [
      "5",
      "9</w>"
    ],
    [
      "ADDR:0x8",
      "C"
    ],
    [
      "ADDR:0xC",
      "F"
    ],
    [
      "1",
      "B</w>"
    ],
    [
      "5",
      "C</w>"
    ],
    [
      "ADDR:0x8",
      "6"
    ],
    [
      "0",
      "3M/S</w>"
    ],
    [
      "0",
      "3m/s</w>"
    ],
    [
      "BAT_VOLT=11.9",
      "7V</w>"
    ],
    [
      "11.9",
      "7V</w>"
    ],
    [
      "BAT_VOLT=12.4",
      "7V</w>"
    ],
    [
      "12.4",
      "7V</w>"
    ],
    [
      "BAT_VOLT=12.5",
      "1V</w>"
    ],
    [
      "12.5",
      "1V</w>"
    ],
    [
      "BAT_VOLT=12.3",
      "5V</w>"
    ],
    [
      "12.3",
      "5V</w>"
    ],
    [
      "ALT=5",
      "6M</w>"
    ],
    [
      "56",
      "m.</w>"
    ],
    [
      "A",
      "5</w>"
    ],
    [
      "27",
      "M/S</w>"
    ],
    [
      "27",
      "m/s</w>"
    ],
    [
      "ADDR:0xE",
      "E"
    ],
    [
      "BAT_VOLT=12.0",
      "4V</w>"
    ],
    [
      "12.0",
      "4V</w>"
    ],
    [
      "4",
      "F</w>"
    ],
    [
      "ADDR:0x0",
      "B"
    ],
    [
      "14",
      "M/S</w>"
    ],
    [
      "14",
      "m/s</w>"
    ],
    [
      "2",
      "1</w>"
    ],
    [
      "1",
      "E</w>"
    ],
    [
      "BAT_VOLT=11.6",
      "4V</w>"
    ],
    [
      "11.6",
      "4V</w>"
    ],
    [
      "ADDR:0x9",
      "0"
    ],
    [
      "ADDR:0x8",
      "E"
    ],
    [
      "ADDR:0xE",
      "8"
    ],
    [
      "ADDR:0x5",
      "C"
    ],
    [
      "5",
      "2</w>"
    ],
    [
      "SPEED=0.",
      "9"
    ],
    [
      "0.",
      "9"
    ],
    [
      "BAT_VOLT=12.3",
      "7V</w>"
    ],
    [
      "12.3",
      "7V</w>"
    ],
    [
      "B",
      "E</w>"
    ],
    [
      "BAT_VOLT=11.6",
      "2V</w>"
    ],
    [
      "11.6",
      "2V</w>"
    ],
    [
      "8",
      "3M/S</w>"
    ],
    [
      "8",
      "3m/s</w>"
    ],
    [
      "ADDR:0x9",
      "E"
    ],
    [
      "2",
      "0</w>"
    ],
    [
      "1",
      "8</w>"
    ],
    [
      "0",
      "A</w>"
    ],
    [
      "BAT_VOLT=11.5",
      "6V</w>"
    ],
    [
      "11.5",
      "6V</w>"
    ],
    [
      "ADDR:0xD",
      "F"
    ],
    [
      "ADDR:0xD",
      "0"
    ],
    [
      "2",
      "7</w>"
    ],
    [
      "1",
      "6</w>"
    ],
    [
      "ADDR:0xF",
      "5"
    ],
    [
      "ADDR:0x6",
      "B"
    ],
    [
      "ADDR:0x2",
      "0"
    ],
    [
      "BAT_VOLT=12.1",
      "4V</w>"
    ],
    [
      "12.1",
      "4V</w>"
    ],
    [
      "ADDR:0xF",
      "F"
    ],
    [
      "BAT_VOLT=11.6",
      "5V</w>"
    ],
    [
      "11.6",
      "5V</w>"
    ],
    [
      "BAT_VOLT=12.0",
      "8V</w>"
    ],
    [
      "12.0",
      "8V</w>"
    ],
    [
      "BAT_VOLT=12.5",
      "7V</w>"
    ],
    [
      "12.5",
      "7V</w>"
    ],
    [
      "ADDR:0xA",
      "B"
    ],
    [
      "BAT_VOLT=12.0",
      "V</w>"
    ],
    [
      "12.0",
      "V</w>"
    ],
    [
      "ADDR:0x1",
      "C"
    ],
    [
      "ADDR:0x6",
      "F"
    ],
    [
      "A",
      "F</w>"
    ],
    [
      "ADDR:0xE",
      "F"
    ],
    [
      "4",
      "4</w>"
    ],
    [
      "BAT_VOLT=11.9",
      "4V</w>"
    ],
    [
      "11.9",
      "4V</w>"
    ],
    [
      "5",
      "E</w>"
    ],
    [
      "BAT_VOLT=12.4",
      "4V</w>"
    ],
    [
      "12.4",
      "4V</w>"
    ],
    [
      "2",
      "C</w>"
    ],
    [
      "ADDR:0xD",
      "8"
    ],
    [
      "85",
      "M/S</w>"
    ],
    [
      "85",
      "m/s</w>"
    ],
    [
      "BAT_VOLT=12.4",
      "5V</w>"
    ],
    [
      "12.4",
      "5V</w>"
    ],
    [
      "BAT_VOLT=12.0",
      "3V</w>"
    ],
    [
      "12.0",
      "3V</w>"
    ],
    [
      "BAT_VOLT=11.5",
      "7V</w>"
    ],
    [
      "11.5",
      "7V</w>"
    ],
    [
      "A",
      "2</w>"
    ],
    [
      "ADDR:0xD",
      "4"
    ],
    [
      "ADDR:0x8",
      "7"
    ],
    [
      "ADDR:0x0",
      "C"
    ],
    [
      "BAT_VOLT=11.6",
      "8V</w>"
    ],
    [
      "11.6",
      "8V</w>"
    ],
    [
      "ADDR:0x6",
      "7"
    ],
    [
      "ADDR:0x0",
      "4"
    ],
    [
      "ADDR:0x2",
      "7"
    ],
    [
      "ADDR:0x5",
      "2"
    ],
    [
      "ADDR:0xD",
      "E"
    ],
    [
      "ADDR:0x2",
      "B"
    ],
    [
      "5",
      "0</w>"
    ],
    [
      "BAT_VOLT=11.7",
      "3V</w>"
    ],
    [
      "11.7",
      "3V</w>"
    ],
    [
      "ADDR:0x7",
      "F"
    ],
    [
      "ADDR:0x8",
      "F"
    ],
    [
      "0",
      "M/S</w>"
    ],
    [
      "0",
      "m/s</w>"
    ],
    [
      "ADDR:0x2",
      "8"
    ],
    [
      "BAT_VOLT=12.2",
      "7V</w>"
    ],
    [
      "12.2",
      "7V</w>"
    ],
    [
      "BAT_VOLT=12.5",
      "4V</w>"
    ],
    [
      "ADDR:0x4",
      "E"
    ],
    [
      "12.5",
      "4V</w>"
    ],
    [
      "5",
      "D</w>"
    ],
    [
      "BAT_VOLT=12.0",
      "6V</w>"
    ],
    [
      "12.0",
      "6V</w>"
    ],
    [
      "ADDR:0x7",
      "B"
    ],
    [
      "BAT_VOLT=11.9",
      "1V</w>"
    ],
    [
      "11.9",
      "1V</w>"
    ],
    [
      "1",
      "5</w>"
    ],
    [
      "BAT_VOLT=11.7",
      "7V</w>"
    ],
    [
      "11.7",
      "7V</w>"
    ],
    [
      "BAT_VOLT=12.0",
      "5V</w>"
    ],
    [
      "12.0",
      "5V</w>"
    ],
    [
      "38",
      "M/S</w>"
    ],
    [
      "38",
      "m/s</w>"
    ],
    [
      "ADDR:0x6",
      "E"
    ],
    [
      "4",
      "7</w>"
    ],
    [
      "15",
      "M/S</w>"
    ],
    [
      "15",
      "m/s</w>"
    ],
    [
      "ADDR:0x2",
      "C"
    ],
    [
      "1",
      "D</w>"
    ],
    [
      "ADDR:0xF",
      "0"
    ],
    [
      "BAT_VOLT=12.2",
      "2V</w>"
    ],
    [
      "12.2",
      "2V</w>"
    ],
    [
      "ADDR:0x2",
      "5"
    ],
    [
      "ADDR:0xA",
      "7"
    ],
    [
      "ADDR:0x3",
      "B"
    ],
    [
      "BAT_VOLT=11.8",
      "2V</w>"
    ],
    [
      "11.8",
      "2V</w>"
    ],
    [
      "66",
      "M/S</w>"
    ],
    [
      "66",
      "m/s</w>"
    ],
    [
      "ADDR:0x6",
      "5"
    ],
    [
      "BAT_VOLT=12.3",
      "9V</w>"
    ],
    [
      "12.3",
      "9V</w>"
    ],
    [
      "6",
      "2</w>"
    ],
    [
      "ADDR:0x6",
      "0"
    ],
    [
      "BAT_VOLT=11.",
      "6V</w>"
    ],
    [
      "11.",
      "6V</w>"
    ],
    [
      "ADDR:0xC",
      "4"
    ],
    [
      "ADDR:0x2",
      "2"
    ],
    [
      "4",
      "0</w>"
    ],
    [
      "ADDR:0x2",
      "F"
    ],
    [
      "ADDR:0xF",
      "7"
    ],
    [
      "BAT_VOLT=12.4",
      "8V</w>"
    ],
    [
      "12.4",
      "8V</w>"
    ],
    [
      "ADDR:0x8",
      "5"
    ],
    [
      "1",
      "9</w>"
    ],
    [
      "BAT_VOLT=11.5",
      "8V</w>"
    ],
    [
      "11.5",
      "8V</w>"
    ],
    [
      "ADDR:0xF",
      "4"
    ],
    [
      "ADDR:0xA",
      "C"
    ],
    [
      "BAT_VOLT=12.3",
      "1V</w>"
    ],
    [
      "12.3",
      "1V</w>"
    ],
    [
      "5",
      "M/S</w>"
    ],
    [
      "5",
      "m/s</w>"
    ],
    [
      "1",
      "7</w>"
    ],
    [
      "59",
      "M/S</w>"
    ],
    [
      "59",
      "m/s</w>"
    ],
    [
      "BAT_VOLT=12.2",
      "1V</w>"
    ],
    [
      "12.2",
      "1V</w>"
    ],
    [
      "ADDR:0xD",
      "B"
    ],
    [
      "68",
      "M/S</w>"
    ],
    [
      "68",
      "m/s</w>"
    ],
    [
      "A",
      "6</w>"
    ],
    [
      "BAT_VOLT=11.6",
      "3V</w>"
    ],
    [
      "11.6",
      "3V</w>"
    ],
    [
      "4",
      "C</w>"
    ],
    [
      "BAT_VOLT=12.4",
      "6V</w>"
    ],
    [
      "12.4",
      "6V</w>"
    ],
    [
      "BAT_VOLT=11.",
      "9V</w>"
    ],
    [
      "11.",
      "9V</w>"
    ],
    [
      "79",
      "M/S</w>"
    ],
    [
      "79",
      "m/s</w>"
    ],
    [
      "ADDR:0xA",
      "F"
    ],
    [
      "BAT_VOLT=11.5",
      "2V</w>"
    ],
    [
      "11.5",
      "2V</w>"
    ],
    [
      "0",
      "4</w>"
    ],
    [
      "7",
      "F</w>"
    ],
    [
      "BAT_VOLT=11.8",
      "9V</w>"
    ],
    [
      "11.8",
      "9V</w>"
    ],
    [
      "BAT_VOLT=12.1",
      "3V</w>"
    ],
    [
      "12.1",
      "3V</w>"
    ],
    [
      "ADDR:0xE",
      "4"
    ],
    [
      "ADDR:0x6",
      "C"
    ],
    [
      "BAT_VOLT=12.3",
      "6V</w>"
    ],
    [
      "12.3",
      "6V</w>"
    ],
    [
      "BAT_VOLT=11.7",
      "2V</w>"
    ],
    [
      "11.7",
      "2V</w>"
    ],
    [
      "BAT_VOLT=11.9",
      "5V</w>"
    ],
    [
      "11.9",
      "5V</w>"
    ],
    [
      "ADDR:0x4",
      "B"
    ],
    [
      "9",
      "D</w>"
    ],
    [
      "BAT_VOLT=12.2",
      "8V</w>"
    ],
    [
      "12.2",
      "8V</w>"
    ],
    [
      "5",
      "A</w>"
    ],
    [
      "6",
      "8</w>"
    ],
    [
      "BAT_VOLT=11.6",
      "7V</w>"
    ],
    [
      "11.6",
      "7V</w>"
    ],
    [
      "BAT_VOLT=11.9",
      "3V</w>"
    ],
    [
      "11.9",
      "3V</w>"
    ],
    [
      "ADDR:0xA",
      "0"
    ],
    [
      "82",
      "M/S</w>"
    ],
    [
      "82",
      "m/s</w>"
    ],
    [
      "BAT_VOLT=11.8",
      "6V</w>"
    ],
    [
      "11.8",
      "6V</w>"
    ],
    [
      "BAT_VOLT=11.5",
      "1V</w>"
    ],
    [
      "11.5",
      "1V</w>"
    ],
    [
      "BAT_VOLT=11.7",
      "8V</w>"
    ],
    [
      "11.7",
      "8V</w>"
    ],
    [
      "5",
      "1</w>"
    ],
    [
      "BAT_VOLT=12.1",
      "7V</w>"
    ],
    [
      "12.1",
      "7V</w>"
    ],
    [
      "ADDR:0x3",
      "F"
    ],
    [
      "1",
      "A</w>"
    ],
    [
      "6",
      "M/S</w>"
    ],
    [
      "6",
      "m/s</w>"
    ],
    [
      "ADDR:0x4",
      "5"
    ],
    [
      "ADDR:0xE",
      "B"
    ],
    [
      "4",
      "D</w>"
    ],
    [
      "6",
      "6</w>"
    ],
    [
      "BAT_VOLT=11.9",
      "8V</w>"
    ],
    [
      "11.9",
      "8V</w>"
    ],
    [
      "BAT_VOLT=12.5",
      "6V</w>"
    ],
    [
      "12.5",
      "6V</w>"
    ],
    [
      "BAT_VOLT=11.6",
      "6V</w>"
    ],
    [
      "11.6",
      "6V</w>"
    ],
    [
      "ADDR:0xB",
      "F"
    ],
    [
      "ADDR:0x9",
      "2"
    ],
    [
      "ADDR:0x1",
      "F"
    ],
    [
      "81",
      "M/S</w>"
    ],
    [
      "81",
      "m/s</w>"
    ],
    [
      "88",
      "M/S</w>"
    ],
    [
      "88",
      "m/s</w>"
    ],
    [
      "BAT_VOLT=12.3",
      "2V</w>"
    ],
    [
      "12.3",
      "2V</w>"
    ],
    [
      "BAT_VOLT=11.8",
      "7V</w>"
    ],
    [
      "11.8",
      "7V</w>"
    ],
    [
      "BAT_VOLT=11.5",
      "3V</w>"
    ],
    [
      "11.5",
      "3V</w>"
    ],
    [
      "ADDR:0x5",
      "B"
    ],
    [
      "6",
      "C</w>"
    ],
    [
      "84",
      "M/S</w>"
    ],
    [
      "84",
      "m/s</w>"
    ],
    [
      "ADDR:0xA",
      "E"
    ],
    [
      "ADDR:0x3",
      "0"
    ],
    [
      "BAT_VOLT=11.6",
      "9V</w>"
    ],
    [
      "11.6",
      "9V</w>"
    ],
    [
      "ADDR:0x1",
      "E"
    ],
    [
      "7",
      "3M/S</w>"
    ],
    [
      "7",
      "3m/s</w>"
    ],
    [
      "BAT_VOLT=12.0",
      "2V</w>"
    ],
    [
      "12.0",
      "2V</w>"
    ],
    [
      "TEMP_CPU=91.",
      "4°C</w>"
    ],
    [
      "91.",
      "4°C.</w>"
    ],
    [
      "ADDR:0xE",
      "1"
    ],
    [
      "ADDR:0xC",
      "0"
    ],
    [
      "BAT_VOLT=12.1",
      "2V</w>"
    ],
    [
      "12.1",
      "2V</w>"
    ],
    [
      "ADDR:0x8",
      "B"
    ],
    [
      "ADDR:0x8",
      "4"
    ],
    [
      "71",
      "M/S</w>"
    ],
    [
      "71",
      "m/s</w>"
    ],
    [
      "ADDR:0x6",
      "4"
    ],
    [
      "BAT_VOLT=12.0",
      "7V</w>"
    ],
    [
      "12.0",
      "7V</w>"
    ],
    [
      "ADDR:0xC",
      "B"
    ],
    [
      "4",
      "1</w>"
    ],
    [
      "BAT_VOLT=9.2",
      "7V</w>"
    ],
    [
      "9.2",
      "7V</w>"
    ],
    [
      "BAT_VOLT=12.",
      "2V</w>"
    ],
    [
      "12.",
      "2V</w>"
    ],
    [
      "ADDR:0x4",
      "0"
    ],
    [
      "5",
      "4</w>"
    ],
    [
      "54",
      "M/S</w>"
    ],
    [
      "54",
      "m/s</w>"
    ],
    [
      "D",
      "6</w>"
    ],
    [
      "1",
      "C</w>"
    ],
    [
      "4",
      "8</w>"
    ],
    [
      "ADDR:0x7",
      "4"
    ],
    [
      "1",
      "4</w>"
    ],
    [
      "7",
      "2</w>"
    ],
    [
      "4",
      "B</w>"
    ],
    [
      "BAT_VOLT=11.7",
      "4V</w>"
    ],
    [
      "11.7",
      "4V</w>"
    ],
    [
      "7",
      "A</w>"
    ],
    [
      "72",
      "M/S</w>"
    ],
    [
      "72",
      "m/s</w>"
    ],
    [
      "BAT_VOLT=12.",
      "11V</w>"
    ],
    [
      "12.",
      "11V</w>"
    ],
    [
      "9",
      "8</w>"
    ],
    [
      "4",
      "6</w>"
    ],
    [
      "ADDR:0xA",
      "4"
    ],
    [
      "0",
      "8</w>"
    ],
    [
      "ADDR:0x0",
      "0"
    ],
    [
      "97",
      "M/S</w>"
    ],
    [
      "97",
      "m/s</w>"
    ],
    [
      "58",
      "M/S</w>"
    ],
    [
      "58",
      "m/s</w>"
    ],
    [
      "ADDR:0x0",
      "E"
    ],
    [
      "ADDR:0x9",
      "F"
    ],
    [
      "61",
      "M/S</w>"
    ],
    [
      "61",
      "m/s</w>"
    ],
    [
      "BAT_VOLT=11.9",
      "6V</w>"
    ],
    [
      "11.9",
      "6V</w>"
    ],
    [
      "69",
      "M/S</w>"
    ],
    [
      "69",
      "m/s</w>"
    ],
    [
      "92",
      "M/S</w>"
    ],
    [
      "92",
      "m/s</w>"
    ],
    [
      "ADDR:0x6",
      "2"
    ],
    [
      "94",
      "M/S</w>"
    ],
    [
      "94",
      "m/s</w>"
    ],
    [
      "D",
      "0</w>"
    ],
    [
      "5",
      "B</w>"
    ],
    [
      "4",
      "A</w>"
    ],
    [
      "6",
      "3</w>"
    ],
    [
      "BAT_VOLT=11.8",
      "4V</w>"
    ],
    [
      "11.8",
      "4V</w>"
    ],
    [
      "4",
      "E</w>"
    ],
    [
      "55",
      "M/S</w>"
    ],
    [
      "55",
      "m/s</w>"
    ],
    [
      "BAT_VOLT=12.4",
      "9V</w>"
    ],
    [
      "12.4",
      "9V</w>"
    ],
    [
      "ADDR:0xB",
      "B"
    ],
    [
      "D",
      "C</w>"
    ],
    [
      "1",
      "F</w>"
    ],
    [
      "98",
      "M/S</w>"
    ],
    [
      "98",
      "m/s</w>"
    ],
    [
      "BAT_VOLT=12.5",
      "2V</w>"
    ],
    [
      "12.5",
      "2V</w>"
    ],
    [
      "BAT_VOLT=12.0",
      "9V</w>"
    ],
    [
      "12.0",
      "9V</w>"
    ],
    [
      "D",
      "3</w>"
    ],
    [
      "D",
      "8</w>"
    ],
    [
      "ADDR:0xE",
      "5"
    ],
    [
      "D",
      "B</w>"
    ],
    [
      "BAT_VOLT=12.1",
      "9V</w>"
    ],
    [
      "12.1",
      "9V</w>"
    ],
    [
      "6",
      "4</w>"
    ],
    [
      "5",
      "8</w>"
    ],
    [
      "BAT_VOLT=12.2",
      "3V</w>"
    ],
    [
      "12.2",
      "3V</w>"
    ],
    [
      "TEMP_CPU=84.",
      "5°C</w>"
    ],
    [
      "84.",
      "5°C.</w>"
    ],
    [
      "BAT_VOLT=11.5",
      "4V</w>"
    ],
    [
      "11.5",
      "4V</w>"
    ],
    [
      "78",
      "M/S</w>"
    ],
    [
      "78",
      "m/s</w>"
    ],
    [
      "ADDR:0x9",
      "1"
    ],
    [
      "ADDR:0xB",
      "2"
    ],
    [
      "BAT_VOLT=12.1",
      "5V</w>"
    ],
    [
      "12.1",
      "5V</w>"
    ],
    [
      "ADDR:0x3",
      "2"
    ],
    [
      "ADDR:0x5",
      "4"
    ],
    [
      "4",
      "9</w>"
    ],
    [
      "7",
      "9</w>"
    ],
    [
      "87",
      "M/S</w>"
    ],
    [
      "87",
      "m/s</w>"
    ],
    [
      "8",
      "C</w>"
    ],
    [
      "91",
      "M/S</w>"
    ],
    [
      "91",
      "m/s</w>"
    ],
    [
      "7",
      "D</w>"
    ],
    [
      "ADDR:0xD",
      "2"
    ],
    [
      "ADDR:0x4",
      "2"
    ],
    [
      "BAT_VOLT=9.4",
      "4V</w>"
    ],
    [
      "9.4",
      "4V</w>"
    ],
    [
      "ADDR:0x2",
      "E"
    ],
    [
      "ADDR:0xF",
      "B"
    ],
    [
      "BAT_VOLT=12.",
      "4V</w>"
    ],
    [
      "12.",
      "4V</w>"
    ],
    [
      "ADDR:0xC",
      "2"
    ],
    [
      "TEMP_CPU=82.",
      "0°C</w>"
    ],
    [
      "82.",
      "0°C.</w>"
    ],
    [
      "7",
      "4</w>"
    ],
    [
      "62",
      "M/S</w>"
    ],
    [
      "62",
      "m/s</w>"
    ],
    [
      "D",
      "F</w>"
    ],
    [
      "BAT_VOLT=11.7",
      "6V</w>"
    ],
    [
      "11.7",
      "6V</w>"
    ],
    [
      "TEMP_CPU=89.",
      "3°C</w>"
    ],
    [
      "89.",
      "3°C.</w>"
    ],
    [
      "52",
      "M/S</w>"
    ],
    [
      "52",
      "m/s</w>"
    ],
    [
      "D",
      "A</w>"
    ],
    [
      "BAT_VOLT=8.7",
      "9V</w>"
    ],
    [
      "8.7",
      "9V</w>"
    ],
    [
      "7",
      "6</w>"
    ],
    [
      "BAT_VOLT=8.6",
      "6V</w>"
    ],
    [
      "8.6",
      "6V</w>"
    ],
    [
      "7",
      "1</w>"
    ],
    [
      "ADDR:0xA",
      "1"
    ],
    [
      "TEMP_CPU=90.",
      "0°C</w>"
    ],
    [
      "90.",
      "0°C.</w>"
    ],
    [
      "BAT_VOLT=12.2",
      "5V</w>"
    ],
    [
      "12.2",
      "5V</w>"
    ],
    [
      "ADDR:0x6",
      "1"
    ],
    [
      "7",
      "7</w>"
    ],
    [
      "ADDR:0x1",
      "4"
    ],
    [
      "ADDR:0xC",
      "1"
    ],
    [
      "76",
      "M/S</w>"
    ],
    [
      "76",
      "m/s</w>"
    ],
    [
      "BAT_VOLT=8.6",
      "5V</w>"
    ],
    [
      "8.6",
      "5V</w>"
    ],
    [
      "ADDR:0x5",
      "0"
    ],
    [
      "ADDR:0xB",
      "1"
    ],
    [
      "75",
      "M/S</w>"
    ],
    [
      "75",
      "m/s</w>"
    ],
    [
      "TEMP_CPU=83.",
      "9°C</w>"
    ],
    [
      "83.",
      "9°C.</w>"
    ],
    [
      "5",
      "3M/S</w>"
    ],
    [
      "5",
      "3m/s</w>"
    ],
    [
      "BAT_VOLT=11.5",
      "5V</w>"
    ],
    [
      "11.5",
      "5V</w>"
    ],
    [
      "8",
      "M/S</w>"
    ],
    [
      "8",
      "m/s</w>"
    ],
    [
      "TEMP_CPU=91.",
      "6°C</w>"
    ],
    [
      "91.",
      "6°C.</w>"
    ],
    [
      "TEMP_CPU=89.",
      "8°C</w>"
    ],
    [
      "89.",
      "8°C.</w>"
    ],
    [
      "6",
      "3M/S</w>"
    ],
    [
      "6",
      "3m/s</w>"
    ],
    [
      "TEMP_CPU=82.",
      "2°C</w>"
    ],
    [
      "82.",
      "2°C.</w>"
    ],
    [
      "8",
      "E</w>"
    ],
    [
      "96",
      "M/S</w>"
    ],
    [
      "96",
      "m/s</w>"
    ],
    [
      "D",
      "4</w>"
    ],
    [
      "7",
      "3</w>"
    ],
    [
      "8",
      "7</w>"
    ],
    [
      "TEMP_CPU=96.",
      "0°C</w>"
    ],
    [
      "96.",
      "0°C.</w>"
    ],
    [
      "TEMP_CPU=87.",
      "6°C</w>"
    ],
    [
      "87.",
      "6°C.</w>"
    ],
    [
      "BAT_VOLT=10.2",
      "3V</w>"
    ],
    [
      "10.2",
      "3V</w>"
    ],
    [
      "4",
      "5</w>"
    ],
    [
      "BAT_VOLT=9.0",
      "6V</w>"
    ],
    [
      "9.0",
      "6V</w>"
    ],
    [
      "BAT_VOLT=8.9",
      "9V</w>"
    ],
    [
      "8.9",
      "9V</w>"
    ],
    [
      "ADDR:0x0",
      "2"
    ],
    [
      "BAT_VOLT=11.9",
      "2V</w>"
    ],
    [
      "11.9",
      "2V</w>"
    ],
    [
      "ADDR:0xD",
      "7"
    ],
    [
      "6",
      "F</w>"
    ],
    [
      "6",
      "A</w>"
    ],
    [
      "BAT_VOLT=9.2",
      "5V</w>"
    ],
    [
      "9.2",
      "5V</w>"
    ],
    [
      "ADDR:0xB",
      "4"
    ],
    [
      "TEMP_CPU=90.",
      "8°C</w>"
    ],
    [
      "90.",
      "8°C.</w>"
    ],
    [
      "BAT_VOLT=10.3",
      "4V</w>"
    ],
    [
      "10.3",
      "4V</w>"
    ],
    [
      "ADDR:0x7",
      "2"
    ],
    [
      "D",
      "1</w>"
    ],
    [
      "D",
      "7</w>"
    ],
    [
      "BAT_VOLT=11.8",
      "8V</w>"
    ],
    [
      "11.8",
      "8V</w>"
    ],
    [
      "86",
      "M/S</w>"
    ],
    [
      "86",
      "m/s</w>"
    ],
    [
      "64",
      "M/S</w>"
    ],
    [
      "64",
      "m/s</w>"
    ],
    [
      "D",
      "2</w>"
    ],
    [
      "BAT_VOLT=11.8",
      "5V</w>"
    ],
    [
      "11.8",
      "5V</w>"
    ],
    [
      "D",
      "E</w>"
    ],
    [
      "BAT_VOLT=12.2",
      "4V</w>"
    ],
    [
      "12.2",
      "4V</w>"
    ],
    [
      "TEMP_CPU=89.",
      "4°C</w>"
    ],
    [
      "89.",
      "4°C.</w>"
    ],
    [
      "TEMP_CPU=96.",
      "1°C</w>"
    ],
    [
      "96.",
      "1°C.</w>"
    ],
    [
      "ADDR:0x9",
      "4"
    ],
    [
      "ADDR:0x4",
      "4"
    ],
    [
      "TEMP_CPU=86.",
      "4°C</w>"
    ],
    [
      "86.",
      "4°C.</w>"
    ],
    [
      "TEMP_CPU=97.",
      "2°C</w>"
    ],
    [
      "97.",
      "2°C.</w>"
    ],
    [
      "TEMP_CPU=82.",
      "7°C</w>"
    ],
    [
      "82.",
      "7°C.</w>"
    ],
    [
      "6",
      "9</w>"
    ],
    [
      "9",
      "4</w>"
    ],
    [
      "8",
      "8</w>"
    ],
    [
      "TEMP_CPU=91.",
      "3°C</w>"
    ],
    [
      "91.",
      "3°C.</w>"
    ],
    [
      "7",
      "C</w>"
    ],
    [
      "7",
      "0</w>"
    ],
    [
      "TEMP_CPU=94.",
      "4°C</w>"
    ],
    [
      "94.",
      "4°C.</w>"
    ],
    [
      "BAT_VOLT=9.4",
      "1V</w>"
    ],
    [
      "9.4",
      "1V</w>"
    ],
    [
      "ADDR:0x8",
      "2"
    ],
    [
      "TEMP_CPU=86.",
      "8°C</w>"
    ],
    [
      "86.",
      "8°C.</w>"
    ],
    [
      "ADDR:0x4",
      "1"
    ],
    [
      "ADDR:0x3",
      "4"
    ],
    [
      "99",
      "M/S</w>"
    ],
    [
      "99",
      "m/s</w>"
    ],
    [
      "89",
      "M/S</w>"
    ],
    [
      "89",
      "m/s</w>"
    ],
    [
      "TEMP_CPU=86.",
      "9°C</w>"
    ],
    [
      "86.",
      "9°C.</w>"
    ],
    [
      "ADDR:0xF",
      "2"
    ],
    [
      "TEMP_CPU=88.",
      "1°C</w>"
    ],
    [
      "88.",
      "1°C.</w>"
    ],
    [
      "77",
      "M/S</w>"
    ],
    [
      "77",
      "m/s</w>"
    ],
    [
      "ADDR:0x2",
      "4"
    ],
    [
      "TEMP_CPU=89.",
      "9°C</w>"
    ],
    [
      "89.",
      "9°C.</w>"
    ],
    [
      "TEMP_CPU=96.",
      "9°C</w>"
    ],
    [
      "96.",
      "9°C.</w>"
    ],
    [
      "TEMP_CPU=91.",
      "8°C</w>"
    ],
    [
      "91.",
      "8°C.</w>"
    ],
    [
      "ADDR:0x0",
      "1"
    ],
    [
      "TEMP_CPU=91.",
      "2°C</w>"
    ],
    [
      "91.",
      "2°C.</w>"
    ],
    [
      "8",
      "5</w>"
    ],
    [
      "BAT_VOLT=10.2",
      "5V</w>"
    ],
    [
      "10.2",
      "5V</w>"
    ],
    [
      "BAT_VOLT=9.4",
      "9V</w>"
    ],
    [
      "9.4",
      "9V</w>"
    ],
    [
      "BAT_VOLT=9.4",
      "8V</w>"
    ],
    [
      "9.4",
      "8V</w>"
    ],
    [
      "9",
      "3</w>"
    ],
    [
      "ADDR:0xA",
      "2"
    ],
    [
      "TEMP_CPU=84.",
      "6°C</w>"
    ],
    [
      "84.",
      "6°C.</w>"
    ],
    [
      "TEMP_CPU=85.",
      "1°C</w>"
    ],
    [
      "85.",
      "1°C.</w>"
    ],
    [
      "TEMP_CPU=96.",
      "7°C</w>"
    ],
    [
      "96.",
      "7°C.</w>"
    ],
    [
      "TEMP_CPU=95.",
      "1°C</w>"
    ],
    [
      "95.",
      "1°C.</w>"
    ],
    [
      "8",
      "9</w>"
    ],
    [
      "TEMP_CPU=94.",
      "2°C</w>"
    ],
    [
      "94.",
      "2°C.</w>"
    ],
    [
      "BAT_VOLT=9.5",
      "3V</w>"
    ],
    [
      "9.5",
      "3V</w>"
    ],
    [
      "TEMP_CPU=88.",
      "3°C</w>"
    ],
    [
      "88.",
      "3°C.</w>"
    ],
    [
      "65",
      "M/S</w>"
    ],
    [
      "65",
      "m/s</w>"
    ],
    [
      "74",
      "M/S</w>"
    ],
    [
      "74",
      "m/s</w>"
    ],
    [
      "BAT_VOLT=12.0",
      "1V</w>"
    ],
    [
      "12.0",
      "1V</w>"
    ],
    [
      "TEMP_CPU=86.",
      "0°C</w>"
    ],
    [
      "86.",
      "0°C.</w>"
    ],
    [
      "4",
      "2</w>"
    ],
    [
      "BAT_VOLT=9.6",
      "4V</w>"
    ],
    [
      "9.6",
      "4V</w>"
    ],
    [
      "ADDR:0x3",
      "1"
    ],
    [
      "56",
      "M/S</w>"
    ],
    [
      "56",
      "m/s</w>"
    ],
    [
      "6",
      "E</w>"
    ],
    [
      "ADDR:0x3",
      "3"
    ],
    [
      "9",
      "9</w>"
    ],
    [
      "TEMP_CPU=81.",
      "4°C</w>"
    ],
    [
      "81.",
      "4°C.</w>"
    ],
    [
      "ADDR:0x1",
      "2"
    ],
    [
      "BAT_VOLT=8.8",
      "9V</w>"
    ],
    [
      "8.8",
      "9V</w>"
    ],
    [
      "TEMP_CPU=87.",
      "9°C</w>"
    ],
    [
      "87.",
      "9°C.</w>"
    ],
    [
      "TEMP_CPU=93.",
      "5°C</w>"
    ],
    [
      "93.",
      "5°C.</w>"
    ],
    [
      "95",
      "M/S</w>"
    ],
    [
      "95",
      "m/s</w>"
    ],
    [
      "BAT_VOLT=9.5",
      "4V</w>"
    ],
    [
      "9.5",
      "4V</w>"
    ],
    [
      "9",
      "A</w>"
    ],
    [
      "9",
      "0</w>"
    ],
    [
      "TEMP_CPU=97.",
      "8°C</w>"
    ],
    [
      "97.",
      "8°C.</w>"
    ],
    [
      "BAT_VOLT=9.8",
      "4V</w>"
    ],
    [
      "9.8",
      "4V</w>"
    ],
    [
      "BAT_VOLT=8.9",
      "4V</w>"
    ],
    [
      "8.9",
      "4V</w>"
    ],
    [
      "TEMP_CPU=95.",
      "9°C</w>"
    ],
    [
      "95.",
      "9°C.</w>"
    ],
    [
      "BAT_VOLT=10.",
      "11V</w>"
    ],
    [
      "10.",
      "11V</w>"
    ],
    [
      "6",
      "0</w>"
    ],
    [
      "BAT_VOLT=10.2",
      "8V</w>"
    ],
    [
      "10.2",
      "8V</w>"
    ],
    [
      "ADDR:0xD",
      "1"
    ],
    [
      "TEMP_CPU=88.",
      "7°C</w>"
    ],
    [
      "88.",
      "7°C.</w>"
    ],
    [
      "TEMP_CPU=92.",
      "4°C</w>"
    ],
    [
      "92.",
      "4°C.</w>"
    ],
    [
      "8",
      "0</w>"
    ],
    [
      "7",
      "8</w>"
    ],
    [
      "ADDR:0x7",
      "1"
    ],
    [
      "TEMP_CPU=90.",
      "2°C</w>"
    ],
    [
      "90.",
      "2°C.</w>"
    ],
    [
      "BAT_VOLT=12.2",
      "9V</w>"
    ],
    [
      "12.2",
      "9V</w>"
    ],
    [
      "BAT_VOLT=12.4",
      "3V</w>"
    ],
    [
      "12.4",
      "3V</w>"
    ],
    [
      "BAT_VOLT=9.8",
      "9V</w>"
    ],
    [
      "9.8",
      "9V</w>"
    ],
    [
      "51",
      "M/S</w>"
    ],
    [
      "51",
      "m/s</w>"
    ],
    [
      "6",
      "5</w>"
    ],
    [
      "BAT_VOLT=9.2",
      "4V</w>"
    ],
    [
      "9.2",
      "4V</w>"
    ],
    [
      "BAT_VOLT=9.6",
      "1V</w>"
    ],
    [
      "9.6",
      "1V</w>"
    ],
    [
      "BAT_VOLT=8.7",
      "5V</w>"
    ],
    [
      "8.7",
      "5V</w>"
    ],
    [
      "6",
      "1</w>"
    ],
    [
      "BAT_VOLT=10.3",
      "3V</w>"
    ],
    [
      "10.3",
      "3V</w>"
    ],
    [
      "9",
      "7</w>"
    ],
    [
      "SPEED=1.",
      "9"
    ],
    [
      "1.",
      "9"
    ],
    [
      "BAT_VOLT=12.3",
      "4V</w>"
    ],
    [
      "12.3",
      "4V</w>"
    ],
    [
      "BAT_VOLT=9.0",
      "3V</w>"
    ],
    [
      "9.0",
      "3V</w>"
    ],
    [
      "ADDR:0x7",
      "3"
    ],
    [
      "8",
      "3</w>"
    ],
    [
      "TEMP_CPU=96.",
      "4°C</w>"
    ],
    [
      "96.",
      "4°C.</w>"
    ],
    [
      "7",
      "B</w>"
    ],
    [
      "BAT_VOLT=10.3",
      "7V</w>"
    ],
    [
      "10.3",
      "7V</w>"
    ],
    [
      "TEMP_CPU=93.",
      "2°C</w>"
    ],
    [
      "93.",
      "2°C.</w>"
    ],
    [
      "ADDR:0x6",
      "3"
    ],
    [
      "9",
      "5</w>"
    ],
    [
      "BAT_VOLT=9.2",
      "2V</w>"
    ],
    [
      "9.2",
      "2V</w>"
    ],
    [
      "TEMP_CPU=82.",
      "8°C</w>"
    ],
    [
      "82.",
      "8°C.</w>"
    ],
    [
      "BAT_VOLT=9.4",
      "5V</w>"
    ],
    [
      "9.4",
      "5V</w>"
    ],
    [
      "ADDR:0xB",
      "3"
    ],
    [
      "TEMP_CPU=84.",
      "3°C</w>"
    ],
    [
      "84.",
      "3°C.</w>"
    ],
    [
      "TEMP_CPU=81.",
      "7°C</w>"
    ],
    [
      "81.",
      "7°C.</w>"
    ],
    [
      "TEMP_CPU=83.",
      "6°C</w>"
    ],
    [
      "83.",
      "6°C.</w>"
    ],
    [
      "ADDR:0x0",
      "3"
    ],
    [
      "6",
      "7</w>"
    ],
    [
      "TEMP_CPU=96.",
      "5°C</w>"
    ],
    [
      "96.",
      "5°C.</w>"
    ],
    [
      "TEMP_CPU=86.",
      "1°C</w>"
    ],
    [
      "86.",
      "1°C.</w>"
    ],
    [
      "TEMP_CPU=92.",
      "2°C</w>"
    ],
    [
      "92.",
      "2°C.</w>"
    ],
    [
      "TEMP_CPU=93.",
      "8°C</w>"
    ],
    [
      "93.",
      "8°C.</w>"
    ],
    [
      "TEMP_CPU=92.",
      "1°C</w>"
    ],
    [
      "92.",
      "1°C.</w>"
    ],
    [
      "TEMP_CPU=97.",
      "5°C</w>"
    ],
    [
      "97.",
      "5°C.</w>"
    ],
    [
      "TEMP_CPU=90.",
      "4°C</w>"
    ],
    [
      "90.",
      "4°C.</w>"
    ],
    [
      "8",
      "B</w>"
    ],
    [
      "BAT_VOLT=8.9",
      "8V</w>"
    ],
    [
      "8.9",
      "8V</w>"
    ],
    [
      "6",
      "D</w>"
    ],
    [
      "BAT_VOLT=10.0",
      "8V</w>"
    ],
    [
      "10.0",
      "8V</w>"
    ],
    [
      "TEMP_CPU=82.",
      "4°C</w>"
    ],
    [
      "82.",
      "4°C.</w>"
    ],
    [
      "TEMP_CPU=85.",
      "7°C</w>"
    ],
    [
      "85.",
      "7°C.</w>"
    ],
    [
      "BAT_VOLT=8.5",
      "8V</w>"
    ],
    [
      "8.5",
      "8V</w>"
    ],
    [
      "BAT_VOLT=10.1",
      "3V</w>"
    ],
    [
      "10.1",
      "3V</w>"
    ],
    [
      "BAT_VOLT=8.7",
      "4V</w>"
    ],
    [
      "8.7",
      "4V</w>"
    ],
    [
      "TEMP_CPU=95.",
      "5°C</w>"
    ],
    [
      "95.",
      "5°C.</w>"
    ],
    [
      "BAT_VOLT=9.7",
      "6V</w>"
    ],
    [
      "9.7",
      "6V</w>"
    ],
    [
      "TEMP_CPU=86.",
      "5°C</w>"
    ],
    [
      "86.",
      "5°C.</w>"
    ],
    [
      "TEMP_CPU=97.",
      "0°C</w>"
    ],
    [
      "97.",
      "0°C.</w>"
    ],
    [
      "67",
      "M/S</w>"
    ],
    [
      "67",
      "m/s</w>"
    ],
    [
      "BAT_VOLT=9.",
      "8V</w>"
    ],
    [
      "9.",
      "8V</w>"
    ],
    [
      "BAT_VOLT=9.9",
      "2V</w>"
    ],
    [
      "9.9",
      "2V</w>"
    ],
    [
      "ADDR:0x8",
      "1"
    ],
    [
      "8",
      "1</w>"
    ],
    [
      "BAT_VOLT=9.5",
      "8V</w>"
    ],
    [
      "9.5",
      "8V</w>"
    ],
    [
      "BAT_VOLT=10.1",
      "2V</w>"
    ],
    [
      "10.1",
      "2V</w>"
    ],
    [
      "TEMP_CPU=87.",
      "7°C</w>"
    ],
    [
      "87.",
      "7°C.</w>"
    ],
    [
      "TEMP_CPU=84.",
      "7°C</w>"
    ],
    [
      "84.",
      "7°C.</w>"
    ],
    [
      "TEMP_CPU=88.",
      "8°C</w>"
    ],
    [
      "88.",
      "8°C.</w>"
    ],
    [
      "TEMP_CPU=93.",
      "4°C</w>"
    ],
    [
      "93.",
      "4°C.</w>"
    ],
    [
      "TEMP_CPU=90.",
      "6°C</w>"
    ],
    [
      "90.",
      "6°C.</w>"
    ],
    [
      "TEMP_CPU=84.",
      "0°C</w>"
    ],
    [
      "84.",
      "0°C.</w>"
    ],
    [
      "TEMP_CPU=87.",
      "1°C</w>"
    ],
    [
      "87.",
      "1°C.</w>"
    ],
    [
      "TEMP_CPU=85.",
      "6°C</w>"
    ],
    [
      "85.",
      "6°C.</w>"
    ],
    [
      "ADDR:0xE",
      "3"
    ],
    [
      "TEMP_CPU=81.",
      "5°C</w>"
    ],
    [
      "81.",
      "5°C.</w>"
    ],
    [
      "TEMP_CPU=90.",
      "7°C</w>"
    ],
    [
      "90.",
      "7°C.</w>"
    ],
    [
      "ADDR:0xE",
      "2"
    ],
    [
      "TEMP_CPU=92.",
      "0°C</w>"
    ],
    [
      "92.",
      "0°C.</w>"
    ],
    [
      "9",
      "E</w>"
    ],
    [
      "TEMP_CPU=90.",
      "1°C</w>"
    ],
    [
      "90.",
      "1°C.</w>"
    ],
    [
      "ADDR:0xF",
      "1"
    ],
    [
      "9",
      "C</w>"
    ],
    [
      "TEMP_CPU=85.",
      "3°C</w>"
    ],
    [
      "85.",
      "3°C.</w>"
    ],
    [
      "TEMP_CPU=87.",
      "2°C</w>"
    ],
    [
      "87.",
      "2°C.</w>"
    ],
    [
      "TEMP_CPU=95.",
      "2°C</w>"
    ],
    [
      "95.",
      "2°C.</w>"
    ],
    [
      "ADDR:0x5",
      "1"
    ],
    [
      "SPEED=1.",
      "57M/S</w>"
    ],
    [
      "1.",
      "57m/s</w>"
    ],
    [
      "TEMP_CPU=97.",
      "1°C</w>"
    ],
    [
      "97.",
      "1°C.</w>"
    ],
    [
      "TEMP_CPU=87.",
      "8°C</w>"
    ],
    [
      "87.",
      "8°C.</w>"
    ],
    [
      "TEMP_CPU=90.",
      "5°C</w>"
    ],
    [
      "90.",
      "5°C.</w>"
    ],
    [
      "TEMP_CPU=96.",
      "3°C</w>"
    ],
    [
      "96.",
      "3°C.</w>"
    ],
    [
      "BAT_VOLT=10.0",
      "6V</w>"
    ],
    [
      "10.0",
      "6V</w>"
    ],
    [
      "TEMP_CPU=94.",
      "6°C</w>"
    ],
    [
      "94.",
      "6°C.</w>"
    ],
    [
      "BAT_VOLT=9.9",
      "6V</w>"
    ],
    [
      "9.9",
      "6V</w>"
    ],
    [
      "BAT_VOLT=8.",
      "7V</w>"
    ],
    [
      "8.",
      "7V</w>"
    ],
    [
      "BAT_VOLT=9.",
      "7V</w>"
    ],
    [
      "9.",
      "7V</w>"
    ],
    [
      "TEMP_CPU=93.",
      "9°C</w>"
    ],
    [
      "93.",
      "9°C.</w>"
    ],
    [
      "7",
      "5</w>"
    ],
    [
      "TEMP_CPU=94.",
      "0°C</w>"
    ],
    [
      "94.",
      "0°C.</w>"
    ],
    [
      "BAT_VOLT=8.6",
      "4V</w>"
    ],
    [
      "8.6",
      "4V</w>"
    ],
    [
      "7",
      "M/S</w>"
    ],
    [
      "7",
      "m/s</w>"
    ],
    [
      "BAT_VOLT=9.",
      "1V</w>"
    ],
    [
      "9.",
      "1V</w>"
    ],
    [
      "TEMP_CPU=92.",
      "8°C</w>"
    ],
    [
      "92.",
      "8°C.</w>"
    ],
    [
      "BAT_VOLT=8.6",
      "1V</w>"
    ],
    [
      "8.6",
      "1V</w>"
    ],
    [
      "BAT_VOLT=9.8",
      "6V</w>"
    ],
    [
      "9.8",
      "6V</w>"
    ],
    [
      "BAT_VOLT=8.8",
      "7V</w>"
    ],
    [
      "8.8",
      "7V</w>"
    ],
    [
      "BAT_VOLT=9.",
      "3V</w>"
    ],
    [
      "9.",
      "3V</w>"
    ],
    [
      "BAT_VOLT=8.",
      "9V</w>"
    ],
    [
      "8.",
      "9V</w>"
    ],
    [
      "BAT_VOLT=9.4",
      "7V</w>"
    ],
    [
      "9.4",
      "7V</w>"
    ],
    [
      "BAT_VOLT=9.4",
      "2V</w>"
    ],
    [
      "9.4",
      "2V</w>"
    ],
    [
      "TEMP_CPU=88.",
      "4°C</w>"
    ],
    [
      "88.",
      "4°C.</w>"
    ],
    [
      "BAT_VOLT=9.",
      "6V</w>"
    ],
    [
      "9.",
      "6V</w>"
    ],
    [
      "9",
      "6</w>"
    ],
    [
      "BAT_VOLT=9.0",
      "4V</w>"
    ],
    [
      "9.0",
      "4V</w>"
    ],
    [
      "TEMP_CPU=85.",
      "4°C</w>"
    ],
    [
      "85.",
      "4°C.</w>"
    ],
    [
      "9",
      "2</w>"
    ],
    [
      "9",
      "B</w>"
    ],
    [
      "SPEED=0.",
      "83M/S</w>"
    ],
    [
      "0.",
      "83m/s</w>"
    ],
    [
      "D",
      "9</w>"
    ],
    [
      "BAT_VOLT=9.1",
      "5V</w>"
    ],
    [
      "9.1",
      "5V</w>"
    ],
    [
      "TEMP_CPU=89.",
      "5°C</w>"
    ],
    [
      "89.",
      "5°C.</w>"
    ],
    [
      "ADDR:0x9",
      "3"
    ],
    [
      "TEMP_CPU=82.",
      "5°C</w>"
    ],
    [
      "82.",
      "5°C.</w>"
    ],
    [
      "BAT_VOLT=9.",
      "5V</w>"
    ],
    [
      "9.",
      "5V</w>"
    ],
    [
      "TEMP_CPU=87.",
      "0°C</w>"
    ],
    [
      "87.",
      "0°C.</w>"
    ],
    [
      "TEMP_CPU=89.",
      "7°C</w>"
    ],
    [
      "89.",
      "7°C.</w>"
    ],
    [
      "SPEED=1.",
      "36M/S</w>"
    ],
    [
      "1.",
      "36m/s</w>"
    ],
    [
      "TEMP_CPU=95.",
      "7°C</w>"
    ],
    [
      "95.",
      "7°C.</w>"
    ],
    [
      "BAT_VOLT=9.",
      "9V</w>"
    ],
    [
      "9.",
      "9V</w>"
    ],
    [
      "TEMP_CPU=88.",
      "6°C</w>"
    ],
    [
      "88.",
      "6°C.</w>"
    ],
    [
      "BAT_VOLT=9.8",
      "3V</w>"
    ],
    [
      "9.8",
      "3V</w>"
    ],
    [
      "TEMP_CPU=85.",
      "8°C</w>"
    ],
    [
      "85.",
      "8°C.</w>"
    ],
    [
      "TEMP_CPU=84.",
      "1°C</w>"
    ],
    [
      "84.",
      "1°C.</w>"
    ],
    [
      "BAT_VOLT=9.5",
      "6V</w>"
    ],
    [
      "9.5",
      "6V</w>"
    ],
    [
      "7",
      "E</w>"
    ],
    [
      "SPEED=2.",
      "48M/S</w>"
    ],
    [
      "2.",
      "48m/s</w>"
    ],
    [
      "TEMP_CPU=82.",
      "3°C</w>"
    ],
    [
      "82.",
      "3°C.</w>"
    ],
    [
      "BAT_VOLT=9.8",
      "8V</w>"
    ],
    [
      "9.8",
      "8V</w>"
    ],
    [
      "TEMP_CPU=83.",
      "7°C</w>"
    ],
    [
      "83.",
      "7°C.</w>"
    ],
    [
      "9",
      "F</w>"
    ],
    [
      "6",
      "B</w>"
    ],
    [
      "SPEED=2.",
      "11M/S</w>"
    ],
    [
      "2.",
      "11m/s</w>"
    ],
    [
      "BAT_VOLT=9.9",
      "4V</w>"
    ],
    [
      "9.9",
      "4V</w>"
    ],
    [
      "TEMP_CPU=87.",
      "3°C</w>"
    ],
    [
      "87.",
      "3°C.</w>"
    ],
    [
      "BAT_VOLT=10.0",
      "3V</w>"
    ],
    [
      "10.0",
      "3V</w>"
    ],
    [
      "BAT_VOLT=8.5",
      "9V</w>"
    ],
    [
      "8.5",
      "9V</w>"
    ],
    [
      "TEMP_CPU=91.",
      "0°C</w>"
    ],
    [
      "91.",
      "0°C.</w>"
    ],
    [
      "TEMP_CPU=97.",
      "4°C</w>"
    ],
    [
      "97.",
      "4°C.</w>"
    ],
    [
      "SPEED=0.",
      "85M/S</w>"
    ],
    [
      "0.",
      "85m/s</w>"
    ],
    [
      "BAT_VOLT=10.",
      "2V</w>"
    ],
    [
      "10.",
      "2V</w>"
    ],
    [
      "TEMP_CPU=94.",
      "3°C</w>"
    ],
    [
      "94.",
      "3°C.</w>"
    ],
    [
      "BAT_VOLT=10.3",
      "9V</w>"
    ],
    [
      "10.3",
      "9V</w>"
    ],
    [
      "BAT_VOLT=10.2",
      "7V</w>"
    ],
    [
      "10.2",
      "7V</w>"
    ],
    [
      "BAT_VOLT=9.8",
      "7V</w>"
    ],
    [
      "9.8",
      "7V</w>"
    ],
    [
      "TEMP_CPU=86.",
      "3°C</w>"
    ],
    [
      "86.",
      "3°C.</w>"
    ],
    [
      "BAT_VOLT=8.5",
      "5V</w>"
    ],
    [
      "8.5",
      "5V</w>"
    ],
    [
      "BAT_VOLT=10.0",
      "1V</w>"
    ],
    [
      "10.0",
      "1V</w>"
    ],
    [
      "BAT_VOLT=10.0",
      "2V</w>"
    ],
    [
      "10.0",
      "2V</w>"
    ],
    [
      "TEMP_CPU=92.",
      "7°C</w>"
    ],
    [
      "92.",
      "7°C.</w>"
    ],
    [
      "BAT_VOLT=10.1",
      "6V</w>"
    ],
    [
      "10.1",
      "6V</w>"
    ],
    [
      "8",
      "6</w>"
    ],
    [
      "TEMP_CPU=84.",
      "4°C</w>"
    ],
    [
      "84.",
      "4°C.</w>"
    ],
    [
      "TEMP_CPU=94.",
      "5°C</w>"
    ],
    [
      "94.",
      "5°C.</w>"
    ],
    [
      "SPEED=2.",
      "08M/S</w>"
    ],
    [
      "2.",
      "08m/s</w>"
    ],
    [
      "TEMP_CPU=89.",
      "6°C</w>"
    ],
    [
      "89.",
      "6°C.</w>"
    ],
    [
      "BAT_VOLT=10.0",
      "V</w>"
    ],
    [
      "10.0",
      "V</w>"
    ],
    [
      "TEMP_CPU=86.",
      "2°C</w>"
    ],
    [
      "86.",
      "2°C.</w>"
    ],
    [
      "BAT_VOLT=9.3",
      "3V</w>"
    ],
    [
      "9.3",
      "3V</w>"
    ],
    [
      "BAT_VOLT=8.5",
      "6V</w>"
    ],
    [
      "8.5",
      "6V</w>"
    ],
    [
      "TEMP_CPU=97.",
      "9°C</w>"
    ],
    [
      "97.",
      "9°C.</w>"
    ],
    [
      "BAT_VOLT=8.8",
      "3V</w>"
    ],
    [
      "8.8",
      "3V</w>"
    ],
    [
      "TEMP_CPU=89.",
      "1°C</w>"
    ],
    [
      "89.",
      "1°C.</w>"
    ],
    [
      "TEMP_CPU=86.",
      "7°C</w>"
    ],
    [
      "86.",
      "7°C.</w>"
    ],
    [
      "TEMP_CPU=81.",
      "8°C</w>"
    ],
    [
      "81.",
      "8°C.</w>"
    ],
    [
      "TEMP_CPU=81.",
      "1°C</w>"
    ],
    [
      "81.",
      "1°C.</w>"
    ],
    [
      "TEMP_CPU=93.",
      "6°C</w>"
    ],
    [
      "93.",
      "6°C.</w>"
    ],
    [
      "TEMP_CPU=89.",
      "2°C</w>"
    ],
    [
      "89.",
      "2°C.</w>"
    ],
    [
      "SPEED=0.",
      "43M/S</w>"
    ],
    [
      "0.",
      "43m/s</w>"
    ],
    [
      "8",
      "F</w>"
    ],
    [
      "BAT_VOLT=8.6",
      "2V</w>"
    ],
    [
      "8.6",
      "2V</w>"
    ],
    [
      "BAT_VOLT=10.3",
      "2V</w>"
    ],
    [
      "10.3",
      "2V</w>"
    ],
    [
      "SPEED=2.",
      "23M/S</w>"
    ],
    [
      "2.",
      "23m/s</w>"
    ],
    [
      "TEMP_CPU=83.",
      "5°C</w>"
    ],
    [
      "83.",
      "5°C.</w>"
    ],
    [
      "TEMP_CPU=91.",
      "9°C</w>"
    ],
    [
      "91.",
      "9°C.</w>"
    ],
    [
      "BAT_VOLT=8.9",
      "7V</w>"
    ],
    [
      "8.9",
      "7V</w>"
    ],
    [
      "BAT_VOLT=9.9",
      "5V</w>"
    ],
    [
      "9.9",
      "5V</w>"
    ],
    [
      "BAT_VOLT=8.8",
      "6V</w>"
    ],
    [
      "8.8",
      "6V</w>"
    ],
    [
      "8",
      "4</w>"
    ],
    [
      "BAT_VOLT=9.6",
      "3V</w>"
    ],
    [
      "9.6",
      "3V</w>"
    ],
    [
      "TEMP_CPU=89.",
      "0°C</w>"
    ],
    [
      "89.",
      "0°C.</w>"
    ],
    [
      "8",
      "A</w>"
    ],
    [
      "TEMP_CPU=97.",
      "7°C</w>"
    ],
    [
      "97.",
      "7°C.</w>"
    ],
    [
      "TEMP_CPU=96.",
      "2°C</w>"
    ],
    [
      "96.",
      "2°C.</w>"
    ],
    [
      "TEMP_CPU=87.",
      "4°C</w>"
    ],
    [
      "87.",
      "4°C.</w>"
    ],
    [
      "BAT_VOLT=10.1",
      "7V</w>"
    ],
    [
      "10.1",
      "7V</w>"
    ],
    [
      "BAT_VOLT=9.0",
      "8V</w>"
    ],
    [
      "9.0",
      "8V</w>"
    ],
    [
      "SPEED=1.",
      "79M/S</w>"
    ],
    [
      "1.",
      "79m/s</w>"
    ],
    [
      "BAT_VOLT=8.8",
      "4V</w>"
    ],
    [
      "8.8",
      "4V</w>"
    ],
    [
      "TEMP_CPU=93.",
      "1°C</w>"
    ],
    [
      "93.",
      "1°C.</w>"
    ],
    [
      "BAT_VOLT=10.2",
      "9V</w>"
    ],
    [
      "10.2",
      "9V</w>"
    ],
    [
      "BAT_VOLT=9.",
      "11V</w>"
    ],
    [
      "9.",
      "11V</w>"
    ],
    [
      "SPEED=0.",
      "33M/S</w>"
    ],
    [
      "0.",
      "33m/s</w>"
    ],
    [
      "TEMP_CPU=81.",
      "3°C</w>"
    ],
    [
      "81.",
      "3°C.</w>"
    ],
    [
      "BAT_VOLT=8.8",
      "1V</w>"
    ],
    [
      "8.8",
      "1V</w>"
    ],
    [
      "BAT_VOLT=9.6",
      "5V</w>"
    ],
    [
      "9.6",
      "5V</w>"
    ],
    [
      "TEMP_CPU=83.",
      "8°C</w>"
    ],
    [
      "83.",
      "8°C.</w>"
    ],
    [
      "BAT_VOLT=9.2",
      "6V</w>"
    ],
    [
      "9.2",
      "6V</w>"
    ],
    [
      "SPEED=0.",
      "21M/S</w>"
    ],
    [
      "0.",
      "21m/s</w>"
    ],
    [
      "BAT_VOLT=8.5",
      "1V</w>"
    ],
    [
      "8.5",
      "1V</w>"
    ],
    [
      "BAT_VOLT=9.",
      "4V</w>"
    ],
    [
      "9.",
      "4V</w>"
    ],
    [
      "TEMP_CPU=92.",
      "3°C</w>"
    ],
    [
      "92.",
      "3°C.</w>"
    ],
    [
      "TEMP_CPU=94.",
      "9°C</w>"
    ],
    [
      "94.",
      "9°C.</w>"
    ],
    [
      "BAT_VOLT=10.0",
      "9V</w>"
    ],
    [
      "10.0",
      "9V</w>"
    ],
    [
      "TEMP_CPU=93.",
      "7°C</w>"
    ],
    [
      "93.",
      "7°C.</w>"
    ],
    [
      "SPEED=0.9",
      "M/S</w>"
    ],
    [
      "0.9",
      "m/s</w>"
    ],
    [
      "BAT_VOLT=10.2",
      "2V</w>"
    ],
    [
      "10.2",
      "2V</w>"
    ],
    [
      "SPEED=1.",
      "49M/S</w>"
    ],
    [
      "1.",
      "49m/s</w>"
    ],
    [
      "TEMP_CPU=91.",
      "1°C</w>"
    ],
    [
      "91.",
      "1°C.</w>"
    ],
    [
      "SPEED=0.",
      "36M/S</w>"
    ],
    [
      "0.",
      "36m/s</w>"
    ],
    [
      "TEMP_CPU=84.",
      "2°C</w>"
    ],
    [
      "84.",
      "2°C.</w>"
    ],
    [
      "BAT_VOLT=9.1",
      "8V</w>"
    ],
    [
      "9.1",
      "8V</w>"
    ],
    [
      "ADDR:0x8",
      "3"
    ],
    [
      "SPEED=1.",
      "24M/S</w>"
    ],
    [
      "1.",
      "24m/s</w>"
    ],
    [
      "BAT_VOLT=9.3",
      "2V</w>"
    ],
    [
      "9.3",
      "2V</w>"
    ],
    [
      "BAT_VOLT=9.3",
      "8V</w>"
    ],
    [
      "9.3",
      "8V</w>"
    ],
    [
      "BAT_VOLT=8.6",
      "9V</w>"
    ],
    [
      "8.6",
      "9V</w>"
    ],
    [
      "BAT_VOLT=8.6",
      "3V</w>"
    ],
    [
      "8.6",
      "3V</w>"
    ],
    [
      "SPEED=0.",
      "84M/S</w>"
    ],
    [
      "0.",
      "84m/s</w>"
    ],
    [
      "TEMP_CPU=96.",
      "8°C</w>"
    ],
    [
      "96.",
      "8°C.</w>"
    ],
    [
      "ADDR:0x4",
      "3"
    ],
    [
      "TEMP_CPU=85.",
      "5°C</w>"
    ],
    [
      "85.",
      "5°C.</w>"
    ],
    [
      "TEMP_CPU=81.",
      "2°C</w>"
    ],
    [
      "81.",
      "2°C.</w>"
    ],
    [
      "TEMP_CPU=92.",
      "5°C</w>"
    ],
    [
      "92.",
      "5°C.</w>"
    ],
    [
      "BAT_VOLT=9.7",
      "2V</w>"
    ],
    [
      "9.7",
      "2V</w>"
    ],
    [
      "TEMP_CPU=82.",
      "1°C</w>"
    ],
    [
      "82.",
      "1°C.</w>"
    ],
    [
      "TEMP_CPU=95.",
      "6°C</w>"
    ],
    [
      "95.",
      "6°C.</w>"
    ],
    [
      "BAT_VOLT=10.2",
      "4V</w>"
    ],
    [
      "10.2",
      "4V</w>"
    ],
    [
      "BAT_VOLT=9.1",
      "4V</w>"
    ],
    [
      "9.1",
      "4V</w>"
    ],
    [
      "TEMP_CPU=91.",
      "5°C</w>"
    ],
    [
      "91.",
      "5°C.</w>"
    ],
    [
      "SPEED=2.",
      "18M/S</w>"
    ],
    [
      "2.",
      "18m/s</w>"
    ],
    [
      "TEMP_CPU=81.",
      "6°C</w>"
    ],
    [
      "81.",
      "6°C.</w>"
    ],
    [
      "TEMP_CPU=96.",
      "6°C</w>"
    ],
    [
      "96.",
      "6°C.</w>"
    ],
    [
      "BAT_VOLT=8.8",
      "5V</w>"
    ],
    [
      "8.8",
      "5V</w>"
    ],
    [
      "ADDR:0x1",
      "3"
    ],
    [
      "ADDR:0xC",
      "3"
    ],
    [
      "BAT_VOLT=8.7",
      "2V</w>"
    ],
    [
      "8.7",
      "2V</w>"
    ],
    [
      "TEMP_CPU=85.",
      "9°C</w>"
    ],
    [
      "85.",
      "9°C.</w>"
    ],
    [
      "BAT_VOLT=10.",
      "1V</w>"
    ],
    [
      "10.",
      "1V</w>"
    ],
    [
      "ADDR:0xF",
      "3"
    ],
    [
      "BAT_VOLT=9.9",
      "1V</w>"
    ],
    [
      "9.9",
      "1V</w>"
    ],
    [
      "BAT_VOLT=9.6",
      "8V</w>"
    ],
    [
      "9.6",
      "8V</w>"
    ],
    [
      "BAT_VOLT=9.",
      "2V</w>"
    ],
    [
      "9.",
      "2V</w>"
    ],
    [
      "SPEED=2.",
      "05M/S</w>"
    ],
    [
      "2.",
      "05m/s</w>"
    ],
    [
      "BAT_VOLT=9.7",
      "5V</w>"
    ],
    [
      "9.7",
      "5V</w>"
    ],
    [
      "BAT_VOLT=8.7",
      "6V</w>"
    ],
    [
      "8.7",
      "6V</w>"
    ],
    [
      "TEMP_CPU=87.",
      "5°C</w>"
    ],
    [
      "87.",
      "5°C.</w>"
    ],
    [
      "SPEED=1.",
      "28M/S</w>"
    ],
    [
      "1.",
      "28m/s</w>"
    ],
    [
      "SPEED=1.",
      "37M/S</w>"
    ],
    [
      "1.",
      "37m/s</w>"
    ],
    [
      "SPEED=2.",
      "4M/S</w>"
    ],
    [
      "2.",
      "4m/s</w>"
    ],
    [
      "TEMP_CPU=93.",
      "3°C</w>"
    ],
    [
      "93.",
      "3°C.</w>"
    ],
    [
      "SPEED=2.",
      "3M/S</w>"
    ],
    [
      "2.",
      "3m/s</w>"
    ],
    [
      "SPEED=0.",
      "66M/S</w>"
    ],
    [
      "0.",
      "66m/s</w>"
    ],
    [
      "BAT_VOLT=10.2",
      "1V</w>"
    ],
    [
      "10.2",
      "1V</w>"
    ],
    [
      "BAT_VOLT=9.8",
      "1V</w>"
    ],
    [
      "9.8",
      "1V</w>"
    ],
    [
      "TEMP_CPU=92.",
      "9°C</w>"
    ],
    [
      "92.",
      "9°C.</w>"
    ],
    [
      "TEMP_CPU=86.",
      "6°C</w>"
    ],
    [
      "86.",
      "6°C.</w>"
    ],
    [
      "BAT_VOLT=9.3",
      "1V</w>"
    ],
    [
      "9.3",
      "1V</w>"
    ],
    [
      "BAT_VOLT=8.6",
      "7V</w>"
    ],
    [
      "8.6",
      "7V</w>"
    ],
    [
      "BAT_VOLT=10.0",
      "5V</w>"
    ],
    [
      "10.0",
      "5V</w>"
    ],
    [
      "SPEED=0.",
[...]
