{
  "vocab_size": 2000,
  "vocab": {
    "<PAD>": 0,
    "<UNK>": 1,
    "<LOG>": 2,
    "<SEP>": 3,
    "<END>": 4,
    "%": 5,
    "(": 6,
    ")": 7,
    ",": 8,
    "-": 9,
    ".": 10,
    "/": 11,
    "0": 12,
    "1": 13,
    "2": 14,
    "3": 15,
    "4": 16,
    "5": 17,
    "6": 18,
    "7": 19,
    "8": 20,
    "9": 21,
    ":": 22,
    "</w>": 23,
    "=": 24,
    "A": 25,
    "B": 26,
    "C": 27,
    "D": 28,
    "E": 29,
    "F": 30,
    "G": 31,
    "H": 32,
    "I": 33,
    "K": 34,
    "L": 35,
    "M": 36,
    "N": 37,
    "O": 38,
    "P": 39,
    "R": 40,
    "S": 41,
    "T": 42,
    "U": 43,
    "V": 44,
    "W": 45,
    "Y": 46,
    "Z": 47,
    "[": 48,
    "]": 49,
    "_": 50,
    "a": 51,
    "b": 52,
    "c": 53,
    "d": 54,
    "e": 55,
    "f": 56,
    "g": 57,
    "h": 58,
    "i": 59,
    "j": 60,
    "k": 61,
    "l": 62,
    "m": 63,
    "n": 64,
    "o": 65,
    "p": 66,
    "r": 67,
    "s": 68,
    "t": 69,
    "u": 70,
    "v": 71,
    "x": 72,
    "y": 73,
    "z": 74,
    "|": 75,
    "°": 76,
    "Ç": 77,
    "ç": 78,
    "ü": 79,
    "ğ": 80,
    "İ": 81,
    "ı": 82,
    "ş": 83,
    "⚠": 84,
    "⚡": 85,
    "✅": 86,
    "❌": 87,
    "️": 88,
    "📍": 89,
    "📡": 90,
    "🔥": 91,
    "|</w>": 92,
    ":1": 93,
    ".</w>": 94,
    "le": 95,
    "1</w>": 96,
    "AD": 97,
    "31</w>": 98,
    "in": 99,
    "se": 100,
    "ADD": 101,
    "AL": 102,
    "]</w>": 103,
    "ADDR": 104,
    "ADDR:": 105,
    "ADDR:0": 106,
    "ADDR:0x": 107,
    "TS": 108,
    "TS:1": 109,
    "TS:16": 110,
    "TS:16:1": 111,
    "TS:16:14": 112,
    "TS:16:14:": 113,
    "TS:16:14:31</w>": 114,
    ":</w>": 115,
    "ı</w>": 116,
    "e</w>": 117,
    "a</w>": 118,
    "i</w>": 119,
    "AT": 120,
    "SI": 121,
    "er": 122,
    "iy": 123,
    "AR": 124,
    "Sİ": 125,
    "m</w>": 126,
    "de": 127,
    "BAT": 128,
    "V</w>": 129,
    "ta": 130,
    "il": 131,
    "al": 132,
    "es": 133,
    "ti": 134,
    "Tİ": 135,
    "tı": 136,
    "BAT_": 137,
    "is": 138,
    "ot": 139,
    "oto": 140,
    "T=": 141,
    "la": 142,
    "te": 143,
    "sev": 144,
    "seviy": 145,
    "seviyes": 146,
    "seviyesin": 147,
    "tif": 148,
    "S_": 149,
    "ST": 150,
    "lem": 151,
    "EM": 152,
    "GP": 153,
    "11": 154,
    "A</w>": 155,
    "10": 156,
    "RS": 157,
    "RSSI": 158,
    "dB": 159,
    "SİN": 160,
    "ko": 161,
    "ba": 162,
    "no": 163,
    "m.</w>": 164,
    "sey": 165,
    "ir": 166,
    "re": 167,
    "BAT_V": 168,
    "BAT_VO": 169,
    "BAT_VOL": 170,
    "BAT_VOLT=": 171,
    "er</w>": 172,
    "u</w>": 173,
    "sı</w>": 174,
    "ri</w>": 175,
    "L]</w>": 176,
    "tifa</w>": 177,
    "ili": 178,
    "Sis": 179,
    "Siste": 180,
    ")</w>": 181,
    "seviyesine</w>": 182,
    "OR": 183,
    "alı": 184,
    "T_": 185,
    "ARI": 186,
    "SI:</w>": 187,
    "nd": 188,
    "GPS_": 189,
    "S</w>": 190,
    "di": 191,
    "di.</w>": 192,
    "MO": 193,
    "I:</w>": 194,
    "ak": 195,
    "ut": 196,
    "TEM": 197,
    "TEMP": 198,
    "TEMP_": 199,
    "°C": 200,
    "sı": 201,
    "rı</w>": 202,
    "ma</w>": 203,
    "2.": 204,
    "0</w>": 205,
    "-11": 206,
    "9.": 207,
    "ED": 208,
    "FA": 209,
    "12.": 210,
    "FA</w>": 211,
    "[C": 212,
    "[CO": 213,
    "[COM": 214,
    "[COMM": 215,
    "[COMM_": 216,
    "[COMM_FA": 217,
    "[COMM_FAI": 218,
    "[COMM_FAIL]</w>": 219,
    "RSSI=": 220,
    "dBm</w>": 221,
    "📡</w>": 222,
    "SİNY": 223,
    "SİNYAL": 224,
    "SİNYAL</w>": 225,
    "KE": 226,
    "KESİN": 227,
    "KESİNTİ": 228,
    "KESİNTİSİ": 229,
    "KESİNTİSİ:</w>": 230,
    "RSSI</w>": 231,
    "dBm.</w>": 232,
    "Yer</w>": 233,
    "ista": 234,
    "istas": 235,
    "istasy": 236,
    "istasyo": 237,
    "istasyon": 238,
    "istasyonu</w>": 239,
    "bağ": 240,
    "bağla": 241,
    "bağlan": 242,
    "bağlantı": 243,
    "bağlantısı</w>": 244,
    "kop": 245,
    "kopt": 246,
    "koptu": 247,
    "koptu,": 248,
    "koptu,</w>": 249,
    "otono": 250,
    "otonom</w>": 251,
    "seyir": 252,
    "seyir</w>": 253,
    "dev": 254,
    "devre": 255,
    "devrede": 256,
    "devrede.</w>": 257,
    "[BAT_": 258,
    "[BAT_C": 259,
    "[BAT_CR": 260,
    "[BAT_CRI": 261,
    "[BAT_CRIT": 262,
    "[BAT_CRIT]</w>": 263,
    "⚠️": 264,
    "⚠️</w>": 265,
    "BATAR": 266,
    "BATARY": 267,
    "BATARYA</w>": 268,
    "KR": 269,
    "KRİ": 270,
    "KRİTİ": 271,
    "KRİTİK": 272,
    "KRİTİK:</w>": 273,
    "Ger": 274,
    "Gerili": 275,
    "Gerilim</w>": 276,
    "dü": 277,
    "düş": 278,
    "düşt": 279,
    "düştü": 280,
    "düştü.</w>": 281,
    "Sistem</w>": 282,
    "ac": 283,
    "acil": 284,
    "acil</w>": 285,
    "ini": 286,
    "iniş": 287,
    "iniş</w>": 288,
    "pr": 289,
    "proto": 290,
    "protoko": 291,
    "protokol": 292,
    "protokolü": 293,
    "protokolün": 294,
    "protokolünü": 295,
    "protokolünü</w>": 296,
    "(R": 297,
    "(RT": 298,
    "(RTH": 299,
    "(RTH)</w>": 300,
    "baş": 301,
    "başla": 302,
    "başlat": 303,
    "başlattı": 304,
    "başlattı.</w>": 305,
    "[S": 306,
    "[SY": 307,
    "[SYS_": 308,
    "[SYS_O": 309,
    "[SYS_OK": 310,
    "[SYS_OK]</w>": 311,
    "✅</w>": 312,
    "SİST": 313,
    "SİSTEM": 314,
    "SİSTEM</w>": 315,
    "NOR": 316,
    "NORM": 317,
    "NORMAL": 318,
    "NORMAL:</w>": 319,
    "Ba": 320,
    "Bata": 321,
    "Batar": 322,
    "Batary": 323,
    "Batarya</w>": 324,
    "seviyesind": 325,
    "seviyesinde</w>": 326,
    "ve</w>": 327,
    "telem": 328,
    "teleme": 329,
    "telemet": 330,
    "telemetri</w>": 331,
    "değ": 332,
    "değer": 333,
    "değerle": 334,
    "değerleri</w>": 335,
    "nom": 336,
    "nomin": 337,
    "nominal": 338,
    "nominal</w>": 339,
    "ar": 340,
    "aralı": 341,
    "aralık": 342,
    "aralıkta": 343,
    "aralıkta.</w>": 344,
    "[AL": 345,
    "[ALT_": 346,
    "[ALT_W": 347,
    "[ALT_WAR": 348,
    "[ALT_WARN": 349,
    "[ALT_WARN]</w>": 350,
    "ALT=": 351,
    "M</w>": 352,
    "📍</w>": 353,
    "ALÇ": 354,
    "ALÇA": 355,
    "ALÇAK": 356,
    "ALÇAK</w>": 357,
    "İR": 358,
    "İRTİ": 359,
    "İRTİFA</w>": 360,
    "UY": 361,
    "UYARI": 362,
    "UYARISI:</w>": 363,
    "İr": 364,
    "İrtifa</w>": 365,
    "Ar": 366,
    "Ara": 367,
    "Araç": 368,
    "Araç</w>": 369,
    "kr": 370,
    "kri": 371,
    "kriti": 372,
    "kritik": 373,
    "kritik</w>": 374,
    "irtifa</w>": 375,
    "eş": 376,
    "eşi": 377,
    "eşiğ": 378,
    "eşiğin": 379,
    "eşiğinin": 380,
    "eşiğinin</w>": 381,
    "altı": 382,
    "altınd": 383,
    "altında</w>": 384,
    "seyre": 385,
    "seyred": 386,
    "seyrediy": 387,
    "seyrediyo": 388,
    "seyrediyor": 389,
    "seyrediyor.</w>": 390,
    "1.": 391,
    "EED": 392,
    "[GPS_": 393,
    "[GPS_L": 394,
    "[GPS_LO": 395,
    "[GPS_LOST": 396,
    "[GPS_LOST]</w>": 397,
    "GPS_S": 398,
    "GPS_SAT": 399,
    "GPS_SAT=": 400,
    "cn": 401,
    "cnt": 402,
    "cnt</w>": 403,
    "❌</w>": 404,
    "GPS</w>": 405,
    "KA": 406,
    "KAY": 407,
    "KAYB": 408,
    "KAYBI:</w>": 409,
    "Kili": 410,
    "Kilit": 411,
    "Kilitl": 412,
    "Kilitli</w>": 413,
    "uy": 414,
    "uyd": 415,
    "uydu</w>": 416,
    "sa": 417,
    "say": 418,
    "sayı": 419,
    "sayısı</w>": 420,
    "Ata": 421,
    "Atale": 422,
    "Atalet": 423,
    "Ataletse": 424,
    "Ataletsel": 425,
    "Ataletsel</w>": 426,
    "Se": 427,
    "Sey": 428,
    "Seyr": 429,
    "Seyrü": 430,
    "Seyrüse": 431,
    "Seyrüsef": 432,
    "Seyrüsefer</w>": 433,
    "Sistem": 434,
    "Sistemi</w>": 435,
    "(I": 436,
    "(IN": 437,
    "(INS": 438,
    "(INS)</w>": 439,
    "aktif": 440,
    "aktif</w>": 441,
    "ed": 442,
    "edil": 443,
    "edildi.</w>": 444,
    "[MO": 445,
    "[MOT_": 446,
    "[MOT_ST": 447,
    "[MOT_STAL": 448,
    "[MOT_STALL]</w>": 449,
    "SP": 450,
    "SPEED": 451,
    "SPEED=": 452,
    "M/": 453,
    "M/S</w>": 454,
    "⚡</w>": 455,
    "MOT": 456,
    "MOTOR": 457,
    "MOTOR</w>": 458,
    "ARIZ": 459,
    "ARIZA": 460,
    "ARIZASI:</w>": 461,
    "İle": 462,
    "İler": 463,
    "İlerlem": 464,
    "İlerleme</w>": 465,
    "hı": 466,
    "hız": 467,
    "hızı</w>": 468,
    "m/": 469,
    "m/s": 470,
    "m/s</w>": 471,
    "ger": 472,
    "geri": 473,
    "gerile": 474,
    "geriledi.</w>": 475,
    "Moto": 476,
    "Motor": 477,
    "Motor</w>": 478,
    "bl": 479,
    "blo": 480,
    "blok": 481,
    "bloka": 482,
    "blokaj": 483,
    "blokajı</w>": 484,
    "şü": 485,
    "şüp": 486,
    "şüph": 487,
    "şüphes": 488,
    "şüphesi</w>": 489,
    "me": 490,
    "mev": 491,
    "mevc": 492,
    "mevcut": 493,
    "mevcut.</w>": 494,
    "100</w>": 495,
    "[TEMP_": 496,
    "[TEMP_H": 497,
    "[TEMP_HI": 498,
    "[TEMP_HIG": 499,
    "[TEMP_HIGH": 500,
    "[TEMP_HIGH]</w>": 501,
    "TEMP_C": 502,
    "TEMP_CP": 503,
    "TEMP_CPU": 504,
    "TEMP_CPU=": 505,
    "°C</w>": 506,
    "🔥</w>": 507,
    "ISI": 508,
    "ISI</w>": 509,
    "ALAR": 510,
    "ALARM": 511,
    "ALARMI:</w>": 512,
    "İş": 513,
    "İşlem": 514,
    "İşlemc": 515,
    "İşlemci</w>": 516,
    "sıc": 517,
    "sıcak": 518,
    "sıcakl": 519,
    "sıcaklı": 520,
    "sıcaklığ": 521,
    "sıcaklığı</w>": 522,
    "°C.</w>": 523,
    "Aş": 524,
    "Aşı": 525,
    "Aşırı</w>": 526,
    "ısı": 527,
    "ısın": 528,
    "ısınma</w>": 529,
    "ne": 530,
    "nede": 531,
    "neden": 532,
    "nedeniy": 533,
    "nedeniyle": 534,
    "nedeniyle</w>": 535,
    "so": 536,
    "soğ": 537,
    "soğut": 538,
    "soğutma</w>": 539,
    "fa": 540,
    "fan": 541,
    "fanla": 542,
    "fanları</w>": 543,
    "%100</w>": 544,
    "gü": 545,
    "güc": 546,
    "güce</w>": 547,
    "alınd": 548,
    "alındı": 549,
    "alındı.</w>": 550,
    "0.": 551,
    "11.": 552,
    "-10": 553,
    "RSSI=-11": 554,
    "8.": 555,
    "BAT_VOLT=12.": 556,
    "BAT_VOLT=9.": 557,
    "TEMP_CPU=8": 558,
    "GPS_SAT=0": 559,
    "GPS_SAT=0cnt</w>": 560,
    "0.</w>": 561,
    "GPS_SAT=1": 562,
    "GPS_SAT=1cnt</w>": 563,
    "1.</w>": 564,
    "TEMP_CPU=9": 565,
    "BAT_VOLT=11.": 566,
    "5V</w>": 567,
    "6V</w>": 568,
    "8V</w>": 569,
    "ADDR:0x6": 570,
    "3V</w>": 571,
    "ADDR:0x7": 572,
    "ADDR:0x2": 573,
    "3</w>": 574,
    "ADDR:0xB": 575,
    "ADDR:0xD": 576,
    "9V</w>": 577,
    "ADDR:0x8": 578,
    "6</w>": 579,
    "7</w>": 580,
    "7V</w>": 581,
    "4V</w>": 582,
    "5</w>": 583,
    "ADDR:0x3": 584,
    "10.": 585,
    "2</w>": 586,
    "F</w>": 587,
    "9</w>": 588,
    "4</w>": 589,
    "ADDR:0x4": 590,
    "C</w>": 591,
    "B</w>": 592,
    "ADDR:0x5": 593,
    "ADDR:0x0": 594,
    "ADDR:0xC": 595,
    "ADDR:0x9": 596,
    "E</w>": 597,
    "8</w>": 598,
    "2V</w>": 599,
    "1V</w>": 600,
    "ADDR:0xF": 601,
    "SPEED=0.": 602,
    "ADDR:0xA": 603,
    "ADDR:0xE": 604,
    "SPEED=1.": 605,
    "ADDR:0x1": 606,
    "D</w>": 607,
    "RSSI=-10": 608,
    "BAT_VOLT=8.": 609,
    "6.": 610,
    "7.": 611,
    "4.": 612,
    "5.": 613,
    "BAT_VOLT=10.": 614,
    "3.": 615,
    "SPEED=2.": 616,
    "9dBm</w>": 617,
    "9dBm.</w>": 618,
    "5dBm</w>": 619,
    "5dBm.</w>": 620,
    "36": 621,
    "48": 622,
    "35": 623,
    "21": 624,
    "ALT=7": 625,
    "6dBm</w>": 626,
    "6dBm.</w>": 627,
    "8dBm</w>": 628,
    "8dBm.</w>": 629,
    "49": 630,
    "46": 631,
    "26": 632,
    "37": 633,
    "47": 634,
    "19": 635,
    "25": 636,
    "ALT=5": 637,
    "38": 638,
    "7dBm</w>": 639,
    "7dBm.</w>": 640,
    "28": 641,
    "ALT=6": 642,
    "45": 643,
    "18": 644,
    "29": 645,
    "27": 646,
    "39": 647,
    "15": 648,
    "17": 649,
    "16": 650,
    "44": 651,
    "32": 652,
    "3M/S</w>": 653,
    "3m/s</w>": 654,
    "30": 655,
    "34": 656,
    "24": 657,
    "4°C</w>": 658,
    "4°C.</w>": 659,
    "22": 660,
    "79": 661,
    "68": 662,
    "08": 663,
    "3M</w>": 664,
    "3m.</w>": 665,
    "59": 666,
    "14": 667,
    "69": 668,
    "8°C</w>": 669,
    "8°C.</w>": 670,
    "12": 671,
    "1°C</w>": 672,
    "1°C.</w>": 673,
    "2°C</w>": 674,
    "2°C.</w>": 675,
    "78": 676,
    "5°C</w>": 677,
    "5°C.</w>": 678,
    "7°C</w>": 679,
    "7°C.</w>": 680,
    "05": 681,
    "0°C</w>": 682,
    "0°C.</w>": 683,
    "9°C</w>": 684,
    "9°C.</w>": 685,
    "6°C</w>": 686,
    "6°C.</w>": 687,
    "3°C</w>": 688,
    "3°C.</w>": 689,
    "58": 690,
    "66": 691,
    "31": 692,
    "77": 693,
    "BAT_VOLT=12.0": 694,
    "12.0": 695,
    "20": 696,
    "BAT_VOLT=12.5": 697,
    "12.5": 698,
    "40": 699,
    "55": 700,
    "41": 701,
    "CD": 702,
    "B8": 703,
    "BAT_VOLT=11.7": 704,
    "11.7": 705,
    "57": 706,
    "BE": 707,
    "42": 708,
    "BAT_VOLT=11.6": 709,
    "11.6": 710,
    "09": 711,
    "BAT_VOLT=12.4": 712,
    "12.4": 713,
    "BAT_VOLT=12.3": 714,
    "12.3": 715,
    "C9": 716,
    "FF": 717,
    "56": 718,
    "BAT_VOLT=11.9": 719,
    "11.9": 720,
    "BA": 721,
    "B9": 722,
    "E9": 723,
    "07": 724,
    "BD": 725,
    "BAT_VOLT=11.5": 726,
    "11.5": 727,
    "B6": 728,
    "BAT_VOLT=11.8": 729,
    "11.8": 730,
    "C8": 731,
    "F9": 732,
    "F8": 733,
    "06": 734,
    "FD": 735,
    "3D": 736,
    "76": 737,
    "BAT_VOLT=12.2": 738,
    "12.2": 739,
    "3A": 740,
    "E8": 741,
    "3C": 742,
    "RSSI=-109dBm</w>": 743,
    "-109dBm.</w>": 744,
    "74": 745,
    "2D": 746,
    "54": 747,
    "BAT_VOLT=12.1": 748,
    "12.1": 749,
    "3E": 750,
    "CA": 751,
    "RSSI=-115dBm</w>": 752,
    "-115dBm.</w>": 753,
    "81": 754,
    "0D": 755,
    "RSSI=-111": 756,
    "RSSI=-111dBm</w>": 757,
    "-111": 758,
    "-111dBm.</w>": 759,
    "04": 760,
    "84": 761,
    "02": 762,
    "RSSI=-112": 763,
    "RSSI=-112dBm</w>": 764,
    "-112": 765,
    "-112dBm.</w>": 766,
    "67": 767,
    "EA": 768,
    "RSSI=-108dBm</w>": 769,
    "-108dBm.</w>": 770,
    "RSSI=-113": 771,
    "RSSI=-113dBm</w>": 772,
    "-113": 773,
    "-113dBm.</w>": 774,
    "RSSI=-114": 775,
    "RSSI=-114dBm</w>": 776,
    "-114": 777,
    "-114dBm.</w>": 778,
    "RSSI=-106dBm</w>": 779,
    "-106dBm.</w>": 780,
    "FC": 781,
    "RSSI=-105dBm</w>": 782,
    "-105dBm.</w>": 783,
    "F7": 784,
    "B7": 785,
    "RSSI=-119dBm</w>": 786,
    "-119dBm.</w>": 787,
    "RSSI=-116dBm</w>": 788,
    "-116dBm.</w>": 789,
    "RSSI=-117dBm</w>": 790,
    "-117dBm.</w>": 791,
    "E7": 792,
    "RSSI=-118dBm</w>": 793,
    "-118dBm.</w>": 794,
    "2A": 795,
    "61": 796,
    "RSSI=-107dBm</w>": 797,
    "-107dBm.</w>": 798,
    "0A": 799,
    "01": 800,
    "RSSI=-110": 801,
    "RSSI=-110dBm</w>": 802,
    "-110": 803,
    "-110dBm.</w>": 804,
    "5D": 805,
    "82": 806,
    "52": 807,
    "51": 808,
    "5A": 809,
    "3F": 810,
    "TEMP_CPU=96.": 811,
    "96.": 812,
    "C7": 813,
    "TEMP_CPU=89.": 814,
    "89.": 815,
    "E6": 816,
    "TEMP_CPU=86.": 817,
    "86.": 818,
    "TEMP_CPU=91.": 819,
    "91.": 820,
    "99": 821,
    "3B": 822,
    "TEMP_CPU=82.": 823,
    "82.": 824,
    "TEMP_CPU=87.": 825,
    "87.": 826,
    "C6": 827,
    "88": 828,
    "TEMP_CPU=90.": 829,
    "90.": 830,
    "0M</w>": 831,
    "0m.</w>": 832,
    "71": 833,
    "TEMP_CPU=84.": 834,
    "84.": 835,
    "TEMP_CPU=97.": 836,
    "97.": 837,
    "CC": 838,
    "F6": 839,
    "TEMP_CPU=94.": 840,
    "94.": 841,
    "TEMP_CPU=93.": 842,
    "93.": 843,
    "BB": 844,
    "TEMP_CPU=88.": 845,
    "88.": 846,
    "4D": 847,
    "98": 848,
    "TEMP_CPU=95.": 849,
    "95.": 850,
    "TEMP_CPU=92.": 851,
    "92.": 852,
    "TEMP_CPU=85.": 853,
    "85.": 854,
    "4A": 855,
    "TEMP_CPU=83.": 856,
    "83.": 857,
    "BAT_VOLT=10.0": 858,
    "10.0": 859,
    "BAT_VOLT=9.4": 860,
    "9.4": 861,
    "EF": 862,
    "1A": 863,
    "EC": 864,
    "TEMP_CPU=81.": 865,
    "81.": 866,
    "BAT_VOLT=10.2": 867,
    "10.2": 868,
    "BAT_VOLT=9.2": 869,
    "9.2": 870,
    "EB": 871,
    "BAT_VOLT=8.6": 872,
    "8.6": 873,
    "72": 874,
    "BAT_VOLT=9.0": 875,
    "9.0": 876,
    "75": 877,
    "E5": 878,
    "64": 879,
    "FB": 880,
    "89": 881,
    "BAT_VOLT=10.3": 882,
    "10.3": 883,
    "BAT_VOLT=9.8": 884,
    "9.8": 885,
    "65": 886,
    "1D": 887,
    "A9": 888,
    "CB": 889,
    "F0": 890,
    "BAT_VOLT=8.8": 891,
    "8.8": 892,
    "BAT_VOLT=9.5": 893,
    "9.5": 894,
    "BAT_VOLT=9.6": 895,
    "9.6": 896,
    "62": 897,
    "BAT_VOLT=8.7": 898,
    "8.7": 899,
    "BAT_VOLT=8.9": 900,
    "8.9": 901,
    "BAT_VOLT=9.9": 902,
    "9.9": 903,
    "BAT_VOLT=8.5": 904,
    "8.5": 905,
    "C5": 906,
    "BAT_VOLT=9.7": 907,
    "9.7": 908,
    "7A": 909,
    "4M</w>": 910,
    "1M</w>": 911,
    "7D": 912,
    "F5": 913,
    "E0": 914,
    "BAT_VOLT=9.3": 915,
    "9.3": 916,
    "8M</w>": 917,
    "85": 918,
    "8D": 919,
    "E4": 920,
    "E2": 921,
    "BAT_VOLT=10.1": 922,
    "10.1": 923,
    "86": 924,
    "96": 925,
    "CF": 926,
    "11V</w>": 927,
    "C0": 928,
    "AA": 929,
    "DD": 930,
    "9M</w>": 931,
    "E1": 932,
    "BF": 933,
    "B5": 934,
    "B0": 935,
    "87": 936,
    "97": 937,
    "C2": 938,
    "C1": 939,
    "95": 940,
    "C4": 941,
    "7M</w>": 942,
    "94": 943,
    "BAT_VOLT=9.1": 944,
    "9.1": 945,
    "B1": 946,
    "6M</w>": 947,
    "00": 948,
    "F2": 949,
    "2M</w>": 950,
    "5M</w>": 951,
    "9D": 952,
    "B4": 953,
    "F4": 954,
    "F1": 955,
    "91": 956,
    "A6": 957,
    "A8": 958,
    "92": 959,
    "B2": 960,
    "BC": 961,
    "E3": 962,
    "A7": 963,
    "6D": 964,
    "33": 965,
    "FE": 966,
    "CE": 967,
    "A5": 968,
    "ALT=8": 969,
    "A0": 970,
    "ADDR:0xED": 971,
    "ADDR:0xBD": 972,
    "EE": 973,
    "ADDR:0x11": 974,
    "AC": 975,
    "10</w>": 976,
    "AD</w>": 977,
    "ADDR:0x10": 978,
    "ADDR:0x5D": 979,
    "A2": 980,
    "ADDR:0x0D": 981,
    "ADDR:0x8D": 982,
    "ADDR:0x1D": 983,
    "0B": 984,
    "3B</w>": 985,
    "0F": 986,
    "5B": 987,
    "ADDR:0xCD": 988,
    "ED</w>": 989,
    "ADDR:0x3D": 990,
    "6A": 991,
    "33</w>": 992,
    "ADDR:0xAD": 993,
    "ADDR:0x2D": 994,
    "9A": 995,
    "ADDR:0x4D": 996,
    "36</w>": 997,
    "34</w>": 998,
    "4C": 999,
    "32</w>": 1000,
    "4B": 1001,
    "39</w>": 1002,
    "ADDR:0x7D": 1003,
    "ADDR:0xDD": 1004,
    "0C": 1005,
    "0E": 1006,
    "8C": 1007,
    "2B": 1008,
    "38</w>": 1009,
    "ADDR:0x6D": 1010,
    "30</w>": 1011,
    "2C": 1012,
    "3F</w>": 1013,
    "60": 1014,
    "4E": 1015,
    "50": 1016,
    "3C</w>": 1017,
    "8A": 1018,
    "AF": 1019,
    "35</w>": 1020,
    "7F": 1021,
    "37</w>": 1022,
    "1E": 1023,
    "1C": 1024,
    "3D</w>": 1025,
    "3E</w>": 1026,
    "AB": 1027,
    "ADDR:0xFD": 1028,
    "AE": 1029,
    "3A</w>": 1030,
    "A1": 1031,
    "5C": 1032,
    "2E": 1033,
    "ADDR:0xFA": 1034,
    "5F": 1035,
    "4F": 1036,
    "2F": 1037,
    "A4": 1038,
    "7C": 1039,
    "6C": 1040,
    "90": 1041,
    "1B": 1042,
    "9C": 1043,
    "5E": 1044,
    "ADDR:0x9D": 1045,
    "8B": 1046,
    "70": 1047,
    "1F": 1048,
    "6F": 1049,
    "80": 1050,
    "6E": 1051,
    "7E": 1052,
    "7B": 1053,
    "8F": 1054,
    "6B": 1055,
    "9F": 1056,
    "9E": 1057,
    "9B": 1058,
    "ALT=21": 1059,
    "ALT=21M</w>": 1060,
    "21m.</w>": 1061,
    "8E": 1062,
    "C6</w>": 1063,
    "ALT=68M</w>": 1064,
    "68m.</w>": 1065,
    "ALT=80M</w>": 1066,
    "80m.</w>": 1067,
    "E4</w>": 1068,
    "F5</w>": 1069,
    "FE</w>": 1070,
    "ALT=50M</w>": 1071,
    "50m.</w>": 1072,
    "ALT=74M</w>": 1073,
    "74m.</w>": 1074,
    "E8</w>": 1075,
    "ALT=18": 1076,
    "ALT=18M</w>": 1077,
    "18m.</w>": 1078,
    "ALT=51M</w>": 1079,
    "51m.</w>": 1080,
    "ALT=61M</w>": 1081,
    "61m.</w>": 1082,
    "ADDR:0x6A": 1083,
    "11M/S</w>": 1084,
    "11m/s</w>": 1085,
    "ADDR:0x19": 1086,
    "ALT=15": 1087,
    "ALT=15M</w>": 1088,
    "15m.</w>": 1089,
    "CA</w>": 1090,
    "ALT=76M</w>": 1091,
    "76m.</w>": 1092,
    "C4</w>": 1093,
    "ADDR:0xBA": 1094,
    "ALT=83M</w>": 1095,
    "83m.</w>": 1096,
    "ALT=54M</w>": 1097,
    "54m.</w>": 1098,
    "ADDR:0xC9": 1099,
    "ALT=64M</w>": 1100,
    "64m.</w>": 1101,
    "ALT=27": 1102,
    "ALT=27M</w>": 1103,
    "27m.</w>": 1104,
    "ADDR:0x18": 1105,
    "36M/S</w>": 1106,
    "36m/s</w>": 1107,
    "ALT=20": 1108,
    "ALT=20M</w>": 1109,
    "20m.</w>": 1110,
    "ALT=32": 1111,
    "ALT=32M</w>": 1112,
    "32m.</w>": 1113,
    "ALT=46": 1114,
    "ALT=46M</w>": 1115,
    "46m.</w>": 1116,
    "ALT=58M</w>": 1117,
    "58m.</w>": 1118,
    "ALT=47": 1119,
    "ALT=47M</w>": 1120,
    "47m.</w>": 1121,
    "C5</w>": 1122,
    "ADDR:0x79": 1123,
    "ADDR:0x78": 1124,
    "ALT=71M</w>": 1125,
    "71m.</w>": 1126,
    "ALT=45": 1127,
    "ALT=45M</w>": 1128,
    "45m.</w>": 1129,
    "ALT=38": 1130,
    "ALT=38M</w>": 1131,
    "38m.</w>": 1132,
    "EC</w>": 1133,
    "ALT=16": 1134,
    "ALT=16M</w>": 1135,
    "16m.</w>": 1136,
    "ALT=29": 1137,
    "ALT=29M</w>": 1138,
    "29m.</w>": 1139,
    "ALT=44": 1140,
    "ALT=44M</w>": 1141,
    "44m.</w>": 1142,
    "23M/S</w>": 1143,
    "23m/s</w>": 1144,
    "B7</w>": 1145,
    "ADDR:0x2A": 1146,
    "ALT=25": 1147,
    "ALT=25M</w>": 1148,
    "25m.</w>": 1149,
    "ALT=73M</w>": 1150,
    "73m.</w>": 1151,
    "ADDR:0x46": 1152,
    "ALT=10": 1153,
    "ALT=10M</w>": 1154,
    "10m.</w>": 1155,
    "ALT=34": 1156,
    "ALT=34M</w>": 1157,
    "34m.</w>": 1158,
    "ALT=14": 1159,
    "ALT=14M</w>": 1160,
    "14m.</w>": 1161,
    "21M/S</w>": 1162,
    "21m/s</w>": 1163,
    "ALT=40": 1164,
    "ALT=40M</w>": 1165,
    "40m.</w>": 1166,
    "E1</w>": 1167,
    "ADDR:0x69": 1168,
    "C9</w>": 1169,
    "BF</w>": 1170,
    "ALT=60M</w>": 1171,
    "60m.</w>": 1172,
    "B2</w>": 1173,
    "EB</w>": 1174,
    "ALT=81": 1175,
    "ALT=81M</w>": 1176,
    "81m.</w>": 1177,
    "EE</w>": 1178,
    "C0</w>": 1179,
    "ALT=67M</w>": 1180,
    "67m.</w>": 1181,
    "CD</w>": 1182,
    "BA</w>": 1183,
    "4M/S</w>": 1184,
    "4m/s</w>": 1185,
    "CC</w>": 1186,
    "C1</w>": 1187,
    "ALT=55M</w>": 1188,
    "55m.</w>": 1189,
    "ADDR:0xC8": 1190,
    "ALT=78M</w>": 1191,
    "78m.</w>": 1192,
    "19M/S</w>": 1193,
    "19m/s</w>": 1194,
    "ALT=26": 1195,
    "ALT=26M</w>": 1196,
    "26m.</w>": 1197,
    "49M/S</w>": 1198,
    "49m/s</w>": 1199,
    "02M/S</w>": 1200,
    "02m/s</w>": 1201,
    "CB</w>": 1202,
    "ALT=70M</w>": 1203,
    "70m.</w>": 1204,
    "C2</w>": 1205,
    "ADDR:0x7C": 1206,
    "ALT=24": 1207,
    "ALT=24M</w>": 1208,
    "24m.</w>": 1209,
    "ALT=12": 1210,
    "ALT=12M</w>": 1211,
    "12m.</w>": 1212,
    "F2</w>": 1213,
    "BC</w>": 1214,
    "EF</w>": 1215,
    "ALT=84": 1216,
    "ALT=84M</w>": 1217,
    "84m.</w>": 1218,
    "ALT=72M</w>": 1219,
    "72m.</w>": 1220,
    "ADDR:0x38": 1221,
    "ALT=69M</w>": 1222,
    "69m.</w>": 1223,
    "ALT=35": 1224,
    "ALT=35M</w>": 1225,
    "35m.</w>": 1226,
    "ALT=59M</w>": 1227,
    "59m.</w>": 1228,
    "ALT=41": 1229,
    "ALT=41M</w>": 1230,
    "41m.</w>": 1231,
    "ALT=79M</w>": 1232,
    "79m.</w>": 1233,
    "E3</w>": 1234,
    "ALT=53M</w>": 1235,
    "53m.</w>": 1236,
    "ALT=22": 1237,
    "ALT=22M</w>": 1238,
    "22m.</w>": 1239,
    "08M/S</w>": 1240,
    "08m/s</w>": 1241,
    "B1</w>": 1242,
    "ADDR:0x89": 1243,
    "ADDR:0x58": 1244,
    "32M/S</w>": 1245,
    "32m/s</w>": 1246,
    "ALT=19": 1247,
    "ALT=19M</w>": 1248,
    "19m.</w>": 1249,
    "FD</w>": 1250,
    "ADDR:0x96": 1251,
    "A9</w>": 1252,
    "ALT=3": 1253,
    "ALT=33M</w>": 1254,
    "33m.</w>": 1255,
    "B6</w>": 1256,
    "ALT=36": 1257,
    "ALT=36M</w>": 1258,
    "36m.</w>": 1259,
    "ALT=17": 1260,
    "ALT=17M</w>": 1261,
    "17m.</w>": 1262,
    "ALT=77M</w>": 1263,
    "77m.</w>": 1264,
    "ADDR:0x5A": 1265,
    "ADDR:0x09": 1266,
    "ALT=1": 1267,
    "ALT=13M</w>": 1268,
    "13m.</w>": 1269,
    "ALT=49": 1270,
    "ALT=49M</w>": 1271,
    "49m.</w>": 1272,
    "B9</w>": 1273,
    "E5</w>": 1274,
    "ADDR:0xD9": 1275,
    "47M/S</w>": 1276,
    "47m/s</w>": 1277,
    "33M/S</w>": 1278,
    "33m/s</w>": 1279,
    "18M/S</w>": 1280,
    "18m/s</w>": 1281,
    "35M/S</w>": 1282,
    "35m/s</w>": 1283,
    "ADDR:0x56": 1284,
    "26</w>": 1285,
    "0E</w>": 1286,
    "ADDR:0x49": 1287,
    "ADDR:0x99": 1288,
    "B3</w>": 1289,
    "BB</w>": 1290,
    "B5</w>": 1291,
    "ALT=82": 1292,
    "ALT=82M</w>": 1293,
    "82m.</w>": 1294,
    "BD</w>": 1295,
    "0B</w>": 1296,
    "E9</w>": 1297,
    "F4</w>": 1298,
    "34M/S</w>": 1299,
    "34m/s</w>": 1300,
    "AC</w>": 1301,
    "48M/S</w>": 1302,
    "48m/s</w>": 1303,
    "ADDR:0x07": 1304,
    "ADDR:0x7A": 1305,
    "A7</w>": 1306,
    "E0</w>": 1307,
    "BAT_VOLT=11.71V</w>": 1308,
    "11.71V</w>": 1309,
    "B8</w>": 1310,
    "ALT=39": 1311,
    "ALT=39M</w>": 1312,
    "39m.</w>": 1313,
    "ALT=48": 1314,
    "ALT=48M</w>": 1315,
    "48m.</w>": 1316,
    "ADDR:0x77": 1317,
    "37M/S</w>": 1318,
    "37m/s</w>": 1319,
    "ADDR:0xF8": 1320,
    "ADDR:0xFC": 1321,
    "24M/S</w>": 1322,
    "24m/s</w>": 1323,
    "ADDR:0x9A": 1324,
    "22</w>": 1325,
    "28M/S</w>": 1326,
    "28m/s</w>": 1327,
    "ADDR:0x16": 1328,
    "ADDR:0xCA": 1329,
    "43M/S</w>": 1330,
    "43m/s</w>": 1331,
    "C8</w>": 1332,
    "ADDR:0x39": 1333,
    "F9</w>": 1334,
    "31M/S</w>": 1335,
    "31m/s</w>": 1336,
    "ADDR:0x8A": 1337,
    "E6</w>": 1338,
    "F1</w>": 1339,
    "01</w>": 1340,
    "ADDR:0xE6": 1341,
    "ADDR:0x29": 1342,
    "26M/S</w>": 1343,
    "26m/s</w>": 1344,
    "0F</w>": 1345,
    "22M/S</w>": 1346,
    "22m/s</w>": 1347,
    "ADDR:0xEA": 1348,
    "ALT=4": 1349,
    "ALT=43M</w>": 1350,
    "43m.</w>": 1351,
    "ADDR:0xE9": 1352,
    "ADDR:0x1A": 1353,
    "A3</w>": 1354,
    "ADDR:0x76": 1355,
    "F0</w>": 1356,
    "ADDR:0x5E": 1357,
    "ADDR:0x3A": 1358,
    "F6</w>": 1359,
    "ADDR:0xB8": 1360,
    "ADDR:0x0F": 1361,
    "04M/S</w>": 1362,
    "04m/s</w>": 1363,
    "05M/S</w>": 1364,
    "05m/s</w>": 1365,
    "29M/S</w>": 1366,
    "29m/s</w>": 1367,
    "AE</w>": 1368,
    "E7</w>": 1369,
    "44M/S</w>": 1370,
    "44m/s</w>": 1371,
    "ALT=52M</w>": 1372,
    "52m.</w>": 1373,
    "ALT=30": 1374,
    "ALT=30M</w>": 1375,
    "30m.</w>": 1376,
    "0D</w>": 1377,
    "ADDR:0x68": 1378,
    "ALT=31": 1379,
    "ALT=31M</w>": 1380,
    "F8</w>": 1381,
    "31m.</w>": 1382,
    "ADDR:0xB5": 1383,
    "12M/S</w>": 1384,
    "12m/s</w>": 1385,
    "ADDR:0xB9": 1386,
    "ADDR:0x5F": 1387,
    "ADDR:0x17": 1388,
    "A8</w>": 1389,
    "ADDR:0x88": 1390,
    "C7</w>": 1391,
    "ALT=63M</w>": 1392,
    "63m.</w>": 1393,
    "ADDR:0xDA": 1394,
    "B0</w>": 1395,
    "A4</w>": 1396,
    "42M/S</w>": 1397,
    "42m/s</w>": 1398,
    "F7</w>": 1399,
    "ALT=11": 1400,
    "ALT=11M</w>": 1401,
    "11m.</w>": 1402,
    "ADDR:0x3C": 1403,
    "ADDR:0xB7": 1404,
    "29</w>": 1405,
    "17M/S</w>": 1406,
    "17m/s</w>": 1407,
    "ADDR:0x37": 1408,
    "ALT=42": 1409,
    "ALT=42M</w>": 1410,
    "42m.</w>": 1411,
    "09</w>": 1412,
    "45M/S</w>": 1413,
    "45m/s</w>": 1414,
    "FB</w>": 1415,
    "25M/S</w>": 1416,
    "25m/s</w>": 1417,
    "ALT=66M</w>": 1418,
    "66m.</w>": 1419,
    "ADDR:0x66": 1420,
    "ADDR:0x05": 1421,
    "EA</w>": 1422,
    "CE</w>": 1423,
    "ADDR:0x98": 1424,
    "1M/S</w>": 1425,
    "1m/s</w>": 1426,
    "16M/S</w>": 1427,
    "16m/s</w>": 1428,
    "ADDR:0xFE": 1429,
    "00</w>": 1430,
    "ADDR:0xEC": 1431,
    "D9": 1432,
    "ADDR:0x26": 1433,
    "ADDR:0xBC": 1434,
    "ALT=2": 1435,
    "ALT=23M</w>": 1436,
    "23m.</w>": 1437,
    "ADDR:0xF9": 1438,
    "06M/S</w>": 1439,
    "06m/s</w>": 1440,
    "ADDR:0x80": 1441,
    "ADDR:0x1B": 1442,
    "ADDR:0xDC": 1443,
    "FF</w>": 1444,
    "ALT=37": 1445,
    "ALT=37M</w>": 1446,
    "37m.</w>": 1447,
    "ALT=65M</w>": 1448,
    "65m.</w>": 1449,
    "ADDR:0xCE": 1450,
    "ADDR:0xBE": 1451,
    "5F</w>": 1452,
    "C3</w>": 1453,
    "D6": 1454,
    "BAT_VOLT=12.26V</w>": 1455,
    "12.26V</w>": 1456,
    "ALT=75M</w>": 1457,
    "75m.</w>": 1458,
    "ADDR:0x0A": 1459,
    "ALT=57M</w>": 1460,
    "57m.</w>": 1461,
    "41M/S</w>": 1462,
    "41m/s</w>": 1463,
    "ADDR:0xB6": 1464,
    "13M/S</w>": 1465,
    "13m/s</w>": 1466,
    "AB</w>": 1467,
    "ADDR:0xA8": 1468,
    "03</w>": 1469,
    "02</w>": 1470,
    "ADDR:0xF6": 1471,
    "06</w>": 1472,
    "ADDR:0x3E": 1473,
    "2F</w>": 1474,
    "25</w>": 1475,
    "D8": 1476,
    "ADDR:0xC6": 1477,
    "BAT_VOLT=11.8V</w>": 1478,
    "11.8V</w>": 1479,
    "01M/S</w>": 1480,
    "01m/s</w>": 1481,
    "39M/S</w>": 1482,
    "39m/s</w>": 1483,
    "BAT_VOLT=11.99V</w>": 1484,
    "11.99V</w>": 1485,
    "ADDR:0xE7": 1486,
    "ADDR:0x59": 1487,
    "2A</w>": 1488,
    "ALT=28": 1489,
    "ALT=28M</w>": 1490,
    "28m.</w>": 1491,
    "BAT_VOLT=12.3V</w>": 1492,
    "12.3V</w>": 1493,
    "BAT_VOLT=12.5V</w>": 1494,
    "12.5V</w>": 1495,
    "05</w>": 1496,
    "ADDR:0x4A": 1497,
    "0C</w>": 1498,
    "07M/S</w>": 1499,
    "ADDR:0x06": 1500,
    "07m/s</w>": 1501,
    "ALT=62M</w>": 1502,
    "62m.</w>": 1503,
    "12</w>": 1504,
    "ADDR:0x08": 1505,
    "ADDR:0xA9": 1506,
    "ADDR:0x47": 1507,
    "ADDR:0xA6": 1508,
    "ADDR:0xAA": 1509,
    "CF</w>": 1510,
    "BAT_VOLT=12.58V</w>": 1511,
    "12.58V</w>": 1512,
    "BAT_VOLT=12.18V</w>": 1513,
    "12.18V</w>": 1514,
    "BAT_VOLT=12.55V</w>": 1515,
    "12.55V</w>": 1516,
    "ADDR:0xD6": 1517,
    "BAT_VOLT=11.83V</w>": 1518,
    "11.83V</w>": 1519,
    "ADDR:0x97": 1520,
    "BAT_VOLT=12.53V</w>": 1521,
    "12.53V</w>": 1522,
    "2E</w>": 1523,
    "53</w>": 1524,
    "07</w>": 1525,
    "23</w>": 1526,
    "BAT_VOLT=12.1V</w>": 1527,
    "12.1V</w>": 1528,
    "A0</w>": 1529,
    "BAT_VOLT=11.81V</w>": 1530,
    "11.81V</w>": 1531,
    "57</w>": 1532,
    "B4</w>": 1533,
    "ADDR:0x4F": 1534,
    "BAT_VOLT=12.16V</w>": 1535,
    "12.16V</w>": 1536,
    "E2</w>": 1537,
    "BAT_VOLT=12.59V</w>": 1538,
    "12.59V</w>": 1539,
    "ADDR:0xB0": 1540,
    "BAT_VOLT=11.79V</w>": 1541,
    "11.79V</w>": 1542,
    "A1</w>": 1543,
    "ADDR:0xA5": 1544,
    "ADDR:0x15": 1545,
    "ADDR:0xD5": 1546,
    "D7": 1547,
    "24</w>": 1548,
    "43</w>": 1549,
    "BAT_VOLT=12.42V</w>": 1550,
    "12.42V</w>": 1551,
    "ADDR:0x36": 1552,
    "2D</w>": 1553,
    "09M/S</w>": 1554,
    "09m/s</w>": 1555,
    "ADDR:0x4C": 1556,
    "D5</w>": 1557,
    "BAT_VOLT=11.59V</w>": 1558,
    "11.59V</w>": 1559,
    "ADDR:0x57": 1560,
    "11</w>": 1561,
    "BAT_VOLT=11.75V</w>": 1562,
    "11.75V</w>": 1563,
    "ADDR:0x70": 1564,
    "FC</w>": 1565,
    "ADDR:0x55": 1566,
    "BAT_VOLT=12.41V</w>": 1567,
    "12.41V</w>": 1568,
    "ADDR:0x75": 1569,
    "BAT_VOLT=11.61V</w>": 1570,
    "11.61V</w>": 1571,
    "56</w>": 1572,
    "BAT_VOLT=12.33V</w>": 1573,
    "12.33V</w>": 1574,
    "ADDR:0xC5": 1575,
    "2M/S</w>": 1576,
    "2m/s</w>": 1577,
    "55</w>": 1578,
    "46M/S</w>": 1579,
    "46m/s</w>": 1580,
    "2B</w>": 1581,
    "ADDR:0x9B": 1582,
    "ADDR:0xCC": 1583,
    "BAT_VOLT=12.38V</w>": 1584,
    "12.38V</w>": 1585,
    "ADDR:0xC7": 1586,
    "13</w>": 1587,
    "D4": 1588,
    "ADDR:0xE0": 1589,
    "57M/S</w>": 1590,
    "57m/s</w>": 1591,
    "F3</w>": 1592,
    "ADDR:0x48": 1593,
    "ADDR:0x95": 1594,
    "DD</w>": 1595,
    "ADDR:0x9C": 1596,
    "AA</w>": 1597,
    "ADDR:0x35": 1598,
    "28</w>": 1599,
    "ADDR:0x7E": 1600,
    "BAT_VOLT=11.7V</w>": 1601,
    "11.7V</w>": 1602,
    "59</w>": 1603,
    "ADDR:0x8C": 1604,
    "ADDR:0xCF": 1605,
    "1B</w>": 1606,
    "5C</w>": 1607,
    "ADDR:0x86": 1608,
    "03M/S</w>": 1609,
    "03m/s</w>": 1610,
    "BAT_VOLT=11.97V</w>": 1611,
    "11.97V</w>": 1612,
    "BAT_VOLT=12.47V</w>": 1613,
    "12.47V</w>": 1614,
    "BAT_VOLT=12.51V</w>": 1615,
    "12.51V</w>": 1616,
    "BAT_VOLT=12.35V</w>": 1617,
    "12.35V</w>": 1618,
    "ALT=56M</w>": 1619,
    "56m.</w>": 1620,
    "A5</w>": 1621,
    "27M/S</w>": 1622,
    "27m/s</w>": 1623,
    "ADDR:0xEE": 1624,
    "BAT_VOLT=12.04V</w>": 1625,
    "12.04V</w>": 1626,
    "4F</w>": 1627,
    "ADDR:0x0B": 1628,
    "14M/S</w>": 1629,
    "14m/s</w>": 1630,
    "21</w>": 1631,
    "1E</w>": 1632,
    "BAT_VOLT=11.64V</w>": 1633,
    "11.64V</w>": 1634,
    "ADDR:0x90": 1635,
    "ADDR:0x8E": 1636,
    "ADDR:0xE8": 1637,
    "ADDR:0x5C": 1638,
    "52</w>": 1639,
    "SPEED=0.9": 1640,
    "0.9": 1641,
    "BAT_VOLT=12.37V</w>": 1642,
    "12.37V</w>": 1643,
    "BE</w>": 1644,
    "BAT_VOLT=11.62V</w>": 1645,
    "11.62V</w>": 1646,
    "83M/S</w>": 1647,
    "83m/s</w>": 1648,
    "ADDR:0x9E": 1649,
    "20</w>": 1650,
    "18</w>": 1651,
    "0A</w>": 1652,
    "BAT_VOLT=11.56V</w>": 1653,
    "11.56V</w>": 1654,
    "ADDR:0xDF": 1655,
    "ADDR:0xD0": 1656,
    "27</w>": 1657,
    "16</w>": 1658,
    "ADDR:0xF5": 1659,
    "ADDR:0x6B": 1660,
    "ADDR:0x20": 1661,
    "BAT_VOLT=12.14V</w>": 1662,
    "12.14V</w>": 1663,
    "ADDR:0xFF": 1664,
    "BAT_VOLT=11.65V</w>": 1665,
    "11.65V</w>": 1666,
    "BAT_VOLT=12.08V</w>": 1667,
    "12.08V</w>": 1668,
    "BAT_VOLT=12.57V</w>": 1669,
    "12.57V</w>": 1670,
    "ADDR:0xAB": 1671,
    "BAT_VOLT=12.0V</w>": 1672,
    "12.0V</w>": 1673,
    "ADDR:0x1C": 1674,
    "ADDR:0x6F": 1675,
    "AF</w>": 1676,
    "ADDR:0xEF": 1677,
    "44</w>": 1678,
    "BAT_VOLT=11.94V</w>": 1679,
    "11.94V</w>": 1680,
    "5E</w>": 1681,
    "BAT_VOLT=12.44V</w>": 1682,
    "12.44V</w>": 1683,
    "2C</w>": 1684,
    "ADDR:0xD8": 1685,
    "85M/S</w>": 1686,
    "85m/s</w>": 1687,
    "BAT_VOLT=12.45V</w>": 1688,
    "12.45V</w>": 1689,
    "BAT_VOLT=12.03V</w>": 1690,
    "12.03V</w>": 1691,
    "BAT_VOLT=11.57V</w>": 1692,
    "11.57V</w>": 1693,
    "A2</w>": 1694,
    "ADDR:0xD4": 1695,
    "ADDR:0x87": 1696,
    "ADDR:0x0C": 1697,
    "BAT_VOLT=11.68V</w>": 1698,
    "11.68V</w>": 1699,
    "ADDR:0x67": 1700,
    "ADDR:0x04": 1701,
    "ADDR:0x27": 1702,
    "ADDR:0x52": 1703,
    "ADDR:0xDE": 1704,
    "ADDR:0x2B": 1705,
    "50</w>": 1706,
    "BAT_VOLT=11.73V</w>": 1707,
    "11.73V</w>": 1708,
    "ADDR:0x7F": 1709,
    "ADDR:0x8F": 1710,
    "0M/S</w>": 1711,
    "0m/s</w>": 1712,
    "ADDR:0x28": 1713,
    "BAT_VOLT=12.27V</w>": 1714,
    "12.27V</w>": 1715,
    "BAT_VOLT=12.54V</w>": 1716,
    "ADDR:0x4E": 1717,
    "12.54V</w>": 1718,
    "5D</w>": 1719,
    "BAT_VOLT=12.06V</w>": 1720,
    "12.06V</w>": 1721,
    "ADDR:0x7B": 1722,
    "BAT_VOLT=11.91V</w>": 1723,
    "11.91V</w>": 1724,
    "15</w>": 1725,
    "BAT_VOLT=11.77V</w>": 1726,
    "11.77V</w>": 1727,
    "BAT_VOLT=12.05V</w>": 1728,
    "12.05V</w>": 1729,
    "38M/S</w>": 1730,
    "38m/s</w>": 1731,
    "ADDR:0x6E": 1732,
    "47</w>": 1733,
    "15M/S</w>": 1734,
    "15m/s</w>": 1735,
    "ADDR:0x2C": 1736,
    "1D</w>": 1737,
    "ADDR:0xF0": 1738,
    "BAT_VOLT=12.22V</w>": 1739,
    "12.22V</w>": 1740,
    "ADDR:0x25": 1741,
    "ADDR:0xA7": 1742,
    "ADDR:0x3B": 1743,
    "BAT_VOLT=11.82V</w>": 1744,
    "11.82V</w>": 1745,
    "66M/S</w>": 1746,
    "66m/s</w>": 1747,
    "ADDR:0x65": 1748,
    "BAT_VOLT=12.39V</w>": 1749,
    "12.39V</w>": 1750,
    "62</w>": 1751,
    "ADDR:0x60": 1752,
    "BAT_VOLT=11.6V</w>": 1753,
    "11.6V</w>": 1754,
    "ADDR:0xC4": 1755,
    "ADDR:0x22": 1756,
    "40</w>": 1757,
    "ADDR:0x2F": 1758,
    "ADDR:0xF7": 1759,
    "BAT_VOLT=12.48V</w>": 1760,
    "12.48V</w>": 1761,
    "ADDR:0x85": 1762,
    "19</w>": 1763,
    "BAT_VOLT=11.58V</w>": 1764,
    "11.58V</w>": 1765,
    "ADDR:0xF4": 1766,
    "ADDR:0xAC": 1767,
    "BAT_VOLT=12.31V</w>": 1768,
    "12.31V</w>": 1769,
    "5M/S</w>": 1770,
    "5m/s</w>": 1771,
    "17</w>": 1772,
    "59M/S</w>": 1773,
    "59m/s</w>": 1774,
    "BAT_VOLT=12.21V</w>": 1775,
    "12.21V</w>": 1776,
    "ADDR:0xDB": 1777,
    "68M/S</w>": 1778,
    "68m/s</w>": 1779,
    "A6</w>": 1780,
    "BAT_VOLT=11.63V</w>": 1781,
    "11.63V</w>": 1782,
    "4C</w>": 1783,
    "BAT_VOLT=12.46V</w>": 1784,
    "12.46V</w>": 1785,
    "BAT_VOLT=11.9V</w>": 1786,
    "11.9V</w>": 1787,
    "79M/S</w>": 1788,
    "79m/s</w>": 1789,
    "ADDR:0xAF": 1790,
    "BAT_VOLT=11.52V</w>": 1791,
    "11.52V</w>": 1792,
    "04</w>": 1793,
    "7F</w>": 1794,
    "BAT_VOLT=11.89V</w>": 1795,
    "11.89V</w>": 1796,
    "BAT_VOLT=12.13V</w>": 1797,
    "12.13V</w>": 1798,
    "ADDR:0xE4": 1799,
    "ADDR:0x6C": 1800,
    "BAT_VOLT=12.36V</w>": 1801,
    "12.36V</w>": 1802,
    "BAT_VOLT=11.72V</w>": 1803,
    "11.72V</w>": 1804,
    "BAT_VOLT=11.95V</w>": 1805,
    "11.95V</w>": 1806,
    "ADDR:0x4B": 1807,
    "9D</w>": 1808,
    "BAT_VOLT=12.28V</w>": 1809,
    "12.28V</w>": 1810,
    "5A</w>": 1811,
    "68</w>": 1812,
    "BAT_VOLT=11.67V</w>": 1813,
    "11.67V</w>": 1814,
    "BAT_VOLT=11.93V</w>": 1815,
    "11.93V</w>": 1816,
    "ADDR:0xA0": 1817,
    "82M/S</w>": 1818,
    "82m/s</w>": 1819,
    "BAT_VOLT=11.86V</w>": 1820,
    "11.86V</w>": 1821,
    "BAT_VOLT=11.51V</w>": 1822,
    "11.51V</w>": 1823,
    "BAT_VOLT=11.78V</w>": 1824,
    "11.78V</w>": 1825,
    "51</w>": 1826,
    "BAT_VOLT=12.17V</w>": 1827,
    "12.17V</w>": 1828,
    "ADDR:0x3F": 1829,
    "1A</w>": 1830,
    "6M/S</w>": 1831,
    "6m/s</w>": 1832,
    "ADDR:0x45": 1833,
    "ADDR:0xEB": 1834,
    "4D</w>": 1835,
    "66</w>": 1836,
    "BAT_VOLT=11.98V</w>": 1837,
    "11.98V</w>": 1838,
    "BAT_VOLT=12.56V</w>": 1839,
    "12.56V</w>": 1840,
    "BAT_VOLT=11.66V</w>": 1841,
    "11.66V</w>": 1842,
    "ADDR:0xBF": 1843,
    "ADDR:0x92": 1844,
    "ADDR:0x1F": 1845,
    "81M/S</w>": 1846,
    "81m/s</w>": 1847,
    "88M/S</w>": 1848,
    "88m/s</w>": 1849,
    "BAT_VOLT=12.32V</w>": 1850,
    "12.32V</w>": 1851,
    "BAT_VOLT=11.87V</w>": 1852,
    "11.87V</w>": 1853,
    "BAT_VOLT=11.53V</w>": 1854,
    "11.53V</w>": 1855,
    "ADDR:0x5B": 1856,
    "6C</w>": 1857,
    "84M/S</w>": 1858,
    "84m/s</w>": 1859,
    "ADDR:0xAE": 1860,
    "ADDR:0x30": 1861,
    "BAT_VOLT=11.69V</w>": 1862,
    "11.69V</w>": 1863,
    "ADDR:0x1E": 1864,
    "73M/S</w>": 1865,
    "73m/s</w>": 1866,
    "BAT_VOLT=12.02V</w>": 1867,
    "12.02V</w>": 1868,
    "TEMP_CPU=91.4°C</w>": 1869,
    "91.4°C.</w>": 1870,
    "ADDR:0xE1": 1871,
    "ADDR:0xC0": 1872,
    "BAT_VOLT=12.12V</w>": 1873,
    "12.12V</w>": 1874,
    "ADDR:0x8B": 1875,
    "ADDR:0x84": 1876,
    "71M/S</w>": 1877,
    "71m/s</w>": 1878,
    "ADDR:0x64": 1879,
    "BAT_VOLT=12.07V</w>": 1880,
    "12.07V</w>": 1881,
    "ADDR:0xCB": 1882,
    "41</w>": 1883,
    "BAT_VOLT=9.27V</w>": 1884,
    "9.27V</w>": 1885,
    "BAT_VOLT=12.2V</w>": 1886,
    "12.2V</w>": 1887,
    "ADDR:0x40": 1888,
    "54</w>": 1889,
    "54M/S</w>": 1890,
    "54m/s</w>": 1891,
    "D6</w>": 1892,
    "1C</w>": 1893,
    "48</w>": 1894,
    "ADDR:0x74": 1895,
    "14</w>": 1896,
    "72</w>": 1897,
    "4B</w>": 1898,
    "BAT_VOLT=11.74V</w>": 1899,
    "11.74V</w>": 1900,
    "7A</w>": 1901,
    "72M/S</w>": 1902,
    "72m/s</w>": 1903,
    "BAT_VOLT=12.11V</w>": 1904,
    "12.11V</w>": 1905,
    "98</w>": 1906,
    "46</w>": 1907,
    "ADDR:0xA4": 1908,
    "08</w>": 1909,
    "ADDR:0x00": 1910,
    "97M/S</w>": 1911,
    "97m/s</w>": 1912,
    "58M/S</w>": 1913,
    "58m/s</w>": 1914,
    "ADDR:0x0E": 1915,
    "ADDR:0x9F": 1916,
    "61M/S</w>": 1917,
    "61m/s</w>": 1918,
    "BAT_VOLT=11.96V</w>": 1919,
    "11.96V</w>": 1920,
    "69M/S</w>": 1921,
    "69m/s</w>": 1922,
    "92M/S</w>": 1923,
    "92m/s</w>": 1924,
    "ADDR:0x62": 1925,
    "94M/S</w>": 1926,
    "94m/s</w>": 1927,
    "D0</w>": 1928,
    "5B</w>": 1929,
    "4A</w>": 1930,
    "63</w>": 1931,
    "BAT_VOLT=11.84V</w>": 1932,
    "11.84V</w>": 1933,
    "4E</w>": 1934,
    "55M/S</w>": 1935,
    "55m/s</w>": 1936,
    "BAT_VOLT=12.49V</w>": 1937,
    "12.49V</w>": 1938,
    "ADDR:0xBB": 1939,
    "DC</w>": 1940,
    "1F</w>": 1941,
    "98M/S</w>": 1942,
    "98m/s</w>": 1943,
    "BAT_VOLT=12.52V</w>": 1944,
    "12.52V</w>": 1945,
    "BAT_VOLT=12.09V</w>": 1946,
    "12.09V</w>": 1947,
    "D3</w>": 1948,
    "D8</w>": 1949,
    "ADDR:0xE5": 1950,
    "DB</w>": 1951,
    "BAT_VOLT=12.19V</w>": 1952,
    "12.19V</w>": 1953,
    "64</w>": 1954,
    "58</w>": 1955,
    "BAT_VOLT=12.23V</w>": 1956,
    "12.23V</w>": 1957,
    "TEMP_CPU=84.5°C</w>": 1958,
    "84.5°C.</w>": 1959,
    "BAT_VOLT=11.54V</w>": 1960,
    "11.54V</w>": 1961,
    "78M/S</w>": 1962,
    "78m/s</w>": 1963,
    "ADDR:0x91": 1964,
    "ADDR:0xB2": 1965,
    "BAT_VOLT=12.15V</w>": 1966,
    "12.15V</w>": 1967,
    "ADDR:0x32": 1968,
    "ADDR:0x54": 1969,
    "49</w>": 1970,
    "79</w>": 1971,
    "87M/S</w>": 1972,
    "87m/s</w>": 1973,
    "8C</w>": 1974,
    "91M/S</w>": 1975,
    "91m/s</w>": 1976,
    "7D</w>": 1977,
    "ADDR:0xD2": 1978,
    "ADDR:0x42": 1979,
    "BAT_VOLT=9.44V</w>": 1980,
    "9.44V</w>": 1981,
    "ADDR:0x2E": 1982,
    "ADDR:0xFB": 1983,
    "BAT_VOLT=12.4V</w>": 1984,
    "12.4V</w>": 1985,
    "ADDR:0xC2": 1986,
    "TEMP_CPU=82.0°C</w>": 1987,
    "82.0°C.</w>": 1988,
    "74</w>": 1989,
    "62M/S</w>": 1990,
    "62m/s</w>": 1991,
    "DF</w>": 1992,
    "BAT_VOLT=11.76V</w>": 1993,
    "11.76V</w>": 1994,
    "TEMP_CPU=89.3°C</w>": 1995,
    "89.3°C.</w>": 1996,
    "52M/S</w>": 1997,
    "52m/s</w>": 1998,
    "DA</w>": 1999
  },
  "merges": [
    [
      "|",
      "</w>"
    ],
    [
      ":",
      "1"
    ],
    [
      ".",
      "</w>"
    ],
    [
      "l",
      "e"
    ],
    [
      "1",
      "</w>"
    ],
    [
      "A",
      "D"
    ],
    [
      "3",
      "1</w>"
    ],
    [
      "i",
      "n"
    ],
    [
      "s",
      "e"
    ],
    [
      "AD",
      "D"
    ],
    [
      "A",
      "L"
    ],
    [
      "]",
      "</w>"
    ],
    [
      "ADD",
      "R"
    ],
    [
      "ADDR",
      ":"
    ],
    [
      "ADDR:",
      "0"
    ],
    [
      "ADDR:0",
      "x"
    ],
    [
      "T",
      "S"
    ],
    [
      "TS",
      ":1"
    ],
    [
      "TS:1",
      "6"
    ],
    [
      "TS:16",
      ":1"
    ],
    [
      "TS:16:1",
      "4"
    ],
    [
      "TS:16:14",
      ":"
    ],
    [
      "TS:16:14:",
      "31</w>"
    ],
    [
      ":",
      "</w>"
    ],
    [
      "ı",
      "</w>"
    ],
    [
      "e",
      "</w>"
    ],
    [
      "a",
      "</w>"
    ],
    [
      "i",
      "</w>"
    ],
    [
      "A",
      "T"
    ],
    [
      "S",
      "I"
    ],
    [
      "e",
      "r"
    ],
    [
      "i",
      "y"
    ],
    [
      "A",
      "R"
    ],
    [
      "S",
      "İ"
    ],
    [
      "m",
      "</w>"
    ],
    [
      "d",
      "e"
    ],
    [
      "B",
      "AT"
    ],
    [
      "V",
      "</w>"
    ],
    [
      "t",
      "a"
    ],
    [
      "i",
      "l"
    ],
    [
      "a",
      "l"
    ],
    [
      "e",
      "s"
    ],
    [
      "t",
      "i"
    ],
    [
      "T",
      "İ"
    ],
    [
      "t",
      "ı"
    ],
    [
      "BAT",
      "_"
    ],
    [
      "i",
      "s"
    ],
    [
      "o",
      "t"
    ],
    [
      "ot",
      "o"
    ],
    [
      "T",
      "="
    ],
    [
      "l",
      "a"
    ],
    [
      "t",
      "e"
    ],
    [
      "se",
      "v"
    ],
    [
      "sev",
      "iy"
    ],
    [
      "seviy",
      "es"
    ],
    [
      "seviyes",
      "in"
    ],
    [
      "ti",
      "f"
    ],
    [
      "S",
      "_"
    ],
    [
      "S",
      "T"
    ],
    [
      "le",
      "m"
    ],
    [
      "E",
      "M"
    ],
    [
      "G",
      "P"
    ],
    [
      "1",
      "1"
    ],
    [
      "A",
      "</w>"
    ],
    [
      "1",
      "0"
    ],
    [
      "R",
      "S"
    ],
    [
      "RS",
      "SI"
    ],
    [
      "d",
      "B"
    ],
    [
      "Sİ",
      "N"
    ],
    [
      "k",
      "o"
    ],
    [
      "b",
      "a"
    ],
    [
      "n",
      "o"
    ],
    [
      "m",
      ".</w>"
    ],
    [
      "se",
      "y"
    ],
    [
      "i",
      "r"
    ],
    [
      "r",
      "e"
    ],
    [
      "BAT_",
      "V"
    ],
    [
      "BAT_V",
      "O"
    ],
    [
      "BAT_VO",
      "L"
    ],
    [
      "BAT_VOL",
      "T="
    ],
    [
      "er",
      "</w>"
    ],
    [
      "u",
      "</w>"
    ],
    [
      "s",
      "ı</w>"
    ],
    [
      "r",
      "i</w>"
    ],
    [
      "L",
      "]</w>"
    ],
    [
      "tif",
      "a</w>"
    ],
    [
      "il",
      "i"
    ],
    [
      "S",
      "is"
    ],
    [
      "Sis",
      "te"
    ],
    [
      ")",
      "</w>"
    ],
    [
      "seviyesin",
      "e</w>"
    ],
    [
      "O",
      "R"
    ],
    [
      "al",
      "ı"
    ],
    [
      "T",
      "_"
    ],
    [
      "AR",
      "I"
    ],
    [
      "SI",
      ":</w>"
    ],
    [
      "n",
      "d"
    ],
    [
      "GP",
      "S_"
    ],
    [
      "S",
      "</w>"
    ],
    [
      "d",
      "i"
    ],
    [
      "di",
      ".</w>"
    ],
    [
      "M",
      "O"
    ],
    [
      "I",
      ":</w>"
    ],
    [
      "a",
      "k"
    ],
    [
      "u",
      "t"
    ],
    [
      "T",
      "EM"
    ],
    [
      "TEM",
      "P"
    ],
    [
      "TEMP",
      "_"
    ],
    [
      "°",
      "C"
    ],
    [
      "s",
      "ı"
    ],
    [
      "r",
      "ı</w>"
    ],
    [
      "m",
      "a</w>"
    ],
    [
      "2",
      "."
    ],
    [
      "0",
      "</w>"
    ],
    [
      "-",
      "11"
    ],
    [
      "9",
      "."
    ],
    [
      "E",
      "D"
    ],
    [
      "F",
      "A"
    ],
    [
      "1",
      "2."
    ],
    [
      "F",
      "A</w>"
    ],
    [
      "[",
      "C"
    ],
    [
      "[C",
      "O"
    ],
    [
      "[CO",
      "M"
    ],
    [
      "[COM",
      "M"
    ],
    [
      "[COMM",
      "_"
    ],
    [
      "[COMM_",
      "FA"
    ],
    [
      "[COMM_FA",
      "I"
    ],
    [
      "[COMM_FAI",
      "L]</w>"
    ],
    [
      "RSSI",
      "="
    ],
    [
      "dB",
      "m</w>"
    ],
    [
      "📡",
      "</w>"
    ],
    [
      "SİN",
      "Y"
    ],
    [
      "SİNY",
      "AL"
    ],
    [
      "SİNYAL",
      "</w>"
    ],
    [
      "K",
      "E"
    ],
    [
      "KE",
      "SİN"
    ],
    [
      "KESİN",
      "Tİ"
    ],
    [
      "KESİNTİ",
      "Sİ"
    ],
    [
      "KESİNTİSİ",
      ":</w>"
    ],
    [
      "RSSI",
      "</w>"
    ],
    [
      "dB",
      "m.</w>"
    ],
    [
      "Y",
      "er</w>"
    ],
    [
      "is",
      "ta"
    ],
    [
      "ista",
      "s"
    ],
    [
      "istas",
      "y"
    ],
    [
      "istasy",
      "o"
    ],
    [
      "istasyo",
      "n"
    ],
    [
      "istasyon",
      "u</w>"
    ],
    [
      "ba",
      "ğ"
    ],
    [
      "bağ",
      "la"
    ],
    [
      "bağla",
      "n"
    ],
    [
      "bağlan",
      "tı"
    ],
    [
      "bağlantı",
      "sı</w>"
    ],
    [
      "ko",
      "p"
    ],
    [
      "kop",
      "t"
    ],
    [
      "kopt",
      "u"
    ],
    [
      "koptu",
      ","
    ],
    [
      "koptu,",
      "</w>"
    ],
    [
      "oto",
      "no"
    ],
    [
      "otono",
      "m</w>"
    ],
    [
      "sey",
      "ir"
    ],
    [
      "seyir",
      "</w>"
    ],
    [
      "de",
      "v"
    ],
    [
      "dev",
      "re"
    ],
    [
      "devre",
      "de"
    ],
    [
      "devrede",
      ".</w>"
    ],
    [
      "[",
      "BAT_"
    ],
    [
      "[BAT_",
      "C"
    ],
    [
      "[BAT_C",
      "R"
    ],
    [
      "[BAT_CR",
      "I"
    ],
    [
      "[BAT_CRI",
      "T"
    ],
    [
      "[BAT_CRIT",
      "]</w>"
    ],
    [
      "⚠",
      "️"
    ],
    [
      "⚠️",
      "</w>"
    ],
    [
      "BAT",
      "AR"
    ],
    [
      "BATAR",
      "Y"
    ],
    [
      "BATARY",
      "A</w>"
    ],
    [
      "K",
      "R"
    ],
    [
      "KR",
      "İ"
    ],
    [
      "KRİ",
      "Tİ"
    ],
    [
      "KRİTİ",
      "K"
    ],
    [
      "KRİTİK",
      ":</w>"
    ],
    [
      "G",
      "er"
    ],
    [
      "Ger",
      "ili"
    ],
    [
      "Gerili",
      "m</w>"
    ],
    [
      "d",
      "ü"
    ],
    [
      "dü",
      "ş"
    ],
    [
      "düş",
      "t"
    ],
    [
      "düşt",
      "ü"
    ],
    [
      "düştü",
      ".</w>"
    ],
    [
      "Siste",
      "m</w>"
    ],
    [
      "a",
      "c"
    ],
    [
      "ac",
      "il"
    ],
    [
      "acil",
      "</w>"
    ],
    [
      "in",
      "i"
    ],
    [
      "ini",
      "ş"
    ],
    [
      "iniş",
      "</w>"
    ],
    [
      "p",
      "r"
    ],
    [
      "pr",
      "oto"
    ],
    [
      "proto",
      "ko"
    ],
    [
      "protoko",
      "l"
    ],
    [
      "protokol",
      "ü"
    ],
    [
      "protokolü",
      "n"
    ],
    [
      "protokolün",
      "ü"
    ],
    [
      "protokolünü",
      "</w>"
    ],
    [
      "(",
      "R"
    ],
    [
      "(R",
      "T"
    ],
    [
      "(RT",
      "H"
    ],
    [
      "(RTH",
      ")</w>"
    ],
    [
      "ba",
      "ş"
    ],
    [
      "baş",
      "la"
    ],
    [
      "başla",
      "t"
    ],
    [
      "başlat",
      "tı"
    ],
    [
      "başlattı",
      ".</w>"
    ],
    [
      "[",
      "S"
    ],
    [
      "[S",
      "Y"
    ],
    [
      "[SY",
      "S_"
    ],
    [
      "[SYS_",
      "O"
    ],
    [
      "[SYS_O",
      "K"
    ],
    [
      "[SYS_OK",
      "]</w>"
    ],
    [
      "✅",
      "</w>"
    ],
    [
      "Sİ",
      "ST"
    ],
    [
      "SİST",
      "EM"
    ],
    [
      "SİSTEM",
      "</w>"
    ],
    [
      "N",
      "OR"
    ],
    [
      "NOR",
      "M"
    ],
    [
      "NORM",
      "AL"
    ],
    [
      "NORMAL",
      ":</w>"
    ],
    [
      "B",
      "a"
    ],
    [
      "Ba",
      "ta"
    ],
    [
      "Bata",
      "r"
    ],
    [
      "Batar",
      "y"
    ],
    [
      "Batary",
      "a</w>"
    ],
    [
      "seviyesin",
      "d"
    ],
    [
      "seviyesind",
      "e</w>"
    ],
    [
      "v",
      "e</w>"
    ],
    [
      "te",
      "lem"
    ],
    [
      "telem",
      "e"
    ],
    [
      "teleme",
      "t"
    ],
    [
      "telemet",
      "ri</w>"
    ],
    [
      "de",
      "ğ"
    ],
    [
      "değ",
      "er"
    ],
    [
      "değer",
      "le"
    ],
    [
      "değerle",
      "ri</w>"
    ],
    [
      "no",
      "m"
    ],
    [
      "nom",
      "in"
    ],
    [
      "nomin",
      "al"
    ],
    [
      "nominal",
      "</w>"
    ],
    [
      "a",
      "r"
    ],
    [
      "ar",
      "alı"
    ],
    [
      "aralı",
      "k"
    ],
    [
      "aralık",
      "ta"
    ],
    [
      "aralıkta",
      ".</w>"
    ],
    [
      "[",
      "AL"
    ],
    [
      "[AL",
      "T_"
    ],
    [
      "[ALT_",
      "W"
    ],
    [
      "[ALT_W",
      "AR"
    ],
    [
      "[ALT_WAR",
      "N"
    ],
    [
      "[ALT_WARN",
      "]</w>"
    ],
    [
      "AL",
      "T="
    ],
    [
      "M",
      "</w>"
    ],
    [
      "📍",
      "</w>"
    ],
    [
      "AL",
      "Ç"
    ],
    [
      "ALÇ",
      "A"
    ],
    [
      "ALÇA",
      "K"
    ],
    [
      "ALÇAK",
      "</w>"
    ],
    [
      "İ",
      "R"
    ],
    [
      "İR",
      "Tİ"
    ],
    [
      "İRTİ",
      "FA</w>"
    ],
    [
      "U",
      "Y"
    ],
    [
      "UY",
      "ARI"
    ],
    [
      "UYARI",
      "SI:</w>"
    ],
    [
      "İ",
      "r"
    ],
    [
      "İr",
      "tifa</w>"
    ],
    [
      "A",
      "r"
    ],
    [
      "Ar",
      "a"
    ],
    [
      "Ara",
      "ç"
    ],
    [
      "Araç",
      "</w>"
    ],
    [
      "k",
      "r"
    ],
    [
      "kr",
      "i"
    ],
    [
      "kri",
      "ti"
    ],
    [
      "kriti",
      "k"
    ],
    [
      "kritik",
      "</w>"
    ],
    [
      "ir",
      "tifa</w>"
    ],
    [
      "e",
      "ş"
    ],
    [
      "eş",
      "i"
    ],
    [
      "eşi",
      "ğ"
    ],
    [
      "eşiğ",
      "in"
    ],
    [
      "eşiğin",
      "in"
    ],
    [
      "eşiğinin",
      "</w>"
    ],
    [
      "al",
      "tı"
    ],
    [
      "altı",
      "nd"
    ],
    [
      "altınd",
      "a</w>"
    ],
    [
      "sey",
      "re"
    ],
    [
      "seyre",
      "d"
    ],
    [
      "seyred",
      "iy"
    ],
    [
      "seyrediy",
      "o"
    ],
    [
      "seyrediyo",
      "r"
    ],
    [
      "seyrediyor",
      ".</w>"
    ],
    [
      "1",
      "."
    ],
    [
      "E",
      "ED"
    ],
    [
      "[",
      "GPS_"
    ],
    [
      "[GPS_",
      "L"
    ],
    [
      "[GPS_L",
      "O"
    ],
    [
      "[GPS_LO",
      "ST"
    ],
    [
      "[GPS_LOST",
      "]</w>"
    ],
    [
      "GPS_",
      "S"
    ],
    [
      "GPS_S",
      "AT"
    ],
    [
      "GPS_SAT",
      "="
    ],
    [
      "c",
      "n"
    ],
    [
      "cn",
      "t"
    ],
    [
      "cnt",
      "</w>"
    ],
    [
      "❌",
      "</w>"
    ],
    [
      "GP",
      "S</w>"
    ],
    [
      "K",
      "A"
    ],
    [
      "KA",
      "Y"
    ],
    [
      "KAY",
      "B"
    ],
    [
      "KAYB",
      "I:</w>"
    ],
    [
      "K",
      "ili"
    ],
    [
      "Kili",
      "t"
    ],
    [
      "Kilit",
      "l"
    ],
    [
      "Kilitl",
      "i</w>"
    ],
    [
      "u",
      "y"
    ],
    [
      "uy",
      "d"
    ],
    [
      "uyd",
      "u</w>"
    ],
    [
      "s",
      "a"
    ],
    [
      "sa",
      "y"
    ],
    [
      "say",
      "ı"
    ],
    [
      "sayı",
      "sı</w>"
    ],
    [
      "A",
      "ta"
    ],
    [
      "Ata",
      "le"
    ],
    [
      "Atale",
      "t"
    ],
    [
      "Atalet",
      "se"
    ],
    [
      "Ataletse",
      "l"
    ],
    [
      "Ataletsel",
      "</w>"
    ],
    [
      "S",
      "e"
    ],
    [
      "Se",
      "y"
    ],
    [
      "Sey",
      "r"
    ],
    [
      "Seyr",
      "ü"
    ],
    [
      "Seyrü",
      "se"
    ],
    [
      "Seyrüse",
      "f"
    ],
    [
      "Seyrüsef",
      "er</w>"
    ],
    [
      "Siste",
      "m"
    ],
    [
      "Sistem",
      "i</w>"
    ],
    [
      "(",
      "I"
    ],
    [
      "(I",
      "N"
    ],
    [
      "(IN",
      "S"
    ],
    [
      "(INS",
      ")</w>"
    ],
    [
      "ak",
      "tif"
    ],
    [
      "aktif",
      "</w>"
    ],
    [
      "e",
      "d"
    ],
    [
      "ed",
      "il"
    ],
    [
      "edil",
      "di.</w>"
    ],
    [
      "[",
      "MO"
    ],
    [
      "[MO",
      "T_"
    ],
    [
      "[MOT_",
      "ST"
    ],
    [
      "[MOT_ST",
      "AL"
    ],
    [
      "[MOT_STAL",
      "L]</w>"
    ],
    [
      "S",
      "P"
    ],
    [
      "SP",
      "EED"
    ],
    [
      "SPEED",
      "="
    ],
    [
      "M",
      "/"
    ],
    [
      "M/",
      "S</w>"
    ],
    [
      "⚡",
      "</w>"
    ],
    [
      "MO",
      "T"
    ],
    [
      "MOT",
      "OR"
    ],
    [
      "MOTOR",
      "</w>"
    ],
    [
      "ARI",
      "Z"
    ],
    [
      "ARIZ",
      "A"
    ],
    [
      "ARIZA",
      "SI:</w>"
    ],
    [
      "İ",
      "le"
    ],
    [
      "İle",
      "r"
    ],
    [
      "İler",
      "lem"
    ],
    [
      "İlerlem",
      "e</w>"
    ],
    [
      "h",
      "ı"
    ],
    [
      "hı",
      "z"
    ],
    [
      "hız",
      "ı</w>"
    ],
    [
      "m",
      "/"
    ],
    [
      "m/",
      "s"
    ],
    [
      "m/s",
      "</w>"
    ],
    [
      "g",
      "er"
    ],
    [
      "ger",
      "i"
    ],
    [
      "geri",
      "le"
    ],
    [
      "gerile",
      "di.</w>"
    ],
    [
      "M",
      "oto"
    ],
    [
      "Moto",
      "r"
    ],
    [
      "Motor",
      "</w>"
    ],
    [
      "b",
      "l"
    ],
    [
      "bl",
      "o"
    ],
    [
      "blo",
      "k"
    ],
    [
      "blok",
      "a"
    ],
    [
      "bloka",
      "j"
    ],
    [
      "blokaj",
      "ı</w>"
    ],
    [
      "ş",
      "ü"
    ],
    [
      "şü",
      "p"
    ],
    [
      "şüp",
      "h"
    ],
    [
      "şüph",
      "es"
    ],
    [
      "şüphes",
      "i</w>"
    ],
    [
      "m",
      "e"
    ],
    [
      "me",
      "v"
    ],
    [
      "mev",
      "c"
    ],
    [
      "mevc",
      "ut"
    ],
    [
      "mevcut",
      ".</w>"
    ],
    [
      "10",
      "0</w>"
    ],
    [
      "[",
      "TEMP_"
    ],
    [
      "[TEMP_",
      "H"
    ],
    [
      "[TEMP_H",
      "I"
    ],
    [
      "[TEMP_HI",
      "G"
    ],
    [
      "[TEMP_HIG",
      "H"
    ],
    [
      "[TEMP_HIGH",
      "]</w>"
    ],
    [
      "TEMP_",
      "C"
    ],
    [
      "TEMP_C",
      "P"
    ],
    [
      "TEMP_CP",
      "U"
    ],
    [
      "TEMP_CPU",
      "="
    ],
    [
      "°C",
      "</w>"
    ],
    [
      "🔥",
      "</w>"
    ],
    [
      "I",
      "SI"
    ],
    [
      "ISI",
      "</w>"
    ],
    [
      "AL",
      "AR"
    ],
    [
      "ALAR",
      "M"
    ],
    [
      "ALARM",
      "I:</w>"
    ],
    [
      "İ",
      "ş"
    ],
    [
      "İş",
      "lem"
    ],
    [
      "İşlem",
      "c"
    ],
    [
      "İşlemc",
      "i</w>"
    ],
    [
      "sı",
      "c"
    ],
    [
      "sıc",
      "ak"
    ],
    [
      "sıcak",
      "l"
    ],
    [
      "sıcakl",
      "ı"
    ],
    [
      "sıcaklı",
      "ğ"
    ],
    [
      "sıcaklığ",
      "ı</w>"
    ],
    [
      "°C",
      ".</w>"
    ],
    [
      "A",
      "ş"
    ],
    [
      "Aş",
      "ı"
    ],
    [
      "Aşı",
      "rı</w>"
    ],
    [
      "ı",
      "sı"
    ],
    [
      "ısı",
      "n"
    ],
    [
      "ısın",
      "ma</w>"
    ],
    [
      "n",
      "e"
    ],
    [
      "ne",
      "de"
    ],
    [
      "nede",
      "n"
    ],
    [
      "neden",
      "iy"
    ],
    [
      "nedeniy",
      "le"
    ],
    [
      "nedeniyle",
      "</w>"
    ],
    [
      "s",
      "o"
    ],
    [
      "so",
      "ğ"
    ],
    [
      "soğ",
      "ut"
    ],
    [
      "soğut",
      "ma</w>"
    ],
    [
      "f",
      "a"
    ],
    [
      "fa",
      "n"
    ],
    [
      "fan",
      "la"
    ],
    [
      "fanla",
      "rı</w>"
    ],
    [
      "%",
      "100</w>"
    ],
    [
      "g",
      "ü"
    ],
    [
      "gü",
      "c"
    ],
    [
      "güc",
      "e</w>"
    ],
    [
      "alı",
      "nd"
    ],
    [
      "alınd",
      "ı"
    ],
    [
      "alındı",
      ".</w>"
    ],
    [
      "0",
      "."
    ],
    [
      "11",
      "."
    ],
    [
      "-",
      "10"
    ],
    [
      "RSSI=",
      "-11"
    ],
    [
      "8",
      "."
    ],
    [
      "BAT_VOLT=",
      "12."
    ],
    [
      "BAT_VOLT=",
      "9."
    ],
    [
      "TEMP_CPU=",
      "8"
    ],
    [
      "GPS_SAT=",
      "0"
    ],
    [
      "GPS_SAT=0",
      "cnt</w>"
    ],
    [
      "0",
      ".</w>"
    ],
    [
      "GPS_SAT=",
      "1"
    ],
    [
      "GPS_SAT=1",
      "cnt</w>"
    ],
    [
      "1",
      ".</w>"
    ],
    [
      "TEMP_CPU=",
      "9"
    ],
    [
      "BAT_VOLT=",
      "11."
    ],
    [
      "5",
      "V</w>"
    ],
    [
      "6",
      "V</w>"
    ],
    [
      "8",
      "V</w>"
    ],
    [
      "ADDR:0x",
      "6"
    ],
    [
      "3",
      "V</w>"
    ],
    [
      "ADDR:0x",
      "7"
    ],
    [
      "ADDR:0x",
      "2"
    ],
    [
      "3",
      "</w>"
    ],
    [
      "ADDR:0x",
      "B"
    ],
    [
      "ADDR:0x",
      "D"
    ],
    [
      "9",
      "V</w>"
    ],
    [
      "ADDR:0x",
      "8"
    ],
    [
      "6",
      "</w>"
    ],
    [
      "7",
      "</w>"
    ],
    [
      "7",
      "V</w>"
    ],
    [
      "4",
      "V</w>"
    ],
    [
      "5",
      "</w>"
    ],
    [
      "ADDR:0x",
      "3"
    ],
    [
      "10",
      "."
    ],
    [
      "2",
      "</w>"
    ],
    [
      "F",
      "</w>"
    ],
    [
      "9",
      "</w>"
    ],
    [
      "4",
      "</w>"
    ],
    [
      "ADDR:0x",
      "4"
    ],
    [
      "C",
      "</w>"
    ],
    [
      "B",
      "</w>"
    ],
    [
      "ADDR:0x",
      "5"
    ],
    [
      "ADDR:0x",
      "0"
    ],
    [
      "ADDR:0x",
      "C"
    ],
    [
      "ADDR:0x",
      "9"
    ],
    [
      "E",
      "</w>"
    ],
    [
      "8",
      "</w>"
    ],
    [
      "2",
      "V</w>"
    ],
    [
      "1",
      "V</w>"
    ],
    [
      "ADDR:0x",
      "F"
    ],
    [
      "SPEED=",
      "0."
    ],
    [
      "ADDR:0x",
      "A"
    ],
    [
      "ADDR:0x",
      "E"
    ],
    [
      "SPEED=",
      "1."
    ],
    [
      "ADDR:0x",
      "1"
    ],
    [
      "D",
      "</w>"
    ],
    [
      "RSSI=",
      "-10"
    ],
    [
      "BAT_VOLT=",
      "8."
    ],
    [
      "6",
      "."
    ],
    [
      "7",
      "."
    ],
    [
      "4",
      "."
    ],
    [
      "5",
      "."
    ],
    [
      "BAT_VOLT=",
      "10."
    ],
    [
      "3",
      "."
    ],
    [
      "SPEED=",
      "2."
    ],
    [
      "9",
      "dBm</w>"
    ],
    [
      "9",
      "dBm.</w>"
    ],
    [
      "5",
      "dBm</w>"
    ],
    [
      "5",
      "dBm.</w>"
    ],
    [
      "3",
      "6"
    ],
    [
      "4",
      "8"
    ],
    [
      "3",
      "5"
    ],
    [
      "2",
      "1"
    ],
    [
      "ALT=",
      "7"
    ],
    [
      "6",
      "dBm</w>"
    ],
    [
      "6",
      "dBm.</w>"
    ],
    [
      "8",
      "dBm</w>"
    ],
    [
      "8",
      "dBm.</w>"
    ],
    [
      "4",
      "9"
    ],
    [
      "4",
      "6"
    ],
    [
      "2",
      "6"
    ],
    [
      "3",
      "7"
    ],
    [
      "4",
      "7"
    ],
    [
      "1",
      "9"
    ],
    [
      "2",
      "5"
    ],
    [
      "ALT=",
      "5"
    ],
    [
      "3",
      "8"
    ],
    [
      "7",
      "dBm</w>"
    ],
    [
      "7",
      "dBm.</w>"
    ],
    [
      "2",
      "8"
    ],
    [
      "ALT=",
      "6"
    ],
    [
      "4",
      "5"
    ],
    [
      "1",
      "8"
    ],
    [
      "2",
      "9"
    ],
    [
      "2",
      "7"
    ],
    [
      "3",
      "9"
    ],
    [
      "1",
      "5"
    ],
    [
      "1",
      "7"
    ],
    [
      "1",
      "6"
    ],
    [
      "4",
      "4"
    ],
    [
      "3",
      "2"
    ],
    [
      "3",
      "M/S</w>"
    ],
    [
      "3",
      "m/s</w>"
    ],
    [
      "3",
      "0"
    ],
    [
      "3",
      "4"
    ],
    [
      "2",
      "4"
    ],
    [
      "4",
      "°C</w>"
    ],
    [
      "4",
      "°C.</w>"
    ],
    [
      "2",
      "2"
    ],
    [
      "7",
      "9"
    ],
    [
      "6",
      "8"
    ],
    [
      "0",
      "8"
    ],
    [
      "3",
      "M</w>"
    ],
    [
      "3",
      "m.</w>"
    ],
    [
      "5",
      "9"
    ],
    [
      "1",
      "4"
    ],
    [
      "6",
      "9"
    ],
    [
      "8",
      "°C</w>"
    ],
    [
      "8",
      "°C.</w>"
    ],
    [
      "1",
      "2"
    ],
    [
      "1",
      "°C</w>"
    ],
    [
      "1",
      "°C.</w>"
    ],
    [
      "2",
      "°C</w>"
    ],
    [
      "2",
      "°C.</w>"
    ],
    [
      "7",
      "8"
    ],
    [
      "5",
      "°C</w>"
    ],
    [
      "5",
      "°C.</w>"
    ],
    [
      "7",
      "°C</w>"
    ],
    [
      "7",
      "°C.</w>"
    ],
    [
      "0",
      "5"
    ],
    [
      "0",
      "°C</w>"
    ],
    [
      "0",
      "°C.</w>"
    ],
    [
      "9",
      "°C</w>"
    ],
    [
      "9",
      "°C.</w>"
    ],
    [
      "6",
      "°C</w>"
    ],
    [
      "6",
      "°C.</w>"
    ],
    [
      "3",
      "°C</w>"
    ],
    [
      "3",
      "°C.</w>"
    ],
    [
      "5",
      "8"
    ],
    [
      "6",
      "6"
    ],
    [
      "3",
      "1"
    ],
    [
      "7",
      "7"
    ],
    [
      "BAT_VOLT=12.",
      "0"
    ],
    [
      "12.",
      "0"
    ],
    [
      "2",
      "0"
    ],
    [
      "BAT_VOLT=12.",
      "5"
    ],
    [
      "12.",
      "5"
    ],
    [
      "4",
      "0"
    ],
    [
      "5",
      "5"
    ],
    [
      "4",
      "1"
    ],
    [
      "C",
      "D"
    ],
    [
      "B",
      "8"
    ],
    [
      "BAT_VOLT=11.",
      "7"
    ],
    [
      "11.",
      "7"
    ],
    [
      "5",
      "7"
    ],
    [
      "B",
      "E"
    ],
    [
      "4",
      "2"
    ],
    [
      "BAT_VOLT=11.",
      "6"
    ],
    [
      "11.",
      "6"
    ],
    [
      "0",
      "9"
    ],
    [
      "BAT_VOLT=12.",
      "4"
    ],
    [
      "12.",
      "4"
    ],
    [
      "BAT_VOLT=12.",
      "3"
    ],
    [
      "12.",
      "3"
    ],
    [
      "C",
      "9"
    ],
    [
      "F",
      "F"
    ],
    [
      "5",
      "6"
    ],
    [
      "BAT_VOLT=11.",
      "9"
    ],
    [
      "11.",
      "9"
    ],
    [
      "B",
      "A"
    ],
    [
      "B",
      "9"
    ],
    [
      "E",
      "9"
    ],
    [
      "0",
      "7"
    ],
    [
      "B",
      "D"
    ],
    [
      "BAT_VOLT=11.",
      "5"
    ],
    [
      "11.",
      "5"
    ],
    [
      "B",
      "6"
    ],
    [
      "BAT_VOLT=11.",
      "8"
    ],
    [
      "11.",
      "8"
    ],
    [
      "C",
      "8"
    ],
    [
      "F",
      "9"
    ],
    [
      "F",
      "8"
    ],
    [
      "0",
      "6"
    ],
    [
      "F",
      "D"
    ],
    [
      "3",
      "D"
    ],
    [
      "7",
      "6"
    ],
    [
      "BAT_VOLT=12.",
      "2"
    ],
    [
      "12.",
      "2"
    ],
    [
      "3",
      "A"
    ],
    [
      "E",
      "8"
    ],
    [
      "3",
      "C"
    ],
    [
      "RSSI=-10",
      "9dBm</w>"
    ],
    [
      "-10",
      "9dBm.</w>"
    ],
    [
      "7",
      "4"
    ],
    [
      "2",
      "D"
    ],
    [
      "5",
      "4"
    ],
    [
      "BAT_VOLT=12.",
      "1"
    ],
    [
      "12.",
      "1"
    ],
    [
      "3",
      "E"
    ],
    [
      "C",
      "A"
    ],
    [
      "RSSI=-11",
      "5dBm</w>"
    ],
    [
      "-11",
      "5dBm.</w>"
    ],
    [
      "8",
      "1"
    ],
    [
      "0",
      "D"
    ],
    [
      "RSSI=-11",
      "1"
    ],
    [
      "RSSI=-111",
      "dBm</w>"
    ],
    [
      "-11",
      "1"
    ],
    [
      "-111",
      "dBm.</w>"
    ],
    [
      "0",
      "4"
    ],
    [
      "8",
      "4"
    ],
    [
      "0",
      "2"
    ],
    [
      "RSSI=-11",
      "2"
    ],
    [
      "RSSI=-112",
      "dBm</w>"
    ],
    [
      "-11",
      "2"
    ],
    [
      "-112",
      "dBm.</w>"
    ],
    [
      "6",
      "7"
    ],
    [
      "E",
      "A"
    ],
    [
      "RSSI=-10",
      "8dBm</w>"
    ],
    [
      "-10",
      "8dBm.</w>"
    ],
    [
      "RSSI=-11",
      "3"
    ],
    [
      "RSSI=-113",
      "dBm</w>"
    ],
    [
      "-11",
      "3"
    ],
    [
      "-113",
      "dBm.</w>"
    ],
    [
      "RSSI=-11",
      "4"
    ],
    [
      "RSSI=-114",
      "dBm</w>"
    ],
    [
      "-11",
      "4"
    ],
    [
      "-114",
      "dBm.</w>"
    ],
    [
      "RSSI=-10",
      "6dBm</w>"
    ],
    [
      "-10",
      "6dBm.</w>"
    ],
    [
      "F",
      "C"
    ],
    [
      "RSSI=-10",
      "5dBm</w>"
    ],
    [
      "-10",
      "5dBm.</w>"
    ],
    [
      "F",
      "7"
    ],
    [
      "B",
      "7"
    ],
    [
      "RSSI=-11",
      "9dBm</w>"
    ],
    [
      "-11",
      "9dBm.</w>"
    ],
    [
      "RSSI=-11",
      "6dBm</w>"
    ],
    [
      "-11",
      "6dBm.</w>"
    ],
    [
      "RSSI=-11",
      "7dBm</w>"
    ],
    [
      "-11",
      "7dBm.</w>"
    ],
    [
      "E",
      "7"
    ],
    [
      "RSSI=-11",
      "8dBm</w>"
    ],
    [
      "-11",
      "8dBm.</w>"
    ],
    [
      "2",
      "A"
    ],
    [
      "6",
      "1"
    ],
    [
      "RSSI=-10",
      "7dBm</w>"
    ],
    [
      "-10",
      "7dBm.</w>"
    ],
    [
      "0",
      "A"
    ],
    [
      "0",
      "1"
    ],
    [
      "RSSI=-11",
      "0"
    ],
    [
      "RSSI=-110",
      "dBm</w>"
    ],
    [
      "-11",
      "0"
    ],
    [
      "-110",
      "dBm.</w>"
    ],
    [
      "5",
      "D"
    ],
    [
      "8",
      "2"
    ],
    [
      "5",
      "2"
    ],
    [
      "5",
      "1"
    ],
    [
      "5",
      "A"
    ],
    [
      "3",
      "F"
    ],
    [
      "TEMP_CPU=9",
      "6."
    ],
    [
      "9",
      "6."
    ],
    [
      "C",
      "7"
    ],
    [
      "TEMP_CPU=8",
      "9."
    ],
    [
      "8",
      "9."
    ],
    [
      "E",
      "6"
    ],
    [
      "TEMP_CPU=8",
      "6."
    ],
    [
      "8",
      "6."
    ],
    [
      "TEMP_CPU=9",
      "1."
    ],
    [
      "9",
      "1."
    ],
    [
      "9",
      "9"
    ],
    [
      "3",
      "B"
    ],
    [
      "TEMP_CPU=8",
      "2."
    ],
    [
      "8",
      "2."
    ],
    [
      "TEMP_CPU=8",
      "7."
    ],
    [
      "8",
      "7."
    ],
    [
      "C",
      "6"
    ],
    [
      "8",
      "8"
    ],
    [
      "TEMP_CPU=9",
      "0."
    ],
    [
      "9",
      "0."
    ],
    [
      "0",
      "M</w>"
    ],
    [
      "0",
      "m.</w>"
    ],
    [
      "7",
      "1"
    ],
    [
      "TEMP_CPU=8",
      "4."
    ],
    [
      "8",
      "4."
    ],
    [
      "TEMP_CPU=9",
      "7."
    ],
    [
      "9",
      "7."
    ],
    [
      "C",
      "C"
    ],
    [
      "F",
      "6"
    ],
    [
      "TEMP_CPU=9",
      "4."
    ],
    [
      "9",
      "4."
    ],
    [
      "TEMP_CPU=9",
      "3."
    ],
    [
      "9",
      "3."
    ],
    [
      "B",
      "B"
    ],
    [
      "TEMP_CPU=8",
      "8."
    ],
    [
      "8",
      "8."
    ],
    [
      "4",
      "D"
    ],
    [
      "9",
      "8"
    ],
    [
      "TEMP_CPU=9",
      "5."
    ],
    [
      "9",
      "5."
    ],
    [
      "TEMP_CPU=9",
      "2."
    ],
    [
      "9",
      "2."
    ],
    [
      "TEMP_CPU=8",
      "5."
    ],
    [
      "8",
      "5."
    ],
    [
      "4",
      "A"
    ],
    [
      "TEMP_CPU=8",
      "3."
    ],
    [
      "8",
      "3."
    ],
    [
      "BAT_VOLT=10.",
      "0"
    ],
    [
      "10.",
      "0"
    ],
    [
      "BAT_VOLT=9.",
      "4"
    ],
    [
      "9.",
      "4"
    ],
    [
      "E",
      "F"
    ],
    [
      "1",
      "A"
    ],
    [
      "E",
      "C"
    ],
    [
      "TEMP_CPU=8",
      "1."
    ],
    [
      "8",
      "1."
    ],
    [
      "BAT_VOLT=10.",
      "2"
    ],
    [
      "10.",
      "2"
    ],
    [
      "BAT_VOLT=9.",
      "2"
    ],
    [
      "9.",
      "2"
    ],
    [
      "E",
      "B"
    ],
    [
      "BAT_VOLT=8.",
      "6"
    ],
    [
      "8.",
      "6"
    ],
    [
      "7",
      "2"
    ],
    [
      "BAT_VOLT=9.",
      "0"
    ],
    [
      "9.",
      "0"
    ],
    [
      "7",
      "5"
    ],
    [
      "E",
      "5"
    ],
    [
      "6",
      "4"
    ],
    [
      "F",
      "B"
    ],
    [
      "8",
      "9"
    ],
    [
      "BAT_VOLT=10.",
      "3"
    ],
    [
      "10.",
      "3"
    ],
    [
      "BAT_VOLT=9.",
      "8"
    ],
    [
      "9.",
      "8"
    ],
    [
      "6",
      "5"
    ],
    [
      "1",
      "D"
    ],
    [
      "A",
      "9"
    ],
    [
      "C",
      "B"
    ],
    [
      "F",
      "0"
    ],
    [
      "BAT_VOLT=8.",
      "8"
    ],
    [
      "8.",
      "8"
    ],
    [
      "BAT_VOLT=9.",
      "5"
    ],
    [
      "9.",
      "5"
    ],
    [
      "BAT_VOLT=9.",
      "6"
    ],
    [
      "9.",
      "6"
    ],
    [
      "6",
      "2"
    ],
    [
      "BAT_VOLT=8.",
      "7"
    ],
    [
      "8.",
      "7"
    ],
    [
      "BAT_VOLT=8.",
      "9"
    ],
    [
      "8.",
      "9"
    ],
    [
      "BAT_VOLT=9.",
      "9"
    ],
    [
      "9.",
      "9"
    ],
    [
      "BAT_VOLT=8.",
      "5"
    ],
    [
      "8.",
      "5"
    ],
    [
      "C",
      "5"
    ],
    [
      "BAT_VOLT=9.",
      "7"
    ],
    [
      "9.",
      "7"
    ],
    [
      "7",
      "A"
    ],
    [
      "4",
      "M</w>"
    ],
    [
      "1",
      "M</w>"
    ],
    [
      "7",
      "D"
    ],
    [
      "F",
      "5"
    ],
    [
      "E",
      "0"
    ],
    [
      "BAT_VOLT=9.",
      "3"
    ],
    [
      "9.",
      "3"
    ],
    [
      "8",
      "M</w>"
    ],
    [
      "8",
      "5"
    ],
    [
      "8",
      "D"
    ],
    [
      "E",
      "4"
    ],
    [
      "E",
      "2"
    ],
    [
      "BAT_VOLT=10.",
      "1"
    ],
    [
      "10.",
      "1"
    ],
    [
      "8",
      "6"
    ],
    [
      "9",
      "6"
    ],
    [
      "C",
      "F"
    ],
    [
      "11",
      "V</w>"
    ],
    [
      "C",
      "0"
    ],
    [
      "A",
      "A"
    ],
    [
      "D",
      "D"
    ],
    [
      "9",
      "M</w>"
    ],
    [
      "E",
      "1"
    ],
    [
      "B",
      "F"
    ],
    [
      "B",
      "5"
    ],
    [
      "B",
      "0"
    ],
    [
      "8",
      "7"
    ],
    [
      "9",
      "7"
    ],
    [
      "C",
      "2"
    ],
    [
      "C",
      "1"
    ],
    [
      "9",
      "5"
    ],
    [
      "C",
      "4"
    ],
    [
      "7",
      "M</w>"
    ],
    [
      "9",
      "4"
    ],
    [
      "BAT_VOLT=9.",
      "1"
    ],
    [
      "9.",
      "1"
    ],
    [
      "B",
      "1"
    ],
    [
      "6",
      "M</w>"
    ],
    [
      "0",
      "0"
    ],
    [
      "F",
      "2"
    ],
    [
      "2",
      "M</w>"
    ],
    [
      "5",
      "M</w>"
    ],
    [
      "9",
      "D"
    ],
    [
      "B",
      "4"
    ],
    [
      "F",
      "4"
    ],
    [
      "F",
      "1"
    ],
    [
      "9",
      "1"
    ],
    [
      "A",
      "6"
    ],
    [
      "A",
      "8"
    ],
    [
      "9",
      "2"
    ],
    [
      "B",
      "2"
    ],
    [
      "B",
      "C"
    ],
    [
      "E",
      "3"
    ],
    [
      "A",
      "7"
    ],
    [
      "6",
      "D"
    ],
    [
      "3",
      "3"
    ],
    [
      "F",
      "E"
    ],
    [
      "C",
      "E"
    ],
    [
      "A",
      "5"
    ],
    [
      "ALT=",
      "8"
    ],
    [
      "A",
      "0"
    ],
    [
      "ADDR:0x",
      "ED"
    ],
    [
      "ADDR:0xB",
      "D"
    ],
    [
      "E",
      "E"
    ],
    [
      "ADDR:0x",
      "11"
    ],
    [
      "A",
      "C"
    ],
    [
      "10",
      "</w>"
    ],
    [
      "AD",
      "</w>"
    ],
    [
      "ADDR:0x",
      "10"
    ],
    [
      "ADDR:0x5",
      "D"
    ],
    [
      "A",
      "2"
    ],
    [
      "ADDR:0x0",
      "D"
    ],
    [
      "ADDR:0x8",
      "D"
    ],
    [
      "ADDR:0x1",
      "D"
    ],
    [
      "0",
      "B"
    ],
    [
      "3",
      "B</w>"
    ],
    [
      "0",
      "F"
    ],
    [
      "5",
      "B"
    ],
    [
      "ADDR:0xC",
      "D"
    ],
    [
      "ED",
      "</w>"
    ],
    [
      "ADDR:0x3",
      "D"
    ],
    [
      "6",
      "A"
    ],
    [
      "3",
      "3</w>"
    ],
    [
      "ADDR:0x",
      "AD"
    ],
    [
      "ADDR:0x2",
      "D"
    ],
    [
      "9",
      "A"
    ],
    [
      "ADDR:0x4",
      "D"
    ],
    [
      "3",
      "6</w>"
    ],
    [
      "3",
      "4</w>"
    ],
    [
      "4",
      "C"
    ],
    [
      "3",
      "2</w>"
    ],
    [
      "4",
      "B"
    ],
    [
      "3",
      "9</w>"
    ],
    [
      "ADDR:0x7",
      "D"
    ],
    [
      "ADDR:0xD",
      "D"
    ],
    [
      "0",
      "C"
    ],
    [
      "0",
      "E"
    ],
    [
      "8",
      "C"
    ],
    [
      "2",
      "B"
    ],
    [
      "3",
      "8</w>"
    ],
    [
      "ADDR:0x6",
      "D"
    ],
    [
      "3",
      "0</w>"
    ],
    [
      "2",
      "C"
    ],
    [
      "3",
      "F</w>"
    ],
    [
      "6",
      "0"
    ],
    [
      "4",
      "E"
    ],
    [
      "5",
      "0"
    ],
    [
      "3",
      "C</w>"
    ],
    [
      "8",
      "A"
    ],
    [
      "A",
      "F"
    ],
    [
      "3",
      "5</w>"
    ],
    [
      "7",
      "F"
    ],
    [
      "3",
      "7</w>"
    ],
    [
      "1",
      "E"
    ],
    [
      "1",
      "C"
    ],
    [
      "3",
      "D</w>"
    ],
    [
      "3",
      "E</w>"
    ],
    [
      "A",
      "B"
    ],
    [
      "ADDR:0xF",
      "D"
    ],
    [
      "A",
      "E"
    ],
    [
      "3",
      "A</w>"
    ],
    [
      "A",
      "1"
    ],
    [
      "5",
      "C"
    ],
    [
      "2",
      "E"
    ],
    [
      "ADDR:0x",
      "FA"
    ],
    [
      "5",
      "F"
    ],
    [
      "4",
      "F"
    ],
    [
      "2",
      "F"
    ],
    [
      "A",
      "4"
    ],
    [
      "7",
      "C"
    ],
    [
      "6",
      "C"
    ],
    [
      "9",
      "0"
    ],
    [
      "1",
      "B"
    ],
    [
      "9",
      "C"
    ],
    [
      "5",
      "E"
    ],
    [
      "ADDR:0x9",
      "D"
    ],
    [
      "8",
      "B"
    ],
    [
      "7",
      "0"
    ],
    [
      "1",
      "F"
    ],
    [
      "6",
      "F"
    ],
    [
      "8",
      "0"
    ],
    [
      "6",
      "E"
    ],
    [
      "7",
      "E"
    ],
    [
      "7",
      "B"
    ],
    [
      "8",
      "F"
    ],
    [
      "6",
      "B"
    ],
    [
      "9",
      "F"
    ],
    [
      "9",
      "E"
    ],
    [
      "9",
      "B"
    ],
    [
      "ALT=",
      "21"
    ],
    [
      "ALT=21",
      "M</w>"
    ],
    [
      "21",
      "m.</w>"
    ],
    [
      "8",
      "E"
    ],
    [
      "C",
      "6</w>"
    ],
    [
      "ALT=6",
      "8M</w>"
    ],
    [
      "68",
      "m.</w>"
    ],
    [
      "ALT=8",
      "0M</w>"
    ],
    [
      "8",
      "0m.</w>"
    ],
    [
      "E",
      "4</w>"
    ],
    [
      "F",
      "5</w>"
    ],
    [
      "F",
      "E</w>"
    ],
    [
      "ALT=5",
      "0M</w>"
    ],
    [
      "5",
      "0m.</w>"
    ],
    [
      "ALT=7",
      "4M</w>"
    ],
    [
      "74",
      "m.</w>"
    ],
    [
      "E",
      "8</w>"
    ],
    [
      "ALT=",
      "18"
    ],
    [
      "ALT=18",
      "M</w>"
    ],
    [
      "18",
      "m.</w>"
    ],
    [
      "ALT=5",
      "1M</w>"
    ],
    [
      "51",
      "m.</w>"
    ],
    [
      "ALT=6",
      "1M</w>"
    ],
    [
      "61",
      "m.</w>"
    ],
    [
      "ADDR:0x6",
      "A"
    ],
    [
      "11",
      "M/S</w>"
    ],
    [
      "11",
      "m/s</w>"
    ],
    [
      "ADDR:0x1",
      "9"
    ],
    [
      "ALT=",
      "15"
    ],
    [
      "ALT=15",
      "M</w>"
    ],
    [
      "15",
      "m.</w>"
    ],
    [
      "C",
      "A</w>"
    ],
    [
      "ALT=7",
      "6M</w>"
    ],
    [
      "76",
      "m.</w>"
    ],
    [
      "C",
      "4</w>"
    ],
    [
      "ADDR:0xB",
      "A"
    ],
    [
      "ALT=8",
      "3M</w>"
    ],
    [
      "8",
      "3m.</w>"
    ],
    [
      "ALT=5",
      "4M</w>"
    ],
    [
      "54",
      "m.</w>"
    ],
    [
      "ADDR:0xC",
      "9"
    ],
    [
      "ALT=6",
      "4M</w>"
    ],
    [
      "64",
      "m.</w>"
    ],
    [
      "ALT=",
      "27"
    ],
    [
      "ALT=27",
      "M</w>"
    ],
    [
      "27",
      "m.</w>"
    ],
    [
      "ADDR:0x1",
      "8"
    ],
    [
      "36",
      "M/S</w>"
    ],
    [
      "36",
      "m/s</w>"
    ],
    [
      "ALT=",
      "20"
    ],
    [
      "ALT=20",
      "M</w>"
    ],
    [
      "20",
      "m.</w>"
    ],
    [
      "ALT=",
      "32"
    ],
    [
      "ALT=32",
      "M</w>"
    ],
    [
      "32",
      "m.</w>"
    ],
    [
      "ALT=",
      "46"
    ],
    [
      "ALT=46",
      "M</w>"
    ],
    [
      "46",
      "m.</w>"
    ],
    [
      "ALT=5",
      "8M</w>"
    ],
    [
      "58",
      "m.</w>"
    ],
    [
      "ALT=",
      "47"
    ],
    [
      "ALT=47",
      "M</w>"
    ],
    [
      "47",
      "m.</w>"
    ],
    [
      "C",
      "5</w>"
    ],
    [
      "ADDR:0x7",
      "9"
    ],
    [
      "ADDR:0x7",
      "8"
    ],
    [
      "ALT=7",
      "1M</w>"
    ],
    [
      "71",
      "m.</w>"
    ],
    [
      "ALT=",
      "45"
    ],
    [
      "ALT=45",
      "M</w>"
    ],
    [
      "45",
      "m.</w>"
    ],
    [
      "ALT=",
      "38"
    ],
    [
      "ALT=38",
      "M</w>"
    ],
    [
      "38",
      "m.</w>"
    ],
    [
      "E",
      "C</w>"
    ],
    [
      "ALT=",
      "16"
    ],
    [
      "ALT=16",
      "M</w>"
    ],
    [
      "16",
      "m.</w>"
    ],
    [
      "ALT=",
      "29"
    ],
    [
      "ALT=29",
      "M</w>"
    ],
    [
      "29",
      "m.</w>"
    ],
    [
      "ALT=",
      "44"
    ],
    [
      "ALT=44",
      "M</w>"
    ],
    [
      "44",
      "m.</w>"
    ],
    [
      "2",
      "3M/S</w>"
    ],
    [
      "2",
      "3m/s</w>"
    ],
    [
      "B",
      "7</w>"
    ],
    [
      "ADDR:0x2",
      "A"
    ],
    [
      "ALT=",
      "25"
    ],
    [
      "ALT=25",
      "M</w>"
    ],
    [
      "25",
      "m.</w>"
    ],
    [
      "ALT=7",
      "3M</w>"
    ],
    [
      "7",
      "3m.</w>"
    ],
    [
      "ADDR:0x4",
      "6"
    ],
    [
      "ALT=",
      "10"
    ],
    [
      "ALT=10",
      "M</w>"
    ],
    [
      "10",
      "m.</w>"
    ],
    [
      "ALT=",
      "34"
    ],
    [
      "ALT=34",
      "M</w>"
    ],
    [
      "34",
      "m.</w>"
    ],
    [
      "ALT=",
      "14"
    ],
    [
      "ALT=14",
      "M</w>"
    ],
    [
      "14",
      "m.</w>"
    ],
    [
      "21",
      "M/S</w>"
    ],
    [
      "21",
      "m/s</w>"
    ],
    [
      "ALT=",
      "40"
    ],
    [
      "ALT=40",
      "M</w>"
    ],
    [
      "40",
      "m.</w>"
    ],
    [
      "E",
      "1</w>"
    ],
    [
      "ADDR:0x6",
      "9"
    ],
    [
      "C",
      "9</w>"
    ],
    [
      "B",
      "F</w>"
    ],
    [
      "ALT=6",
      "0M</w>"
    ],
    [
      "6",
      "0m.</w>"
    ],
    [
      "B",
      "2</w>"
    ],
    [
      "E",
      "B</w>"
    ],
    [
      "ALT=",
      "81"
    ],
    [
      "ALT=81",
      "M</w>"
    ],
    [
      "81",
      "m.</w>"
    ],
    [
      "E",
      "E</w>"
    ],
    [
      "C",
      "0</w>"
    ],
    [
      "ALT=6",
      "7M</w>"
    ],
    [
      "67",
      "m.</w>"
    ],
    [
      "C",
      "D</w>"
    ],
    [
      "B",
      "A</w>"
    ],
    [
      "4",
      "M/S</w>"
    ],
    [
      "4",
      "m/s</w>"
    ],
    [
      "C",
      "C</w>"
    ],
    [
      "C",
      "1</w>"
    ],
    [
      "ALT=5",
      "5M</w>"
    ],
    [
      "55",
      "m.</w>"
    ],
    [
      "ADDR:0xC",
      "8"
    ],
    [
      "ALT=7",
      "8M</w>"
    ],
    [
      "78",
      "m.</w>"
    ],
    [
      "19",
      "M/S</w>"
    ],
    [
      "19",
      "m/s</w>"
    ],
    [
      "ALT=",
      "26"
    ],
    [
      "ALT=26",
      "M</w>"
    ],
    [
      "26",
      "m.</w>"
    ],
    [
      "49",
      "M/S</w>"
    ],
    [
      "49",
      "m/s</w>"
    ],
    [
      "02",
      "M/S</w>"
    ],
    [
      "02",
      "m/s</w>"
    ],
    [
      "C",
      "B</w>"
    ],
    [
      "ALT=7",
      "0M</w>"
    ],
    [
      "7",
      "0m.</w>"
    ],
    [
      "C",
      "2</w>"
    ],
    [
      "ADDR:0x7",
      "C"
    ],
    [
      "ALT=",
      "24"
    ],
    [
      "ALT=24",
      "M</w>"
    ],
    [
      "24",
      "m.</w>"
    ],
    [
      "ALT=",
      "12"
    ],
    [
      "ALT=12",
      "M</w>"
    ],
    [
      "12",
      "m.</w>"
    ],
    [
      "F",
      "2</w>"
    ],
    [
      "B",
      "C</w>"
    ],
    [
      "E",
      "F</w>"
    ],
    [
      "ALT=",
      "84"
    ],
    [
      "ALT=84",
      "M</w>"
    ],
    [
      "84",
      "m.</w>"
    ],
    [
      "ALT=7",
      "2M</w>"
    ],
    [
      "72",
      "m.</w>"
    ],
    [
      "ADDR:0x3",
      "8"
    ],
    [
      "ALT=6",
      "9M</w>"
    ],
    [
      "69",
      "m.</w>"
    ],
    [
      "ALT=",
      "35"
    ],
    [
      "ALT=35",
      "M</w>"
    ],
    [
      "35",
      "m.</w>"
    ],
    [
      "ALT=5",
      "9M</w>"
    ],
    [
      "59",
      "m.</w>"
    ],
    [
      "ALT=",
      "41"
    ],
    [
      "ALT=41",
      "M</w>"
    ],
    [
      "41",
      "m.</w>"
    ],
    [
      "ALT=7",
      "9M</w>"
    ],
    [
      "79",
      "m.</w>"
    ],
    [
      "E",
      "3</w>"
    ],
    [
      "ALT=5",
      "3M</w>"
    ],
    [
      "5",
      "3m.</w>"
    ],
    [
      "ALT=",
      "22"
    ],
    [
      "ALT=22",
      "M</w>"
    ],
    [
      "22",
      "m.</w>"
    ],
    [
      "08",
      "M/S</w>"
    ],
    [
      "08",
      "m/s</w>"
    ],
    [
      "B",
      "1</w>"
    ],
    [
      "ADDR:0x8",
      "9"
    ],
    [
      "ADDR:0x5",
      "8"
    ],
    [
      "32",
      "M/S</w>"
    ],
    [
      "32",
      "m/s</w>"
    ],
    [
      "ALT=",
      "19"
    ],
    [
      "ALT=19",
      "M</w>"
    ],
    [
      "19",
      "m.</w>"
    ],
    [
      "F",
      "D</w>"
    ],
    [
      "ADDR:0x9",
      "6"
    ],
    [
      "A",
      "9</w>"
    ],
    [
      "ALT=",
      "3"
    ],
    [
      "ALT=3",
      "3M</w>"
    ],
    [
      "3",
      "3m.</w>"
    ],
    [
      "B",
      "6</w>"
    ],
    [
      "ALT=",
      "36"
    ],
    [
      "ALT=36",
      "M</w>"
    ],
    [
      "36",
      "m.</w>"
    ],
    [
      "ALT=",
      "17"
    ],
    [
      "ALT=17",
      "M</w>"
    ],
    [
      "17",
      "m.</w>"
    ],
    [
      "ALT=7",
      "7M</w>"
    ],
    [
      "77",
      "m.</w>"
    ],
    [
      "ADDR:0x5",
      "A"
    ],
    [
      "ADDR:0x0",
      "9"
    ],
    [
      "ALT=",
      "1"
    ],
    [
      "ALT=1",
      "3M</w>"
    ],
    [
      "1",
      "3m.</w>"
    ],
    [
      "ALT=",
      "49"
    ],
    [
      "ALT=49",
      "M</w>"
    ],
    [
      "49",
      "m.</w>"
    ],
    [
      "B",
      "9</w>"
    ],
    [
      "E",
      "5</w>"
    ],
    [
      "ADDR:0xD",
      "9"
    ],
    [
      "47",
      "M/S</w>"
    ],
    [
      "47",
      "m/s</w>"
    ],
    [
      "3",
      "3M/S</w>"
    ],
    [
      "3",
      "3m/s</w>"
    ],
    [
      "18",
      "M/S</w>"
    ],
    [
      "18",
      "m/s</w>"
    ],
    [
      "35",
      "M/S</w>"
    ],
    [
      "35",
      "m/s</w>"
    ],
    [
      "ADDR:0x5",
      "6"
    ],
    [
      "2",
      "6</w>"
    ],
    [
      "0",
      "E</w>"
    ],
    [
      "ADDR:0x4",
      "9"
    ],
    [
      "ADDR:0x9",
      "9"
    ],
    [
      "B",
      "3</w>"
    ],
    [
      "B",
      "B</w>"
    ],
    [
      "B",
      "5</w>"
    ],
    [
      "ALT=",
      "82"
    ],
    [
      "ALT=82",
      "M</w>"
    ],
    [
      "82",
      "m.</w>"
    ],
    [
      "B",
      "D</w>"
    ],
    [
      "0",
      "B</w>"
    ],
    [
      "E",
      "9</w>"
    ],
    [
      "F",
      "4</w>"
    ],
    [
      "34",
      "M/S</w>"
    ],
    [
      "34",
      "m/s</w>"
    ],
    [
      "A",
      "C</w>"
    ],
    [
      "48",
      "M/S</w>"
    ],
    [
      "48",
      "m/s</w>"
    ],
    [
      "ADDR:0x0",
      "7"
    ],
    [
      "ADDR:0x7",
      "A"
    ],
    [
      "A",
      "7</w>"
    ],
    [
      "E",
      "0</w>"
    ],
    [
      "BAT_VOLT=11.7",
      "1V</w>"
    ],
    [
      "11.7",
      "1V</w>"
    ],
    [
      "B",
      "8</w>"
    ],
    [
      "ALT=",
      "39"
    ],
    [
      "ALT=39",
      "M</w>"
    ],
    [
      "39",
      "m.</w>"
    ],
    [
      "ALT=",
      "48"
    ],
    [
      "ALT=48",
      "M</w>"
    ],
    [
      "48",
      "m.</w>"
    ],
    [
      "ADDR:0x7",
      "7"
    ],
    [
      "37",
      "M/S</w>"
    ],
    [
      "37",
      "m/s</w>"
    ],
    [
      "ADDR:0xF",
      "8"
    ],
    [
      "ADDR:0xF",
      "C"
    ],
    [
      "24",
      "M/S</w>"
    ],
    [
      "24",
      "m/s</w>"
    ],
    [
      "ADDR:0x9",
      "A"
    ],
    [
      "2",
      "2</w>"
    ],
    [
      "28",
      "M/S</w>"
    ],
    [
      "28",
      "m/s</w>"
    ],
    [
      "ADDR:0x1",
      "6"
    ],
    [
      "ADDR:0xC",
      "A"
    ],
    [
      "4",
      "3M/S</w>"
    ],
    [
      "4",
      "3m/s</w>"
    ],
    [
      "C",
      "8</w>"
    ],
    [
      "ADDR:0x3",
      "9"
    ],
    [
      "F",
      "9</w>"
    ],
    [
      "31",
      "M/S</w>"
    ],
    [
      "31",
      "m/s</w>"
    ],
    [
      "ADDR:0x8",
      "A"
    ],
    [
      "E",
      "6</w>"
    ],
    [
      "F",
      "1</w>"
    ],
    [
      "0",
      "1</w>"
    ],
    [
      "ADDR:0xE",
      "6"
    ],
    [
      "ADDR:0x2",
      "9"
    ],
    [
      "26",
      "M/S</w>"
    ],
    [
      "26",
      "m/s</w>"
    ],
    [
      "0",
      "F</w>"
    ],
    [
      "22",
      "M/S</w>"
    ],
    [
      "22",
      "m/s</w>"
    ],
    [
      "ADDR:0xE",
      "A"
    ],
    [
      "ALT=",
      "4"
    ],
    [
      "ALT=4",
      "3M</w>"
    ],
    [
      "4",
      "3m.</w>"
    ],
    [
      "ADDR:0xE",
      "9"
    ],
    [
      "ADDR:0x1",
      "A"
    ],
    [
      "A",
      "3</w>"
    ],
    [
      "ADDR:0x7",
      "6"
    ],
    [
      "F",
      "0</w>"
    ],
    [
      "ADDR:0x5",
      "E"
    ],
    [
      "ADDR:0x3",
      "A"
    ],
    [
      "F",
      "6</w>"
    ],
    [
      "ADDR:0xB",
      "8"
    ],
    [
      "ADDR:0x0",
      "F"
    ],
    [
      "04",
      "M/S</w>"
    ],
    [
      "04",
      "m/s</w>"
    ],
    [
      "05",
      "M/S</w>"
    ],
    [
      "05",
      "m/s</w>"
    ],
    [
      "29",
      "M/S</w>"
    ],
    [
      "29",
      "m/s</w>"
    ],
    [
      "A",
      "E</w>"
    ],
    [
      "E",
      "7</w>"
    ],
    [
      "44",
      "M/S</w>"
    ],
    [
      "44",
      "m/s</w>"
    ],
    [
      "ALT=5",
      "2M</w>"
    ],
    [
      "52",
      "m.</w>"
    ],
    [
      "ALT=",
      "30"
    ],
    [
      "ALT=30",
      "M</w>"
    ],
    [
      "30",
      "m.</w>"
    ],
    [
      "0",
      "D</w>"
    ],
    [
      "ADDR:0x6",
      "8"
    ],
    [
      "ALT=",
      "31"
    ],
    [
      "ALT=31",
      "M</w>"
    ],
    [
      "F",
      "8</w>"
    ],
    [
      "31",
      "m.</w>"
    ],
    [
      "ADDR:0xB",
      "5"
    ],
    [
      "12",
      "M/S</w>"
    ],
    [
      "12",
      "m/s</w>"
    ],
    [
      "ADDR:0xB",
      "9"
    ],
    [
      "ADDR:0x5",
      "F"
    ],
    [
      "ADDR:0x1",
      "7"
    ],
    [
      "A",
      "8</w>"
    ],
    [
      "ADDR:0x8",
      "8"
    ],
    [
      "C",
      "7</w>"
    ],
    [
      "ALT=6",
      "3M</w>"
    ],
    [
      "6",
      "3m.</w>"
    ],
    [
      "ADDR:0xD",
      "A"
    ],
    [
      "B",
      "0</w>"
    ],
    [
      "A",
      "4</w>"
    ],
    [
      "42",
      "M/S</w>"
    ],
    [
      "42",
      "m/s</w>"
    ],
    [
      "F",
      "7</w>"
    ],
    [
      "ALT=",
      "11"
    ],
    [
      "ALT=11",
      "M</w>"
    ],
    [
      "11",
      "m.</w>"
    ],
    [
      "ADDR:0x3",
      "C"
    ],
    [
      "ADDR:0xB",
      "7"
    ],
    [
      "2",
      "9</w>"
    ],
    [
      "17",
      "M/S</w>"
    ],
    [
      "17",
      "m/s</w>"
    ],
    [
      "ADDR:0x3",
      "7"
    ],
    [
      "ALT=",
      "42"
    ],
    [
      "ALT=42",
      "M</w>"
    ],
    [
      "42",
      "m.</w>"
    ],
    [
      "0",
      "9</w>"
    ],
    [
      "45",
      "M/S</w>"
    ],
    [
      "45",
      "m/s</w>"
    ],
    [
      "F",
      "B</w>"
    ],
    [
      "25",
      "M/S</w>"
    ],
    [
      "25",
      "m/s</w>"
    ],
    [
      "ALT=6",
      "6M</w>"
    ],
    [
      "66",
      "m.</w>"
    ],
    [
      "ADDR:0x6",
      "6"
    ],
    [
      "ADDR:0x0",
      "5"
    ],
    [
      "E",
      "A</w>"
    ],
    [
      "C",
      "E</w>"
    ],
    [
      "ADDR:0x9",
      "8"
    ],
    [
      "1",
      "M/S</w>"
    ],
    [
      "1",
      "m/s</w>"
    ],
    [
      "16",
      "M/S</w>"
    ],
    [
      "16",
      "m/s</w>"
    ],
    [
      "ADDR:0xF",
      "E"
    ],
    [
      "0",
      "0</w>"
    ],
    [
      "ADDR:0xE",
      "C"
    ],
    [
      "D",
      "9"
    ],
    [
      "ADDR:0x2",
      "6"
    ],
    [
      "ADDR:0xB",
      "C"
    ],
    [
      "ALT=",
      "2"
    ],
    [
      "ALT=2",
      "3M</w>"
    ],
    [
      "2",
      "3m.</w>"
    ],
    [
      "ADDR:0xF",
      "9"
    ],
    [
      "06",
      "M/S</w>"
    ],
    [
      "06",
      "m/s</w>"
    ],
    [
      "ADDR:0x8",
      "0"
    ],
    [
      "ADDR:0x1",
      "B"
    ],
    [
      "ADDR:0xD",
      "C"
    ],
    [
      "F",
      "F</w>"
    ],
    [
      "ALT=",
      "37"
    ],
    [
      "ALT=37",
      "M</w>"
    ],
    [
      "37",
      "m.</w>"
    ],
    [
      "ALT=6",
      "5M</w>"
    ],
    [
      "65",
      "m.</w>"
    ],
    [
      "ADDR:0xC",
      "E"
    ],
    [
      "ADDR:0xB",
      "E"
    ],
    [
      "5",
      "F</w>"
    ],
    [
      "C",
      "3</w>"
    ],
    [
      "D",
      "6"
    ],
    [
      "BAT_VOLT=12.2",
      "6V</w>"
    ],
    [
      "12.2",
      "6V</w>"
    ],
    [
      "ALT=7",
      "5M</w>"
    ],
    [
      "75",
      "m.</w>"
    ],
    [
      "ADDR:0x0",
      "A"
    ],
    [
      "ALT=5",
      "7M</w>"
    ],
    [
      "57",
      "m.</w>"
    ],
    [
      "41",
      "M/S</w>"
    ],
    [
      "41",
      "m/s</w>"
    ],
    [
      "ADDR:0xB",
      "6"
    ],
    [
      "1",
      "3M/S</w>"
    ],
    [
      "1",
      "3m/s</w>"
    ],
    [
      "A",
      "B</w>"
    ],
    [
      "ADDR:0xA",
      "8"
    ],
    [
      "0",
      "3</w>"
    ],
    [
      "0",
      "2</w>"
    ],
    [
      "ADDR:0xF",
      "6"
    ],
    [
      "0",
      "6</w>"
    ],
    [
      "ADDR:0x3",
      "E"
    ],
    [
      "2",
      "F</w>"
    ],
    [
      "2",
      "5</w>"
    ],
    [
      "D",
      "8"
    ],
    [
      "ADDR:0xC",
      "6"
    ],
    [
      "BAT_VOLT=11.",
      "8V</w>"
    ],
    [
      "11.",
      "8V</w>"
    ],
    [
      "01",
      "M/S</w>"
    ],
    [
      "01",
      "m/s</w>"
    ],
    [
      "39",
      "M/S</w>"
    ],
    [
      "39",
      "m/s</w>"
    ],
    [
      "BAT_VOLT=11.9",
      "9V</w>"
    ],
    [
      "11.9",
      "9V</w>"
    ],
    [
      "ADDR:0xE",
      "7"
    ],
    [
      "ADDR:0x5",
      "9"
    ],
    [
      "2",
      "A</w>"
    ],
    [
      "ALT=",
      "28"
    ],
    [
      "ALT=28",
      "M</w>"
    ],
    [
      "28",
      "m.</w>"
    ],
    [
      "BAT_VOLT=12.",
      "3V</w>"
    ],
    [
      "12.",
      "3V</w>"
    ],
    [
      "BAT_VOLT=12.",
      "5V</w>"
    ],
    [
      "12.",
      "5V</w>"
    ],
    [
      "0",
      "5</w>"
    ],
    [
      "ADDR:0x4",
      "A"
    ],
    [
      "0",
      "C</w>"
    ],
    [
      "07",
      "M/S</w>"
    ],
    [
      "ADDR:0x0",
      "6"
    ],
    [
      "07",
      "m/s</w>"
    ],
    [
      "ALT=6",
      "2M</w>"
    ],
    [
      "62",
      "m.</w>"
    ],
    [
      "1",
      "2</w>"
    ],
    [
      "ADDR:0x0",
      "8"
    ],
    [
      "ADDR:0xA",
      "9"
    ],
    [
      "ADDR:0x4",
      "7"
    ],
    [
      "ADDR:0xA",
      "6"
    ],
    [
      "ADDR:0xA",
      "A"
    ],
    [
      "C",
      "F</w>"
    ],
    [
      "BAT_VOLT=12.5",
      "8V</w>"
    ],
    [
      "12.5",
      "8V</w>"
    ],
    [
      "BAT_VOLT=12.1",
      "8V</w>"
    ],
    [
      "12.1",
      "8V</w>"
    ],
    [
      "BAT_VOLT=12.5",
      "5V</w>"
    ],
    [
      "12.5",
      "5V</w>"
    ],
    [
      "ADDR:0xD",
      "6"
    ],
    [
      "BAT_VOLT=11.8",
      "3V</w>"
    ],
    [
      "11.8",
      "3V</w>"
    ],
    [
      "ADDR:0x9",
      "7"
    ],
    [
      "BAT_VOLT=12.5",
      "3V</w>"
    ],
    [
      "12.5",
      "3V</w>"
    ],
    [
      "2",
      "E</w>"
    ],
    [
      "5",
      "3</w>"
    ],
    [
      "0",
      "7</w>"
    ],
    [
      "2",
      "3</w>"
    ],
    [
      "BAT_VOLT=12.",
      "1V</w>"
    ],
    [
      "12.",
      "1V</w>"
    ],
    [
      "A",
      "0</w>"
    ],
    [
      "BAT_VOLT=11.8",
      "1V</w>"
    ],
    [
      "11.8",
      "1V</w>"
    ],
    [
      "5",
      "7</w>"
    ],
    [
      "B",
      "4</w>"
    ],
    [
      "ADDR:0x4",
      "F"
    ],
    [
      "BAT_VOLT=12.1",
      "6V</w>"
    ],
    [
      "12.1",
      "6V</w>"
    ],
    [
      "E",
      "2</w>"
    ],
    [
      "BAT_VOLT=12.5",
      "9V</w>"
    ],
    [
      "12.5",
      "9V</w>"
    ],
    [
      "ADDR:0xB",
      "0"
    ],
    [
      "BAT_VOLT=11.7",
      "9V</w>"
    ],
    [
      "11.7",
      "9V</w>"
    ],
    [
      "A",
      "1</w>"
    ],
    [
      "ADDR:0xA",
      "5"
    ],
    [
      "ADDR:0x1",
      "5"
    ],
    [
      "ADDR:0xD",
      "5"
    ],
    [
      "D",
      "7"
    ],
    [
      "2",
      "4</w>"
    ],
    [
      "4",
      "3</w>"
    ],
    [
      "BAT_VOLT=12.4",
      "2V</w>"
    ],
    [
      "12.4",
      "2V</w>"
    ],
    [
      "ADDR:0x3",
      "6"
    ],
    [
      "2",
      "D</w>"
    ],
    [
      "09",
      "M/S</w>"
    ],
    [
      "09",
      "m/s</w>"
    ],
    [
      "ADDR:0x4",
      "C"
    ],
    [
      "D",
      "5</w>"
    ],
    [
      "BAT_VOLT=11.5",
      "9V</w>"
    ],
    [
      "11.5",
      "9V</w>"
    ],
    [
      "ADDR:0x5",
      "7"
    ],
    [
      "1",
      "1</w>"
    ],
    [
      "BAT_VOLT=11.7",
      "5V</w>"
    ],
    [
      "11.7",
      "5V</w>"
    ],
    [
      "ADDR:0x7",
      "0"
    ],
    [
      "F",
      "C</w>"
    ],
    [
      "ADDR:0x5",
      "5"
    ],
    [
      "BAT_VOLT=12.4",
      "1V</w>"
    ],
    [
      "12.4",
      "1V</w>"
    ],
    [
      "ADDR:0x7",
      "5"
    ],
    [
      "BAT_VOLT=11.6",
      "1V</w>"
    ],
    [
      "11.6",
      "1V</w>"
    ],
    [
      "5",
      "6</w>"
    ],
    [
      "BAT_VOLT=12.3",
      "3V</w>"
    ],
    [
      "12.3",
      "3V</w>"
    ],
    [
      "ADDR:0xC",
      "5"
    ],
    [
      "2",
      "M/S</w>"
    ],
    [
      "2",
      "m/s</w>"
    ],
    [
      "5",
      "5</w>"
    ],
    [
      "46",
      "M/S</w>"
    ],
    [
      "46",
      "m/s</w>"
    ],
    [
      "2",
      "B</w>"
    ],
    [
      "ADDR:0x9",
      "B"
    ],
    [
      "ADDR:0xC",
      "C"
    ],
    [
      "BAT_VOLT=12.3",
      "8V</w>"
    ],
    [
      "12.3",
      "8V</w>"
    ],
    [
      "ADDR:0xC",
      "7"
    ],
    [
      "1",
      "3</w>"
    ],
    [
      "D",
      "4"
    ],
    [
      "ADDR:0xE",
      "0"
    ],
    [
      "57",
      "M/S</w>"
    ],
    [
      "57",
      "m/s</w>"
    ],
    [
      "F",
      "3</w>"
    ],
    [
      "ADDR:0x4",
      "8"
    ],
    [
      "ADDR:0x9",
      "5"
    ],
    [
      "D",
      "D</w>"
    ],
    [
      "ADDR:0x9",
      "C"
    ],
    [
      "A",
      "A</w>"
    ],
    [
      "ADDR:0x3",
      "5"
    ],
    [
      "2",
      "8</w>"
    ],
    [
      "ADDR:0x7",
      "E"
    ],
    [
      "BAT_VOLT=11.",
      "7V</w>"
    ],
    [
      "11.",
      "7V</w>"
    ],
    [
      "5",
      "9</w>"
    ],
    [
      "ADDR:0x8",
      "C"
    ],
    [
      "ADDR:0xC",
      "F"
    ],
    [
      "1",
      "B</w>"
    ],
    [
      "5",
      "C</w>"
    ],
    [
      "ADDR:0x8",
      "6"
    ],
    [
      "0",
      "3M/S</w>"
    ],
    [
      "0",
      "3m/s</w>"
    ],
    [
      "BAT_VOLT=11.9",
      "7V</w>"
    ],
    [
      "11.9",
      "7V</w>"
    ],
    [
      "BAT_VOLT=12.4",
      "7V</w>"
    ],
    [
      "12.4",
      "7V</w>"
    ],
    [
      "BAT_VOLT=12.5",
      "1V</w>"
    ],
    [
      "12.5",
      "1V</w>"
    ],
    [
      "BAT_VOLT=12.3",
      "5V</w>"
    ],
    [
      "12.3",
      "5V</w>"
    ],
    [
      "ALT=5",
      "6M</w>"
    ],
    [
      "56",
      "m.</w>"
    ],
    [
      "A",
      "5</w>"
    ],
    [
      "27",
      "M/S</w>"
    ],
    [
      "27",
      "m/s</w>"
    ],
    [
      "ADDR:0xE",
      "E"
    ],
    [
      "BAT_VOLT=12.0",
      "4V</w>"
    ],
    [
      "12.0",
      "4V</w>"
    ],
    [
      "4",
      "F</w>"
    ],
    [
      "ADDR:0x0",
      "B"
    ],
    [
      "14",
      "M/S</w>"
    ],
    [
      "14",
      "m/s</w>"
    ],
    [
      "2",
      "1</w>"
    ],
    [
      "1",
      "E</w>"
    ],
    [
      "BAT_VOLT=11.6",
      "4V</w>"
    ],
    [
      "11.6",
      "4V</w>"
    ],
    [
      "ADDR:0x9",
      "0"
    ],
    [
      "ADDR:0x8",
      "E"
    ],
    [
      "ADDR:0xE",
      "8"
    ],
    [
      "ADDR:0x5",
      "C"
    ],
    [
      "5",
      "2</w>"
    ],
    [
      "SPEED=0.",
      "9"
    ],
    [
      "0.",
      "9"
    ],
    [
      "BAT_VOLT=12.3",
      "7V</w>"
    ],
    [
      "12.3",
      "7V</w>"
    ],
    [
      "B",
      "E</w>"
    ],
    [
      "BAT_VOLT=11.6",
      "2V</w>"
    ],
    [
      "11.6",
      "2V</w>"
    ],
    [
      "8",
      "3M/S</w>"
    ],
    [
      "8",
      "3m/s</w>"
    ],
    [
      "ADDR:0x9",
      "E"
    ],
    [
      "2",
      "0</w>"
    ],
    [
      "1",
      "8</w>"
    ],
    [
      "0",
      "A</w>"
    ],
    [
      "BAT_VOLT=11.5",
      "6V</w>"
    ],
    [
      "11.5",
      "6V</w>"
    ],
    [
      "ADDR:0xD",
      "F"
    ],
    [
      "ADDR:0xD",
      "0"
    ],
    [
      "2",
      "7</w>"
    ],
    [
      "1",
      "6</w>"
    ],
    [
      "ADDR:0xF",
      "5"
    ],
    [
      "ADDR:0x6",
      "B"
    ],
    [
      "ADDR:0x2",
      "0"
    ],
    [
      "BAT_VOLT=12.1",
      "4V</w>"
    ],
    [
      "12.1",
      "4V</w>"
    ],
    [
      "ADDR:0xF",
      "F"
    ],
    [
      "BAT_VOLT=11.6",
      "5V</w>"
    ],
    [
      "11.6",
      "5V</w>"
    ],
    [
      "BAT_VOLT=12.0",
      "8V</w>"
    ],
    [
      "12.0",
      "8V</w>"
    ],
    [
      "BAT_VOLT=12.5",
      "7V</w>"
    ],
    [
      "12.5",
      "7V</w>"
    ],
    [
      "ADDR:0xA",
      "B"
    ],
    [
      "BAT_VOLT=12.0",
      "V</w>"
    ],
    [
      "12.0",
      "V</w>"
    ],
    [
      "ADDR:0x1",
      "C"
    ],
    [
      "ADDR:0x6",
      "F"
    ],
    [
      "A",
      "F</w>"
    ],
    [
      "ADDR:0xE",
      "F"
    ],
    [
      "4",
      "4</w>"
    ],
    [
      "BAT_VOLT=11.9",
      "4V</w>"
    ],
    [
      "11.9",
      "4V</w>"
    ],
    [
      "5",
      "E</w>"
    ],
    [
      "BAT_VOLT=12.4",
      "4V</w>"
    ],
    [
      "12.4",
      "4V</w>"
    ],
    [
      "2",
      "C</w>"
    ],
    [
      "ADDR:0xD",
      "8"
    ],
    [
      "85",
      "M/S</w>"
    ],
    [
      "85",
      "m/s</w>"
    ],
    [
      "BAT_VOLT=12.4",
      "5V</w>"
    ],
    [
      "12.4",
      "5V</w>"
    ],
    [
      "BAT_VOLT=12.0",
      "3V</w>"
    ],
    [
      "12.0",
      "3V</w>"
    ],
    [
      "BAT_VOLT=11.5",
      "7V</w>"
    ],
    [
      "11.5",
      "7V</w>"
    ],
    [
      "A",
      "2</w>"
    ],
    [
      "ADDR:0xD",
      "4"
    ],
    [
      "ADDR:0x8",
      "7"
    ],
    [
      "ADDR:0x0",
      "C"
    ],
    [
      "BAT_VOLT=11.6",
      "8V</w>"
    ],
    [
      "11.6",
      "8V</w>"
    ],
    [
      "ADDR:0x6",
      "7"
    ],
    [
      "ADDR:0x0",
      "4"
    ],
    [
      "ADDR:0x2",
      "7"
    ],
    [
      "ADDR:0x5",
      "2"
    ],
    [
      "ADDR:0xD",
      "E"
    ],
    [
      "ADDR:0x2",
      "B"
    ],
    [
      "5",
      "0</w>"
    ],
    [
      "BAT_VOLT=11.7",
      "3V</w>"
    ],
    [
      "11.7",
      "3V</w>"
    ],
    [
      "ADDR:0x7",
      "F"
    ],
    [
      "ADDR:0x8",
      "F"
    ],
    [
      "0",
      "M/S</w>"
    ],
    [
      "0",
      "m/s</w>"
    ],
    [
      "ADDR:0x2",
      "8"
    ],
    [
      "BAT_VOLT=12.2",
      "7V</w>"
    ],
    [
      "12.2",
      "7V</w>"
    ],
    [
      "BAT_VOLT=12.5",
      "4V</w>"
    ],
    [
      "ADDR:0x4",
      "E"
    ],
    [
      "12.5",
      "4V</w>"
    ],
    [
      "5",
      "D</w>"
    ],
    [
      "BAT_VOLT=12.0",
      "6V</w>"
    ],
    [
      "12.0",
      "6V</w>"
    ],
    [
      "ADDR:0x7",
      "B"
    ],
    [
      "BAT_VOLT=11.9",
      "1V</w>"
    ],
    [
      "11.9",
      "1V</w>"
    ],
    [
      "1",
      "5</w>"
    ],
    [
      "BAT_VOLT=11.7",
      "7V</w>"
    ],
    [
      "11.7",
      "7V</w>"
    ],
    [
      "BAT_VOLT=12.0",
      "5V</w>"
    ],
    [
      "12.0",
      "5V</w>"
    ],
    [
      "38",
      "M/S</w>"
    ],
    [
      "38",
      "m/s</w>"
    ],
    [
      "ADDR:0x6",
      "E"
    ],
    [
      "4",
      "7</w>"
    ],
    [
      "15",
      "M/S</w>"
    ],
    [
      "15",
      "m/s</w>"
    ],
    [
      "ADDR:0x2",
      "C"
    ],
    [
      "1",
      "D</w>"
    ],
    [
      "ADDR:0xF",
      "0"
    ],
    [
      "BAT_VOLT=12.2",
      "2V</w>"
    ],
    [
      "12.2",
      "2V</w>"
    ],
    [
      "ADDR:0x2",
      "5"
    ],
    [
      "ADDR:0xA",
      "7"
    ],
    [
      "ADDR:0x3",
      "B"
    ],
    [
      "BAT_VOLT=11.8",
      "2V</w>"
    ],
    [
      "11.8",
      "2V</w>"
    ],
    [
      "66",
      "M/S</w>"
    ],
    [
      "66",
      "m/s</w>"
    ],
    [
      "ADDR:0x6",
      "5"
    ],
    [
      "BAT_VOLT=12.3",
      "9V</w>"
    ],
    [
      "12.3",
      "9V</w>"
    ],
    [
      "6",
      "2</w>"
    ],
    [
      "ADDR:0x6",
      "0"
    ],
    [
      "BAT_VOLT=11.",
      "6V</w>"
    ],
    [
      "11.",
      "6V</w>"
    ],
    [
      "ADDR:0xC",
      "4"
    ],
    [
      "ADDR:0x2",
      "2"
    ],
    [
      "4",
      "0</w>"
    ],
    [
      "ADDR:0x2",
      "F"
    ],
    [
      "ADDR:0xF",
      "7"
    ],
    [
      "BAT_VOLT=12.4",
      "8V</w>"
    ],
    [
      "12.4",
      "8V</w>"
    ],
    [
      "ADDR:0x8",
      "5"
    ],
    [
      "1",
      "9</w>"
    ],
    [
      "BAT_VOLT=11.5",
      "8V</w>"
    ],
    [
      "11.5",
      "8V</w>"
    ],
    [
      "ADDR:0xF",
      "4"
    ],
    [
      "ADDR:0xA",
      "C"
    ],
    [
      "BAT_VOLT=12.3",
      "1V</w>"
    ],
    [
      "12.3",
      "1V</w>"
    ],
    [
      "5",
      "M/S</w>"
    ],
    [
      "5",
      "m/s</w>"
    ],
    [
      "1",
      "7</w>"
    ],
    [
      "59",
      "M/S</w>"
    ],
    [
      "59",
      "m/s</w>"
    ],
    [
      "BAT_VOLT=12.2",
      "1V</w>"
    ],
    [
      "12.2",
      "1V</w>"
    ],
    [
      "ADDR:0xD",
      "B"
    ],
    [
      "68",
      "M/S</w>"
    ],
    [
      "68",
      "m/s</w>"
    ],
    [
      "A",
      "6</w>"
    ],
    [
      "BAT_VOLT=11.6",
      "3V</w>"
    ],
    [
      "11.6",
      "3V</w>"
    ],
    [
      "4",
      "C</w>"
    ],
    [
      "BAT_VOLT=12.4",
      "6V</w>"
    ],
    [
      "12.4",
      "6V</w>"
    ],
    [
      "BAT_VOLT=11.",
      "9V</w>"
    ],
    [
      "11.",
      "9V</w>"
    ],
    [
      "79",
      "M/S</w>"
    ],
    [
      "79",
      "m/s</w>"
    ],
    [
      "ADDR:0xA",
      "F"
    ],
    [
      "BAT_VOLT=11.5",
      "2V</w>"
    ],
    [
      "11.5",
      "2V</w>"
    ],
    [
      "0",
      "4</w>"
    ],
    [
      "7",
      "F</w>"
    ],
    [
      "BAT_VOLT=11.8",
      "9V</w>"
    ],
    [
      "11.8",
      "9V</w>"
    ],
    [
      "BAT_VOLT=12.1",
      "3V</w>"
    ],
    [
      "12.1",
      "3V</w>"
    ],
    [
      "ADDR:0xE",
      "4"
    ],
    [
      "ADDR:0x6",
      "C"
    ],
    [
      "BAT_VOLT=12.3",
      "6V</w>"
    ],
    [
      "12.3",
      "6V</w>"
    ],
    [
      "BAT_VOLT=11.7",
      "2V</w>"
    ],
    [
      "11.7",
      "2V</w>"
    ],
    [
      "BAT_VOLT=11.9",
      "5V</w>"
    ],
    [
      "11.9",
      "5V</w>"
    ],
    [
      "ADDR:0x4",
      "B"
    ],
    [
      "9",
      "D</w>"
    ],
    [
      "BAT_VOLT=12.2",
      "8V</w>"
    ],
    [
      "12.2",
      "8V</w>"
    ],
    [
      "5",
      "A</w>"
    ],
    [
      "6",
      "8</w>"
    ],
    [
      "BAT_VOLT=11.6",
      "7V</w>"
    ],
    [
      "11.6",
      "7V</w>"
    ],
    [
      "BAT_VOLT=11.9",
      "3V</w>"
    ],
    [
      "11.9",
      "3V</w>"
    ],
    [
      "ADDR:0xA",
      "0"
    ],
    [
      "82",
      "M/S</w>"
    ],
    [
      "82",
      "m/s</w>"
    ],
    [
      "BAT_VOLT=11.8",
      "6V</w>"
    ],
    [
      "11.8",
      "6V</w>"
    ],
    [
      "BAT_VOLT=11.5",
      "1V</w>"
    ],
    [
      "11.5",
      "1V</w>"
    ],
    [
      "BAT_VOLT=11.7",
      "8V</w>"
    ],
    [
      "11.7",
      "8V</w>"
    ],
    [
      "5",
      "1</w>"
    ],
    [
      "BAT_VOLT=12.1",
      "7V</w>"
    ],
    [
      "12.1",
      "7V</w>"
    ],
    [
      "ADDR:0x3",
      "F"
    ],
    [
      "1",
      "A</w>"
    ],
    [
      "6",
      "M/S</w>"
    ],
    [
      "6",
      "m/s</w>"
    ],
    [
      "ADDR:0x4",
      "5"
    ],
    [
      "ADDR:0xE",
      "B"
    ],
    [
      "4",
      "D</w>"
    ],
    [
      "6",
      "6</w>"
    ],
    [
      "BAT_VOLT=11.9",
      "8V</w>"
    ],
    [
      "11.9",
      "8V</w>"
    ],
    [
      "BAT_VOLT=12.5",
      "6V</w>"
    ],
    [
      "12.5",
      "6V</w>"
    ],
    [
      "BAT_VOLT=11.6",
      "6V</w>"
    ],
    [
      "11.6",
      "6V</w>"
    ],
    [
      "ADDR:0xB",
      "F"
    ],
    [
      "ADDR:0x9",
      "2"
    ],
    [
      "ADDR:0x1",
      "F"
    ],
    [
      "81",
      "M/S</w>"
    ],
    [
      "81",
      "m/s</w>"
    ],
    [
      "88",
      "M/S</w>"
    ],
    [
      "88",
      "m/s</w>"
    ],
    [
      "BAT_VOLT=12.3",
      "2V</w>"
    ],
    [
      "12.3",
      "2V</w>"
    ],
    [
      "BAT_VOLT=11.8",
      "7V</w>"
    ],
    [
      "11.8",
      "7V</w>"
    ],
    [
      "BAT_VOLT=11.5",
      "3V</w>"
    ],
    [
      "11.5",
      "3V</w>"
    ],
    [
      "ADDR:0x5",
      "B"
    ],
    [
      "6",
      "C</w>"
    ],
    [
      "84",
      "M/S</w>"
    ],
    [
      "84",
      "m/s</w>"
    ],
    [
      "ADDR:0xA",
      "E"
    ],
    [
      "ADDR:0x3",
      "0"
    ],
    [
      "BAT_VOLT=11.6",
      "9V</w>"
    ],
    [
      "11.6",
      "9V</w>"
    ],
    [
      "ADDR:0x1",
      "E"
    ],
    [
      "7",
      "3M/S</w>"
    ],
    [
      "7",
      "3m/s</w>"
    ],
    [
      "BAT_VOLT=12.0",
      "2V</w>"
    ],
    [
      "12.0",
      "2V</w>"
    ],
    [
      "TEMP_CPU=91.",
      "4°C</w>"
    ],
    [
      "91.",
      "4°C.</w>"
    ],
    [
      "ADDR:0xE",
      "1"
    ],
    [
      "ADDR:0xC",
      "0"
    ],
    [
      "BAT_VOLT=12.1",
      "2V</w>"
    ],
    [
      "12.1",
      "2V</w>"
    ],
    [
      "ADDR:0x8",
      "B"
    ],
    [
      "ADDR:0x8",
      "4"
    ],
    [
      "71",
      "M/S</w>"
    ],
    [
      "71",
      "m/s</w>"
    ],
    [
      "ADDR:0x6",
      "4"
    ],
    [
      "BAT_VOLT=12.0",
      "7V</w>"
    ],
    [
      "12.0",
      "7V</w>"
    ],
    [
      "ADDR:0xC",
      "B"
    ],
    [
      "4",
      "1</w>"
    ],
    [
      "BAT_VOLT=9.2",
      "7V</w>"
    ],
    [
      "9.2",
      "7V</w>"
    ],
    [
      "BAT_VOLT=12.",
      "2V</w>"
    ],
    [
      "12.",
      "2V</w>"
    ],
    [
      "ADDR:0x4",
      "0"
    ],
    [
      "5",
      "4</w>"
    ],
    [
      "54",
      "M/S</w>"
    ],
    [
      "54",
      "m/s</w>"
    ],
    [
      "D",
      "6</w>"
    ],
    [
      "1",
      "C</w>"
    ],
    [
      "4",
      "8</w>"
    ],
    [
      "ADDR:0x7",
      "4"
    ],
    [
      "1",
      "4</w>"
    ],
    [
      "7",
      "2</w>"
    ],
    [
      "4",
      "B</w>"
    ],
    [
      "BAT_VOLT=11.7",
      "4V</w>"
    ],
    [
      "11.7",
      "4V</w>"
    ],
    [
      "7",
      "A</w>"
    ],
    [
      "72",
      "M/S</w>"
    ],
    [
      "72",
      "m/s</w>"
    ],
    [
      "BAT_VOLT=12.",
      "11V</w>"
    ],
    [
      "12.",
      "11V</w>"
    ],
    [
      "9",
      "8</w>"
    ],
    [
      "4",
      "6</w>"
    ],
    [
      "ADDR:0xA",
      "4"
    ],
    [
      "0",
      "8</w>"
    ],
    [
      "ADDR:0x0",
      "0"
    ],
    [
      "97",
      "M/S</w>"
    ],
    [
      "97",
      "m/s</w>"
    ],
    [
      "58",
      "M/S</w>"
    ],
    [
      "58",
      "m/s</w>"
    ],
    [
      "ADDR:0x0",
      "E"
    ],
    [
      "ADDR:0x9",
      "F"
    ],
    [
      "61",
      "M/S</w>"
    ],
    [
      "61",
      "m/s</w>"
    ],
    [
      "BAT_VOLT=11.9",
      "6V</w>"
    ],
    [
      "11.9",
      "6V</w>"
    ],
    [
      "69",
      "M/S</w>"
    ],
    [
      "69",
      "m/s</w>"
    ],
    [
      "92",
      "M/S</w>"
    ],
    [
      "92",
      "m/s</w>"
    ],
    [
      "ADDR:0x6",
      "2"
    ],
    [
      "94",
      "M/S</w>"
    ],
    [
      "94",
      "m/s</w>"
    ],
    [
      "D",
      "0</w>"
    ],
    [
      "5",
      "B</w>"
    ],
    [
      "4",
      "A</w>"
    ],
    [
      "6",
      "3</w>"
    ],
    [
      "BAT_VOLT=11.8",
      "4V</w>"
    ],
    [
      "11.8",
      "4V</w>"
    ],
    [
      "4",
      "E</w>"
    ],
    [
      "55",
      "M/S</w>"
    ],
    [
      "55",
      "m/s</w>"
    ],
    [
      "BAT_VOLT=12.4",
      "9V</w>"
    ],
    [
      "12.4",
      "9V</w>"
    ],
    [
      "ADDR:0xB",
      "B"
    ],
    [
      "D",
      "C</w>"
    ],
    [
      "1",
      "F</w>"
    ],
    [
      "98",
      "M/S</w>"
    ],
    [
      "98",
      "m/s</w>"
    ],
    [
      "BAT_VOLT=12.5",
      "2V</w>"
    ],
    [
      "12.5",
      "2V</w>"
    ],
    [
      "BAT_VOLT=12.0",
      "9V</w>"
    ],
    [
      "12.0",
      "9V</w>"
    ],
    [
      "D",
      "3</w>"
    ],
    [
      "D",
      "8</w>"
    ],
    [
      "ADDR:0xE",
      "5"
    ],
    [
      "D",
      "B</w>"
    ],
    [
      "BAT_VOLT=12.1",
      "9V</w>"
    ],
    [
      "12.1",
      "9V</w>"
    ],
    [
      "6",
      "4</w>"
    ],
    [
      "5",
      "8</w>"
    ],
    [
      "BAT_VOLT=12.2",
      "3V</w>"
    ],
    [
      "12.2",
      "3V</w>"
    ],
    [
      "TEMP_CPU=84.",
      "5°C</w>"
    ],
    [
      "84.",
      "5°C.</w>"
    ],
    [
      "BAT_VOLT=11.5",
      "4V</w>"
    ],
    [
      "11.5",
      "4V</w>"
    ],
    [
      "78",
      "M/S</w>"
    ],
    [
      "78",
      "m/s</w>"
    ],
    [
      "ADDR:0x9",
      "1"
    ],
    [
      "ADDR:0xB",
      "2"
    ],
    [
      "BAT_VOLT=12.1",
      "5V</w>"
    ],
    [
      "12.1",
      "5V</w>"
    ],
    [
      "ADDR:0x3",
      "2"
    ],
    [
      "ADDR:0x5",
      "4"
    ],
    [
      "4",
      "9</w>"
    ],
    [
      "7",
      "9</w>"
    ],
    [
      "87",
      "M/S</w>"
    ],
    [
      "87",
      "m/s</w>"
    ],
    [
      "8",
      "C</w>"
    ],
    [
      "91",
      "M/S</w>"
    ],
    [
      "91",
      "m/s</w>"
    ],
    [
      "7",
      "D</w>"
    ],
    [
      "ADDR:0xD",
      "2"
    ],
    [
      "ADDR:0x4",
      "2"
    ],
    [
      "BAT_VOLT=9.4",
      "4V</w>"
    ],
    [
      "9.4",
      "4V</w>"
    ],
    [
      "ADDR:0x2",
      "E"
    ],
    [
      "ADDR:0xF",
      "B"
    ],
    [
      "BAT_VOLT=12.",
      "4V</w>"
    ],
    [
      "12.",
      "4V</w>"
    ],
    [
      "ADDR:0xC",
      "2"
    ],
    [
      "TEMP_CPU=82.",
      "0°C</w>"
    ],
    [
      "82.",
      "0°C.</w>"
    ],
    [
      "7",
      "4</w>"
    ],
    [
      "62",
      "M/S</w>"
    ],
    [
      "62",
      "m/s</w>"
    ],
    [
      "D",
      "F</w>"
    ],
    [
      "BAT_VOLT=11.7",
      "6V</w>"
    ],
    [
      "11.7",
      "6V</w>"
    ],
    [
      "TEMP_CPU=89.",
      "3°C</w>"
    ],
    [
      "89.",
      "3°C.</w>"
    ],
    [
      "52",
      "M/S</w>"
    ],
    [
      "52",
      "m/s</w>"
    ],
    [
      "D",
      "A</w>"
    ]
  ],
  "special_tokens": {
    "<PAD>": 0,
    "<UNK>": 1,
    "<LOG>": 2,
    "<SEP>": 3,
    "<END>": 4
  }
}